#version: 0.2
Ġ t
h e
Ġ a
Ġt he
i n
Ġ o
r e
Ġ s
Ġ w
e r
n d
Ġo f
o n
a t
i s
Ġ b
e n
i t
Ġ c
e d
Ġ f
Ġ p
e s
Ġ m
o r
o u
Ġ h
Ġa nd
Ġ in
a r
Ġt o
a n
Ġ d
Ġt h
in g
l l
a s
i c
Ġ l
Ġ n
o m
i on
Ġ e
a l
Ġb e
en t
l e
Ġ T
Ġ re
s t
Ġ I
Ġ g
o t
v e
c e
Ġw h
s e
u t
l y
c t
Ġ he
i m
r o
i r
u r
a d
Ġ A
Ġ S
Ġ is
i d
Ġth at
Ġ u
Ġ it
Ġ C
o w
e t
v er
Ġo n
it h
Ġf or
i g
l d
Ġa s
Ġ M
c h
a y
Ġw ith
Ġ 1
a m
Ġa n
Ġw e
ĠT he
Ġw as
ic h
Ġ ;
Ġ B
â Ģ
Ġb y
i l
Ġ H
Ġc on
t er
he r
Ġh a
Ġs u
r a
Ġh is
at ion
i f
Ġo r
Ġwh ich
Ġs t
u l
Ġa t
Ġ y
Ġ P
Ġn ot
Ġd e
i ll
a ll
u s
Ġf r
o d
Ġ v
q u
a in
p e
Ġe x
es s
o l
Ġ W
h t
Ġs e
Ġ L
r i
u m
t h
re s
g e
Ġ G
ou r
o re
es t
Ġfr om
i e
o s
Ġs h
e m
a b
re d
Ġ E
Ġa re
Ġ D
is t
at e
Ġ r
ou ld
Ġp ro
Ġth is
Ġ F
n t
an t
Ġha ve
er s
Ġc om
ou s
Ġ O
Ġ âĢ
a nd
a c
k e
p p
Ġ "
ig ht
ar t
Ġa ll
Ġ 2
Ġn e
Ġb ut
Ġs o
i v
Ġ R
ar d
Ġc h
Ġ J
Ġh ad
e ct
Ġthe ir
it y
Ġ N
Ġa l
p t
Ġm e
Ġthe y
Ġwh o
i es
Ġ (
or t
i ve
Ġw he
ou g
t e
u re
or d
Ġwe re
u n
Ġ k
u st
Ġm an
Ġh im
c c
e l
t her
om e
ĠâĢ Ķ
ver y
on g
Ġthe m
as t
o st
Ġu p
m ent
f f
c i
Ġa b
Ġbe en
re at
Ġy ou
ou nd
Ġa d
Ġp l
' s
Ġl e
in e
Ġon e
o p
am e
Ġa r
en ce
Ġ j
Ġ 3
Ġn o
p er
Ġw ill
a k
a v
in d
o se
Ġu n
ĠT h
an ce
Ġ qu
i b
Ġd is
Ġf e
u d
Ġ .
Ġ im
o nd
Ġp r
ion s
t o
Ġhe r
ab le
o od
Ġp er
is h
Ġh as
Ġthe re
a g
Ġd o
Ġm y
Ġo ther
ou t
r y
oug h
Ġ i
ar y
se l
at ed
Ġp art
a p
Ġ :
Ġit s
Ġm ore
Ġ 4
Ġt r
as s
Ġ en
ĠI n
ic e
p l
ĠC h
i re
Ġs a
ou nt
Ġp re
all y
an s
w n
Ġo b
ĠI t
Ġw ould
Ġm ay
Ġs p
Ġo ur
i a
Ġwhe n
Ġa g
id e
Ġan y
u e
on e
Ġw or
Ġ '
ĠH e
a ce
er t
a u
Ġa m
re e
Ġ V
Ġl o
Ġu s
Ġs ome
Ġt w
he d
Ġt im
Ġc an
Ġth an
a re
Ġcon t
ĠM r
c k
l i
it t
Ġg reat
ar s
res s
f e
nd er
o ll
n e
o k
Ġ if
Ġup on
a ct
Ġin to
Ġe v
i ous
Ġ very
Ġc l
a ch
Ġre s
a ge
ad e
f ore
n g
i i
c l
u b
a ke
Ġy e
Ġcom m
f ter
Ġb r
at h
ing s
Ġl i
Ġo ut
n ow
Ġ1 8
en s
it e
c es
Ġd es
Ġcon s
er v
. ,
ĠS t
w e
Ġre m
Ġ 5
it ion
Ġs he
Ġ K
Ġthe se
Ġsu b
as e
in t
Ġa cc
Ġtim e
Ġp e
Ġfor m
u ch
ic al
Ġb l
Ġ -
Ġon ly
Ġsh ould
Ġsu ch
. "
re n
ay s
Ġc o
ĠA nd
ul t
Ġ ro
ig n
Ġf l
ation s
Ġa p
f t
on s
is e
Ġcom p
Ġp o
Ġa pp
sel f
r u
e p
b er
Ġim p
Ġf ir
Ġ 6
Ġtw o
en er
ct ion
s o
Ġin d
i p
i le
i ed
Ġp res
Ġm ost
ar k
ur n
Ġs pe
n ess
Ġa fter
Ġu nder
c ed
j ect
an g
Ġt e
o y
âĢ Ķ
w ard
Ġbe ing
. .
0 0
Ġth ose
Ġsa id
Ġwh at
i an
Ġm ade
Ġk now
Ġg o
f ul
Ġthe n
Ġg r
Ġ !
Ġl a
Ġin f
ic t
H E
ac k
or y
l es
Ġ U
Ġn ow
u ll
ent s
l and
ĠB ut
Ġ ra
Ġfir st
Ġs ame
Ġm uch
if e
v ed
o g
ot h
ĠG od
Ġ 8
Ġ *
he s
Ġ ?
Ġh ow
Ġs c
Ġy our
Ġat t
at er
Ġag ain
os s
o ve
Ġd ist
Ġof f
Ġe very
oug ht
i ld
or s
p h
or m
E R
d u
ot her
Ġe m
i al
Ġsh all
Ġwhe re
Ġbe fore
Ġm ust
Ġc ould
Ġbe c
O N
ow er
Ġ Y
r it
Ġo ver
Ġre p
Ġa c
i z
Ġbe t
Ġ ent
at her
ic k
is s
Ġd if
ul ar
Ġ 7
he n
Ġg ood
Ġl ong
Ġ ^
i x
Ġwe ll
er m
Ġap pe
l ie
t y
Ġab out
âĢ Ļ
at es
ĠTh is
Ġth r
Ġm en
l ed
l ic
Ġal so
pe ct
Ġf ound
i ly
Ġman y
ig h
Ġch ar
Ġn at
ri b
Ġf a
Ġo wn
u g
Ġwor k
c ess
ow n
, "
ĠW e
ĠT HE
Ġg ener
Ġli ke
ĠW h
v ing
Ġp ass
Ġc ount
nd s
Ġo p
Ġs m
Ġre c
Ġb o
Ġin st
ut h
ro w
or n
Ġin c
v es
Ġre g
Ġex p
u al
Ġh o
ĠS e
Ġo cc
r ist
Ġev en
Ġwith out
Ġsu pp
itt le
in k
Ġd ay
Ġor d
ra ct
Ġ ,
ff ect
Ġc all
Ġe ar
is hed
ain ed
au se
Ġp ers
at ter
Ġse c
Ġp ur
Ġg l
Ġg iv
Ġf oll
Ġse e
et h
Ġin te
Ġl ittle
Ġex t
a ve
ib le
Ġthr ough
Ġre t
E S
Ġm ight
ver s
Ġ1 7
Ġa ct
ĠO F
Ġ 9
p le
ou se
e ver
b e
Ġpres ent
Ġre l
it ed
Ġ Â
b le
Ġfoll ow
r an
Ġd id
Ġl ar
Ġas s
i ent
ĠCh rist
Ġt ak
Ġpl ace
T I
o h
v en
Ġ &
in ed
ut ion
. )
Ġs in
ĠE ng
Ġs ur
c y
ad y
ĠL ord
ĠA s
os ed
Ġcon f
Ġl et
Ġl ife
Ġc ar
it her
t s
i o
Ġl ast
u nd
Ġe t
Ġg ra
Ġe nd
Ġ |
A N
m e
it s
Ġs l
on t
Ġn um
Ġin ter
e w
E N
ĠT o
e red
Ġye ars
ant s
Ġne ver
ert ain
Ġs y
al e
Ġ1 0
Ġs ay
u res
re t
nd ed
o c
Ġth ree
al s
ce pt
ut e
Ġre f
ĠR e
Ġst r
Ġw ord
Ġm ake
id er
Ġpro p
Ġ est
n er
Ġin t
a red
Ġp ub
op le
Ġc our
I N
Ġe ach
Ġhe re
Ġc ond
en e
ĠA n
A L
Ġhim self
ĠâĢ ľ
k s
m an
ou n
Ġp ower
ent ion
) ,
y s
O R
a il
ĠD e
Ġ 0
re nt
Ġad d
in s
ward s
ent ly
Ġpr in
Ġp oss
we en
Ġy et
Â ¬
ur ch
a ir
Ġr ight
et y
re st
Ġad v
Ġha ving
Ġf ar
Ġagain st
A R
Ġ [
Ġ1 6
Ġd own
l ess
Ġj ust
Ġc a
t on
it ies
Ġne ar
ver n
Ġne w
Ġwho le
Ġse em
Ġc or
ment s
Ġbet ween
o f
at ing
t ed
Ġ x
Ġm on
as es
ĠC om
Ġm in
h ing
t en
Ġo ld
Ġc e
Ġpe ople
Ġw ay
Ġa w
Ġhe art
ter s
ĠThe y
Ġsm all
g et
Ġcount ry
if ic
Ġw ater
ur ing
ĠI f
ce ed
Ġ1 5
ir c
Ġb od
Ġp ar
m er
o ck
Ġb oth
Ġ ed
o b
Ġst ill
Ġv ar
âĢ Ŀ
Ġ1 2
Ġob s
Ġdis c
Ġin s
ĠA t
ĠThe re
Ġe ver
Ġth ough
Ġsub ject
Ġp le
Ġlar ge
Ġc ol
Ġ ke
Ġper f
ĠA r
an ces
Ġla w
ĠO n
Ġhow ever
Ġto o
as on
Ġu nt
Ġpro du
ain s
Ġre ad
oh n
Ġsu ff
Ġw ar
Ġpo int
Ġ es
ĠF r
Ġf o
Ġ1 1
Ġl ess
Ġs et
g ed
Ġn or
Ġar t
i red
Ġc ase
n ot
Ġwh ile
p s
Ġn ame
Ġm ar
Ġt ra
Ġcon st
iv ed
Ġad m
i or
Ġcall ed
Ġhe ad
Ġde p
is ed
ĠB e
Ġ Q
Ġfe w
Ġt ake
Ġg ive
Ġam ong
er n
Ġe y
Ġth ink
Ġw r
Ġe le
Ġar m
Ġre st
u p
Ġgiv en
ro wn
Ġst ate
Ġk ind
Ġha nd
ĠJ ohn
Ġs erv
i er
Ġm em
Ġm ind
Ġu se
Ġfr ie
sel ves
Ġcons ider
I S
ĠN o
Ġch ild
ĠF or
Ġc ertain
Ġth ought
Ġc irc
Ġlo ok
Ġp h
Ġs im
ter n
ĠD r
Ġan other
os ition
Ġwor ld
ri ed
ou b
u c
Ġcom e
s s
Ġs ent
Ġin v
Ġe ffect
s h
ir it
Ġye ar
x t
Ġb re
Ġ1 9
ou th
ve l
Ġre qu
ĠH is
Ġre ce
ate ly
Ġd ire
ĠL e
al f
ĠS c
Ġdif fe
in es
Ġf ind
t he
Ġbe g
Ġwh om
en se
Ġne cess
Ġl and
m ed
Ġh um
Ġo pp
Ġgener al
Ġcont in
Ġg u
Ġchar act
l ish
Ġd et
ĠA l
Ġin g
Ġp at
Ġtak en
ie w
Ġbe lie
ĠS p
ĠP r
en ed
Ġa uth
Ġm od
Ġf our
ur y
Ġpre v
at ive
Ġp ut
ab ly
Ġl ight
Ġd i
Ġprin ci
I I
Ġp ri
Ġf act
ĠS o
Ġt em
Ġth us
Ġd iv
ag es
ie ld
ren ce
a w
Ġspe c
Ġ ri
r ic
Ġ1 4
Ġh igh
Ġab ove
Ġde c
Ġst re
Ġde ath
Ġ ir
Ġle ft
our s
ĠW hen
Ġpro per
an y
Ġpl ac
Ġthere fore
Ġs om
Ġappe ar
Ġlo ve
Ġf ull
Ġa ff
Ġd ra
ĠI s
i us
m b
au g
Ġ X
Ġ1 3
Ġind e
ct ed
Ġe qu
Ġcan not
ir d
o ol
ain t
u ally
Ġs ide
Ġtr ans
id ent
Ġres pect
Ġother s
Ġth y
Ġbod y
) .
qu e
id ed
Ġm er
in al
ur al
Ġord er
Ġc ent
ud e
Ġob ject
Ġpub lic
i um
Ġinf l
Ġp ort
Ã ©
Ġc he
en g
is on
ver al
f ic
Ġh ouse
p r
ĠTh at
Ġf ore
Ġpart ic
id es
h o
Ġpers on
ĠS ir
m ost
Ġ Î
ar n
Ġret urn
a j
Ġfe el
w ays
Ġme ans
u red
Ġauth or
Ġf am
ak ing
a x
Ġm o
c hes
Ġ ill
Ġnat ure
Ġk ing
i ans
in ess
a h
ĠI nd
m on
Ġ er
Ġb est
ĠM ar
Ġm atter
ou l
Ġinte rest
o int
Ġcharact er
il ity
Ġe l
p ar
Ġp a
Ġnum ber
Ġex am
l ing
ie f
Ġf re
Ġpro v
as ed
ap s
iv es
Ġse en
Ġh on
c ul
ĠN ew
ĠA N
Ġv ol
ĠP ro
he re
Ġth ings
Ġb u
Ġde l
Ġm il
Ġc ur
Ġc le
Ġcomm on
Ġc ame
Ġs er
Ġsh ow
Ġobs erv
a ut
ri pt
Ġv al
Ġv is
A T
ĠU n
Ġyou ng
Ġbe l
Ġs ol
u ed
m en
am ent
is m
Ġd uring
Ġwho se
er y
Ġthem selves
am es
Ġt urn
Ġnot hing
Ġdes c
itt ed
est ion
Ġsec ond
ord ing
Ġc are
an ge
Ġso on
Ġal ways
. âĢĶ
at t
Î ½
. '
ĠC l
Ġpr om
Ġof ten
Ġon ce
Ġacc ount
Ġd ays
Ġse veral
Ġ ut
ic es
in ation
i am
Ġdo es
ĠC on
Ġd one
Ġimp ort
Ġb ack
se qu
Ġt erm
I C
ĠP h
Ġd oub
Ġv iew
get her
im es
Ġcour se
e c
ot t
Ġth ing
U R
Ġ ve
Ġh alf
Ġha pp
Ġpro f
Ġm ed
Ġme et
ist s
Ġj ud
Ġhe av
id ence
Ġ2 0
ĠL ond
Ġt re
ot e
Ġbec ause
Ġsp irit
Ġc ases
ĠâĢ ĺ
Ġpur p
a i
Ġ ver
Ġe ither
Ġsu cc
Ġob t
Ġde f
Ġfollow ing
Ġs k
Ġ. ..
ĠS he
Ġexp ress
ĠE d
te nd
Ġm et
Ġt reat
Ġst and
b r
Ġaw ay
Ġocc as
an k
ĠW ill
om an
a e
Ġc ap
Ġre ason
Ġsin ce
Ġtr ue
Ġstr ong
an e
ĠP ar
ess ion
Ġn ight
ĠS h
Ġdiffe rent
Ġs at
' d
un e
Ġp ract
iss ion
u es
Ġc ause
al k
ĠG o
vern ment
Ġus ed
Ġreg ard
al th
Ï Ħ
Ġop en
Ġf av
Ġl ab
ĠEng land
Ġknow n
Ġsh ort
Ġman ner
at ure
a pt
Ġdis e
Ġcon c
ĠC o
Ġwith in
Ġs on
ĠO r
un g
Ġs ix
ect ion
u nt
00 0
im e
Ġbl ood
Ġbr ought
Ġab s
Ġc r
Ġword s
Ġsu m
Ġp ol
Ġf all
as ure
Ġgr ound
d e
pe nd
ĠB y
b y
d om
le y
d en
Ġrem ark
Ġt en
Ġal most
am p
Ġdis p
ll ow
Ġw rit
ro ss
Ġb ro
Ġf ree
b ers
Ġto ok
Ġpart s
s on
Ġf ur
as ter
Ġth ou
u se
Ġc oll
Ġcirc um
av es
Ġbet ter
t ing
g g
r s
Ġop in
Ġg ent
pl oy
Ġs ing
Ġr ather
re w
Ġex per
i ar
d ay
Ġto wn
Ġi i
Ġfe et
Ġpro b
Ġs al
n ing
Ġt er
ĠLond on
i od
Ġc al
Ġear th
ol og
Ġt ion
ĠWh at
Ġit self
Ġt ill
r ing
Ġd est
ĠB rit
Ġform er
ĠN or
us s
Ġsu per
Ġl ib
Ġs ays
i ence
ĠA d
Î ±
Ġfa ith
Ġbe aut
Î ¿
et s
O L
Ġor ig
Ġem ploy
Ġa ir
a im
Ġtim es
TI ON
Ġst e
v o
ĠW ith
y ing
Ġtr uth
g es
Ġres ult
a pe
Ġha nds
al ity
em pt
I T
Ġa ffect
Ġde g
Ġex ist
Ġinc re
st em
ow ers
ĠEng lish
Ġpartic ular
h am
Ġan im
r on
z e
Ġf ather
Ġapp ro
Ġm ark
ri e
Ġdoub t
Ġch urch
er ing
a f
Ġh ard
Ġrel ig
Ġwhe ther
Ġoccas ion
Ġb ene
Ġqu estion
ur g
ent y
Ġan s
Ġ2 1
Ġd ut
we ll
ar ing
i en
ĠAN D
ĠE x
Ġcomp le
p it
ĠA ll
Ġex c
ĠO f
L E
d er
et imes
e e
pl es
Ġacc ording
if ied
Ġnecess ary
Ġm is
Ġs oul
ĠB r
l s
Ġs w
u it
med i
ĠâĢ ¢
ĠG e
h aps
Ġmon th
ĠP l
ĠI N
Ġsucc ess
Ġan n
Ġ2 5
Ġs il
Ġd u
Ġpro ceed
ĠK ing
Ġr u
ic ient
Ġs ch
an c
Ġne xt
Ġv i
is ter
Ġu nd
res ent
Ġm or
Ġto gether
Ġh y
Ġe as
Ġdif fic
ull y
ut ed
Ġde cl
Ġde v
f l
Ġen g
Ġper iod
ĠCh urch
ci ety
Ġunt il
Ġs ign
Ġle g
Ġh or
Ġsy stem
Ġw ent
ou ra
Ġo per
ac hed
w h
Ġw ant
Ġ2 2
Ġacc om
in ct
Ġp ain
Ġgent le
Ġdiffic ult
Ġpers ons
Ġchild ren
Ġs it
Ġle ad
eng th
á ½
il s
st er
Ġt ri
Ġ2 4
Ġr ound
Ġex cept
us ed
ic s
Ġhum an
ĠThe se
re ly
Ġhis t
Ġg ave
ĠH ow
I L
ain ing
f act
Ġl atter
ou d
Ġbec ome
Ġbo ok
c o
E L
ren ch
Ġ3 0
ci al
T he
om s
c hed
U S
Ġle ast
Ġcon sequ
' t
Ġho pe
ug ht
em ent
in ary
ĠC H
Ġinde ed
ect ed
Ġgener ally
Ġas k
Ġm us
Ġocc ur
ic a
A S
Ġb ar
und red
Ġke ep
b s
ĠA mer
ĠY ou
Ġey es
ot s
Ġ2 3
ow ed
in a
Ġfre qu
iv ing
Ġch ief
an n
E D
re ad
Ġde ep
Ġwh ite
Ġent ire
Ġoff ic
g y
Ġa ge
re ady
Ġm id
Â «
Ġme an
Ġex h
e ll
are nt
Ġm ag
led ge
l f
Ġne ed
pp er
Ġbelie ve
Ġb us
O M
Ġperf ect
Ġl ength
st and
ress ed
Ġcomm and
Ġthe e
e k
Ġh undred
v al
er ous
Ġg et
E T
on y
it ions
Ġfrie nds
Ġinfl u
u ct
Ġs ac
Ġre d
Ġdire ct
Ġm om
ĠB o
ĠCh ar
Ġte ll
Ġm ot
Ġcl ass
Ġpurp ose
or k
Ġcircum st
as h
Ġl ine
ĠÂ £
Ġspe ak
Ġfrie nd
Ġd r
ĠCom m
Ġim medi
el t
Ġal ready
th ough
iz e
Ġho ld
Ġ Z
Ġm orn
Ġd en
Ġsa w
Ġe ff
Ġpo or
Ġsom etimes
o ice
Ġ \
y l
f ort
Ġac qu
is ion
ĠM ay
ĠT r
n o
w er
ci ent
ĠWill iam
is ing
i et
iz ed
aug h
Ġnear ly
Ġto wards
os es
Ġg re
Ġd ark
Ġle arn
ĠF rench
Ġst ru
. ]
Ġp ost
Ġab le
, '
im ent
l ished
Ġin cl
Ġl im
Ġf in
ĠC ol
Ġa ction
Ġc ity
Ġd er
Ġhe ard
. âĢĿ
ĠM e
ish op
Ġl ie
er c
Ġhe ld
Ġw ind
Ġpr ay
Ġvar ious
Î ¹
one y
Ġfor t
Ġh ome
Ġpass ed
^ ^
Ġw it
m n
Ġf ive
Ġc ut
ang u
f ully
ill ed
Ġex pl
it er
Ġst ud
at s
ĠFr om
Ġqu ite
a z
ĠM y
in ce
Ġm ent
Ġper haps
Ġopin ion
Ġ ide
ran ge
Ġor g
Ġnat ural
Ġcl ose
Ġlet ter
Ġcomm un
ard s
Ġl ay
Ġsub st
ĠA b
Ġf ig
m s
ĠChrist ian
ĠE s
u ly
Ġg row
Ġdise ase
Ġcon v
ir t
c il
Î µ
er ve
l o
it ution
Ġp ay
ci ally
is es
Ġ2 6
Ġt lie
Ġf ace
ro p
Ġsu n
il t
ĠL et
Ġan t
Ġ2 8
rib ed
Ġgreat er
Ġl ate
Ġseem s
T ER
á ¼
Ġrep resent
Ġest ab
ro du
ĠI I
Ġ2 7
ak es
om en
Ġb ra
Ġex pect
Ġpri v
Ġf ine
fe rence
f ord
in ing
Ġk ne
ce ll
li ed
Ġform ed
Ġm ention
Ġplac ed
. -
Ġv es
ul ation
ĠMr s
Ġfor ce
ĠC ar
Ġcon n
Ġar ri
Ġs we
ĠH er
re g
Ġac id
Ġde m
at ic
Â »
Ġth o
Ġsat is
Ġmorn ing
Ġsuff icient
on es
et er
ĠH o
ĠA m
us ion
um e
il ar
r al
en ces
Ġinf orm
Ġcle ar
ener al
n a
b it
A M
1 1
Ġmom ent
ous and
g er
R E
Ġsy m
Ġal one
Ġes pe
ii i
c r
am m
Ġf ire
Ġey e
Ġp op
ow s
se mb
Ġfam ily
Ġrece ived
Ġ2 9
el s
Ġext re
Ġunt o
c he
Ġqu ant
o ver
IN G
ĠSe e
Ġspec ies
Ġpr ot
ort s
en cy
f ace
it ude
Ġh ig
Ġbr ing
ĠH en
te nded
av ing
Ġob l
Ġappe ars
Ġc oun
ĠP o
Ġtw enty
Ġg en
Ġbl ack
ar r
Ġdo ct
Ġen em
Ġth ousand
at ch
Ġfur ther
Ġear ly
Ġm other
EN T
Ġp en
Ġ /
Ġcom pl
ound s
a it
Ġs ense
Ġposs ess
ĠN e
ed s
A P
Ġknow ledge
Ġo ught
if ul
n al
Ġimp ro
Ġd ang
Ġh ar
Ġn ation
f er
ar ch
Ġe ight
sh ip
Ġp ast
Ġse a
l or
Ġfe ar
Ġb ur
ĠO ne
Ġre al
e y
Ġcon cl
Ġatt ention
Ġl ow
Ġpe ace
Ġcond ition
Ġposs ible
Ġwor th
ĠTh om
ĠB l
Ġatt empt
p id
Ġse par
um ent
Ġm ount
Ġne g
Ġcont r
Ġen ough
Ġt est
at or
A C
ne y
Ġw ood
at a
Ġam ount
ious ly
Ġdet erm
n s
Ġre v
Ġto ld
Ġun c
Ġfa ir
u ro
ri es
Ġwork s
ve re
Ġpart y
ĠQ u
ix ed
Ġheav en
i vers
ĠM ed
ing u
l er
Ġsc ar
it te
al es
Ġbec ame
Ġsh ip
ide red
ct ions
Ġf t
ou red
Ġgo vernment
Ġsch ool
ĠF e
p or
r ict
Ġst at
Ġapp oint
ĠJ es
Ġbe h
Ġ =
Ġl angu
ĠN ow
Ġf if
Ġst ri
Ġsupp ort
Ġr un
i ety
al t
Ġhe alth
Ġm aking
ur s
Ġsu s
Ġl ive
Ġ _
Ġport ion
Ġespe cially
Ġs ens
Ġmil es
Ġle ave
k en
Ġves sel
if f
ound ed
Ġs le
Ġal though
Ġrem o
Ġin j
Ġt y
iv id
Ġm oney
Â °
Ġart ic
ci ous
ĠG r
Ġocc up
p ond
Ġstre ng
il ed
Ġp ie
d le
Ġ3 1
Ġfor th
ĠA fter
Ġp osition
ĠA ug
Ġso ld
Ġhe ar
g r
ĠP er
a id
ĠBrit ish
Ġw ife
Ġsit u
w ise
Ġd ied
Ï Ĥ
Ġinflu ence
Ġcar ried
id ge
Ġsim ilar
h y
E C
b o
Ġf ac
Ġco ld
est ed
Ġobt ained
Ġbel ong
o ke
u i
Ġqu e
Ġdut y
o pt
Ġdeg ree
Ġimport ant
Ġ id
Ġch ange
Ġh our
t t
cul iar
Ġsur face
Ġcomple te
am ed
ut es
Ġbu ild
Ġde ad
a pp
ĠThe n
Ġprob ably
Ġhist ory
ĠD o
Ġd ie
ĠFr ance
Ġ á¼
if t
re et
ĠJ ames
om in
Ġprodu ced
Ġth ird
Ġcour t
u x
f or
u ous
Ġde fe
us es
Ġpe culiar
Ġl ost
r ation
Ġafter wards
Ġcons idered
itt en
s c
ll ed
ac y
Ġbr other
Ġserv ice
Ġsl ight
Ġ <
e x
Ġse lf
i res
Ġ {
Ġperf orm
Ġcontin ued
Ġf elt
g ress
Ġc ast
R O
Ġint rodu
op s
Ġal ong
ĠGe or
Ġqu ar
l t
Ġappe ared
Ġw all
o e
Ġ4 0
ru ction
Ġbr an
ĠC an
em ber
ĠP e
th ing
Ġb es
ill s
Ġim m
Ġres ol
ĠH ouse
Ġadv ant
Ġp ra
Ġseem ed
ci ence
Ġp ress
Ġprinci p
Ġmy self
Ġgra ce
Ġcircumst ances
ĠSt ates
Ġconsider able
Ġpre p
c ing
Ġke pt
ĠB ar
e ad
Ġh ath
ĠRe v
Ġbec om
Ġh ours
att le
g o
Ġri ver
w ing
y n
Ġobserv ed
Ġw oman
tern al
ho ld
Ï ģ
ant ly
Ġst ra
in n
i ver
Ġf at
Ġvi ol
Ġpl ant
Ġfo ot
Ġform s
R I
ud ed
le t
Ġbl ess
eth ing
Ġad opt
Ġappear ance
h ab
ĠHen ry
Ġd a
ib us
Ġinte ll
ĠC or
Ġb ad
Ġ18 5
Ġe re
ĠN ot
Ġem b
nd ing
g ment
Ġcol our
Ġarm y
Ġemploy ed
Ġdist inct
Ġen c
Ġcom b
Ġequ al
Ġhe l
Ġth ir
Ġimmedi ately
Ġmonth s
Ġ18 6
as te
le ct
Ġprev ent
Ġconc ern
ĠT O
Ï ĥ
uro pe
Ġm ater
Ġro om
Ġm ove
ĠG eneral
Ġgo ld
Ġpat ient
ĠA g
ĠR ob
Ġw ish
Ġorg an
Ġ18 4
ĠJes us
pe l
it al
Ġcl aim
Ġlo c
Ġbus iness
ĠC oll
Ġexh ib
Ġrep ort
Ġauthor ity
Ġdes ign
a ul
itte e
Ġl ower
augh ter
Ġne igh
ĠPh il
, âĢĿ
Ġatt ack
ĠM iss
ive ly
Ġex cl
pp ed
Ġex ec
ru pt
Ġin qu
Ġplac es
1 8
Ġans wer
Ġmeet ing
Ġ z
Ġen j
ĠE urope
Ġset t
ict ion
Ġne ither
Ġla id
ript ion
Ġpro cess
ĠSe c
ĠThom as
ot ed
Ġt ro
ĠEs q
O O
y ond
Ġrem ain
im ate
ang ed
it ary
Ġsu c
ou ble
ar ies
Ġquant ity
is c
Ġind ivid
al d
ĠS u
Ġrelig ion
Ġle aves
Ġp un
Ġass ist
te red
Ġat tend
ĠG l
Ġf ield
Ġan cient
Ġc reat
Ġbeg in
Ġdoct r
Ġf urn
Ġ iv
Ġcons ist
Ġpl an
Ġmem bers
Ġa f
Ġfrequ ently
Ġpr ison
Ġorig in
Ġf ut
ate ver
ĠS ome
ort ion
ro y
ĠTh us
Ġph ys
w ith
am s
est y
eth od
ĠM aj
Ġsom ething
w ay
Ġw ond
Ġhe at
Ġdist ingu
Ġkne w
Ġv irt
Ġa v
Ġval ue
Ġre pe
ĠS ch
Ġp et
Ġl ord
Ġlong er
Ġp al
Ġrequ ired
Ġde ar
Ġan g
Ġcond uct
Ġm aj
Ġex erc
e re
Ġp ot
Ġad j
Ġwr itten
h ip
u ck
Ġtem per
Ġ3 3
. *
it es
ĠÂ «
Ġsec ret
Ġl ed
Ġtr ust
in c
Ġdep art
1 0
Ġ3 2
b our
ir m
Ġj o
Ġgo ing
Ġth ick
Ġentire ly
Ġ ur
Ġscar ce
Ġcon ce
Ġx x
Ï Ģ
p o
Ġeven ing
Ġv oice
ĠP res
Ġref er
ous es
Ġfav our
ag ed
Ġvis it
Ġbeaut iful
ic an
c on
Ġunder stand
i ers
Ġ il
Ġpa per
im ents
I R
Ġapp lic
u ke
Ġlangu age
Ġbe yond
Ġstreng th
ĠNor th
v i
r or
ore d
ĠGeor ge
Ġar g
Ġi ii
Ġes c
Ġro ck
Ġg ot
Ġobl ig
ll s
Ġindivid ual
ĠChar les
A TION
ĠS T
Ġex cell
Ġwe ek
ĠC our
Ġde b
Ġc ross
Ġpol it
ĠW est
Ġpl ain
m it
Ġn one
le x
Ġc op
Ġ3 5
air s
Ġw is
Ġs ound
ĠC al
ĠHe re
Ġm ass
Ġro ad
Ġd im
he m
ĠA p
e nd
S T
Ġn on
Ġw in
Ġev idence
g in
E M
ve red
U N
Ġp ure
ĠF l
Ġcar ry
Ġwe ak
Ġbe ar
Ġim ag
O T
ĠM an
ĠJ une
i qu
c er
iv il
Ġtak ing
Ġv ill
Ġb ed
g ing
Ġhor se
Ġw alk
Ġj oy
ĠF ran
Ġc re
ove red
Ġfollow ed
Ġmention ed
ĠS outh
r ate
ĠJ an
Ġsing le
Ġt ub
Ġide a
Ġl iving
Ġnot ice
Ġk n
ach ing
Ġgiv es
ific ation
if y
Ġlaw s
os ing
ĠA ct
Ġb oy
ent h
Ġsu d
Ġdist ance
Ġenj oy
g en
ar m
Ġ18 3
Ġin hab
Ġre du
Ġpur s
Ġrece ive
um b
Ġt it
Ġent er
Ġmag n
so ci
p an
ĠC apt
ĠS m
Ġarm s
Ġoff ice
C H
os pit
Ġfr ont
y r
ĠG ree
itt ing
i u
ĠO ct
res pond
Ġ3 4
Ġsu re
ra ph
en n
or row
Ġre pl
ĠJ uly
Ġir on
Ġc ost
h ood
ut ions
te en
Ġm aster
Ġcommun ic
Ġdis s
ĠG erm
r om
Ġple as
vel op
en ess
ĠE m
Ġreturn ed
Ġpl ay
Ġr ich
Ġt ou
Ġd ue
ĠC O
ĠA pr
er al
Ġsim ple
Ġsupp osed
Ġproper ty
Ġc ult
p ir
Ġis s
Ġprodu ce
ĠSc ot
g ar
Ġca pt
Ġra pid
ad ed
U L
Ġt rib
Ġrec om
Ġdem and
ĠA nt
ĠS te
Ġre ady
Ġdesc ribed
Ġdes ire
Ġso le
Ġnum erous
ĠG u
Ġte nd
Ġbeg an
Ġf em
b urg
ĠSo ciety
wh at
IS T
Ġprinci ple
Ġm outh
Ġl es
Ġext ent
Ġ3 6
ĠSt ate
á ¿
Ġsuc ceed
Ġapp lied
Ġ. .
Ġl ady
Ġas c
n ce
Ġask ed
li ament
Ġo t
os op
Ġre nd
aug ht
Ġprinci ples
o v
Ġext ra
ĠSe pt
or ough
Ġchar ge
Ġpract ice
Ġbel ow
Ġturn ed
Ġre lie
Ġ ess
Ġst ated
Ġs ight
ve y
Ġorig inal
er ior
ĠI m
Ġfut ure
Ġwh y
Ġel se
Ġconsequ ence
Ġ4 4
b ed
Ġof fe
Ġpa id
Ġm ur
Ġcertain ly
id ing
ĠG ra
ch ar
Ġadd ed
Ġw ild
Ġsud den
Ġc ry
Ġlook ed
Ġus ual
Ġev il
res h
l in
Ġ5 0
Ġmor al
Ġm ist
n ed
ĠE ar
ĠG reat
Ġend e
Ġple asure
Ġs ize
Ġgr ant
Ġwh atever
Ġso ciety
w o
Ġfor ward
ill e
Ġfe ll
Ġ >
Ġ3 8
m itted
Ġf ood
Ġgra nd
Ġme re
Ġd on
Ġm ort
Ġswe et
Ġme rely
Ġnor th
Ġpro gress
Ġg e
Ġar ound
Ġl oss
Ġ* *
Ġb ound
Ġprop ortion
Ġph il
Ġgreat est
.. ..
Ġdes p
ĠH ar
m ber
Ġ ign
Ġco vered
ĠQ ue
ĠG re
he st
ĠUn ited
Ġcor re
Ġgr ad
Ġenem y
Ġh us
Ġgre en
Ġa ut
Ġaff ord
ll y
ĠPar is
Ġa ud
b and
Ġm ethod
est s
ac her
, )
2 0
Ġ3 7
cl es
erv ed
Ġpo et
Ġm ain
i as
ĠW here
Ġinst ance
Ġextre me
k ing
Ġgiv ing
Ġsh o
Ġfe llow
ĠGo vernment
Ġp ict
Ġac cept
Ġfeel ing
Ġmot ion
Ġprincip al
Ġs qu
Ġanim al
Ġgo vern
Ġgl ory
Ġar ch
o x
Ġrec ord
Ġ3 9
Ġdo or
Ġcor respond
Ġf al
Ġhon our
Ġv ent
Ġl ist
p ic
ul es
Ġ +
in ent
Ġpro ve
ĠY ork
olog y
Ġpro s
Ġmater ial
ĠS y
it able
Ġst ood
Ġill ust
at o
at ur
ust om
Ġadd ition
Ġg one
b on
Ġall ow
ol ic
Ġg ard
ĠD av
Ġho ly
Ġm akes
u ff
Ġme asure
Ġc ivil
Ġp owers
Ġgentle man
Ġwe ight
an cy
ĠR ich
Ġl ater
en ing
Ġst ep
it ing
Ġp os
Ġfull y
Ġmid dle
Ġv ict
Ġlib ert
et t
Ġeas ily
Ġhel p
Ġking dom
Ġpres ence
Ġpass age
a ff
Ġpl ants
Ġno ble
Ġsu gg
Ġh op
Î »
ĠM ary
al ed
er gy
land s
Ġbr ight
Ġt i
Ġord inary
Ġ4 3
ĠH ist
Ġed uc
A Y
Ġd ry
at us
Ġp ul
Ġind ic
C E
al y
Ġscarce ly
ĠCom p
ĠF ather
Ġexper ience
Ġdiv ine
m a
Ġd ri
Ġinst ead
ul a
Ġwar m
ĠC oun
Ġu pper
Ġadvant age
o o
Ġinc hes
Ġf un
ĠCour t
Ġt able
i y
ri age
Ġb ird
Ġoper ation
Ġs ir
i ke
Ġcomp any
Ġappoint ed
Ġf ra
he t
Ġparticular ly
Ġfir m
an ced
Ġ4 2
Ġdist rict
ĠS uch
am b
ĠR oman
Ġde al
Ġpoint s
Ġra ised
id s
Ġpre ced
Ġto t
ĠM on
ĠO ur
Ġb as
Ġw omen
Ġm aint
or th
Ġhapp y
Ġim per
Ġh ast
Ġwit ness
Ġso ft
Ġo x
Ġfl owers
Ġfore ign
at ory
ous ly
Ġha bit
A D
Ġf ul
Ġbeh ind
âĢ ¢
O S
Ġsome what
Ġent ered
Ġse ven
f orm
Ġremo ved
ish ing
Ġexam ple
T H
oy al
Ġ4 5
Ġcom ing
l a
Ġn ar
li ke
1 5
1 2
ll ing
Ġtreat ment
ĠAmer ican
Ġd aughter
Ġrelig ious
Ġall owed
f s
Ġpro ved
e ge
ĠS w
el ve
Ġlet ters
ress ion
Ġende av
se c
ĠAug ust
Ġsac r
Ġs av
ens ive
ĠO h
or ies
Ġf ol
Ġfr uit
n i
Ġpre t
Ġjud gment
n es
Ġdire ction
Ġinhab it
Ġha ir
Ġb ase
Ġme as
r is
Ġex ceed
Ġf it
Ġw a
Ġg all
AN D
Ġs ort
ĠRob ert
Ġbecom es
Ġa st
Ġexist ence
Ġde velop
us h
Ġdest roy
U M
and er
Ġre ally
ĠL a
Ġag o
Ġus ually
Ġj our
Ġoffic ers
Ġtre es
an ks
Ġjust ice
Ġex act
Ġd ro
ĠA v
Ġpriv ate
Ġtr ade
Ġrecom me
Ġfam il
Ġl ines
Ġye llow
i h
Ġc it
um ents
Ġdang er
od y
om p
ĠR ep
1 7
Ġsuper ior
Ġlab our
Ġsym pt
Ġs outh
Ġ ÏĦ
Ġapp re
in ist
ort un
o ld
Ġsupp ly
ĠC ount
Ġdifficult y
Ġst y
Ġag ree
Ġdel ight
Ġterm s
Ġpro of
Ġb ott
il ing
Ġconst it
i ally
Ġcon vers
Ġst one
Ġc red
hen s
v ation
Ġf u
Ġprep ared
Ġqu al
Ġdra wn
. ;
Ġsu p
Ġr ise
Ġm ult
Ġo l
Ġimp oss
y e
ĠThe ir
Ġcom fort
ĠL I
Ġbro ad
it ive
Ġc rown
r ay
Ġdra w
Ġimport ance
Ġb le
Ġen l
Ġincre ase
Ġspec im
Ġreg ular
Ġgr at
ĠO N
ĠFe b
ER S
y al
I D
il st
ro ad
Ġl ad
i k
is ters
Ġsatis fact
ĠA c
Ġapp arent
Ġ18 2
Ġn erv
e ch
u le
Ġwond er
ĠI r
Ġs an
f it
Ġd il
ĠI re
Ġpub lished
Ġqu ick
i pp
Ġst o
om y
ĠMar ch
Ġru le
Ġs ides
Ġincre ased
Ġl iter
Ġn ames
Ġt li
Ġman if
Ġsu l
Ġw ide
Ġremark able
Ġst ates
Ġw at
il es
1 4
- -
Ġuse ful
ĠR ome
Ġ ll
og n
Ġrem ains
Ġsubject s
Ġca uses
Ġcom es
pt ion
ĠM ess
ĠP aul
ĠJ ew
Ġc orn
ver se
Ġun ivers
f i
m o
b id
Ġestab lish
Ġequ ally
Ġm a
ab les
Ġb reat
ĠI II
r ated
Ġhus band
Ġinte nded
Ġsh own
Ġbeaut y
T S
Ġbre ak
it ation
Ġto p
Ġun less
os ite
Ġh ot
ir th
1 6
Ġse ason
Ġeffect s
Ġm al
Ġan x
Ġdoctr ine
Ġhig her
um ed
Ġf i
Ġthir ty
ab ility
Ġ18 7
Ġarri ved
Ġsp ring
Ġconn ected
ĠAmer ica
rie f
Î ¼
Ġpre par
Ġfl u
ĠSp irit
ĠWh o
Ġa u
Ġre nder
ib ility
Ġmod e
Ġb ill
Ġfor g
ĠApr il
re es
Ġf ast
Ġin n
1 9
ĠT e
it or
p et
Ġre ign
h ouse
Ġsupp ose
Ġpre c
Ġsle ep
il i
ent ed
Ġc at
Ġo v
Ġqu i
Ġ1 00
in ite
ing ly
Ġy ield
Ġf ixed
u fact
ad es
Ġtw elve
Ġ )
Ġcomp ar
at i
ro s
Ġnat ive
Ġcontr ary
ĠM o
Ġl y
ar ily
Ġvessel s
Ġphil osop
Ġfact s
Ġ Ã
at is
Ġar range
Ġpr int
oura ge
1 3
Ġce le
ish ment
Ġde pend
ĠP ort
Ġyou th
Ġresult s
ĠR oyal
Ġrem ed
Ġhe ight
Ġh ouses
Ġ ]
ĠY et
Ġv ain
Ġa id
Ġsp read
Ġbre ad
ert ed
e ks
Ġf illed
Ġconst itution
Ġestab lished
h ire
b ran
Ġimpro ve
Ġt be
Ġlibert y
Ġdis char
Ġher self
l c
ar i
Ġopp ortun
ol ute
Ġind u
ang es
Ġsubst ance
ĠPro f
Ġf resh
Ġany thing
os pel
Ġno b
Ġrepl ied
ĠCapt ain
ĠJ e
ĠW as
ĠC ath
Ġp ap
h a
Ġt aste
Ġinst r
ĠIre land
Ġsp ir
ĠInd ia
Ġanim als
Ġlearn ed
Ġ18 0
ic ed
ak en
Ġch ap
ĠM in
o i
Ġsp ot
if orm
ĠT H
Ġat tended
Ġb urn
Ġm ill
Ġexcell ent
Ġp p
Ġdistingu ished
ĠE n
Ġc av
ĠM ad
Ġt or
Ġc ru
Ġp arent
Ġspe cial
Ġimposs ible
Ġb it
en ced
Ġadopt ed
Ġfal se
Ġtro ops
ĠCH AP
Ġg od
Ġpr im
Ġvar iety
Ġs our
oura ble
is p
Ġadm ir
Ġd om
w here
Ġnot e
Ġele ct
Ġpresent ed
Ġdo ing
Ġd re
ĠI V
Ġt ry
Ġp i
ub lic
Ġfa il
ĠH im
Ġobject s
Ġapplic ation
r t
Ġb attle
Ġde ce
Ġgreat ly
A G
Ġaffect ion
I G
Ġ' '
ĠM or
Ġnar row
Ġinterest ing
ul ated
Ġg ir
ĠCoun cil
Ġ â
Ġbro ken
Ġ4 8
Ġrem ained
r ous
Ġprop osed
p on
Ġposs ession
Ġb and
Ġinst ru
ĠCon st
le cted
Ġperfect ly
Ġra ce
Ġdesc ription
now n
Ġbook s
Ġt ree
ĠL at
ĠRe g
Ġgl ass
Ġrequ ire
Ġinhabit ants
n est
Ġa ck
ĠQue en
Ġb ow
Ġdeterm ined
Ġop ened
ic ally
ĠEd ward
Ġopp osite
is ions
Ġcent ury
O C
Ġpolit ical
Ġ q
ail s
Ġexpect ed
Ġpur ch
Ġn amed
ĠS av
og raph
Ġs ick
Ġbo ard
ract ed
Ġf le
ospit al
Ġdiffe rence
ĠR E
ver t
Ġa vo
or ious
n y
ĠWh y
Ġnecess ity
Ġtak es
ol ution
Ġb orn
, ,
Ġse nd
Ġsur r
ap ed
Ġcult iv
Ġun e
Ġother wise
i j
ĠL ady
Ġb ishop
Ġn ations
ĠB ishop
ĠO ff
f ield
ir st
n ers
Ġdut ies
u able
Ġcent re
Ġhig hest
Ġqu iet
Ġack now
Ġbod ies
Ġ4 6
Ġsuff er
Ġdisc uss
Ġro se
Ġpie ce
ĠX X
ĠA cc
Ġme l
ud ing
ch ing
Ġdes ce
ĠP re
Ġgl ad
Ġso il
Ġbegin ning
Ġsol ution
Ġt alk
Ġsatis f
Ġ Ð
ĠM ag
Ġgu ard
Ġworth y
I V
T h
Ġcele br
es h
u a
ĠS on
Ġconsider ation
Ġpass ing
5 0
ĠJ ud
Ġli qu
Ġh ost
' '
Ġmed ic
Ġneigh bour
Ġfl o
our se
Ġmark ed
Ġign or
is l
b ury
Ġsympt oms
ĠB er
p ort
Ġs ad
Ġf il
Ġsp ace
Ġmed ical
Ġsur pr
Ġm ine
Ġst art
Ġp ath
ul s
ĠD uke
Ġ ib
Ġwin ter
ens ion
g ra
ĠHo ly
Ġ4 7
Ġco ast
Ġ6 0
I A
ll e
Ġcomp an
er ate
Ġintell ig
Ġeas y
Ġte nder
Ġrec ogn
Ġlar ger
r d
Ġthrough out
Ġut ter
ar p
ri a
ĠIt s
Ġs and
Ġour selves
se t
Ġf er
ĠM ac
Ġd well
Ġdefe nd
3 0
Ġdr ink
Ġw ise
ĠÂ »
Ġinfl amm
Ġsk in
ĠH all
t a
Ġsl ow
Ġrend ered
ĠS am
Ġg ro
Ġsay ing
Ġinform ation
Ġj e
Ġbran ches
Ġun f
Ġas semb
ot ion
u ary
Ġda ily
g s
Ġobt ain
as ons
Ġs i
Ġfe ver
Ġloc al
Ġw atch
st ood
ib ly
Ġre ached
Ġe e
in ate
p ire
ors es
Ġwh ilst
âĢ ĺ
.. .
ol ved
Ġres ist
Ġwr ong
Ġre ference
Ġheart s
ĠR o
ail ed
Ġt al
o id
if ice
Ġcorre ct
ĠL aw
Ġmatter s
Ġdiv ided
Ġm ut
cl ock
Ġeng aged
re ed
ation al
Ġperson al
Ġadm itted
Ġco ver
Ġfollow s
Ġcont ro
Ġhigh ly
Ġdisc overed
Ġpray er
v a
Ġp red
Ġc row
in ity
ĠJ er
Ġas soci
Ġsul ph
Ġspirit ual
i ant
Ġbuild ing
al m
Ġthought s
ĠAr t
ĠL ie
Ġstru ct
N G
ĠD iv
Ġintrodu ced
Ġcount y
ĠL o
Ġper ce
Ġaccom pl
ĠSc ript
Ġs cience
Ġfeel ings
ĠA lex
Ġb rown
Ġsa fe
Ġ17 9
ĠH igh
ĠW il
Ġab und
Ġl at
ct s
ent ial
ou p
Ġ vers
Ġt ong
on el
Ġdis pl
Ï ī
es c
II I
Ġabs olute
Ġpr ice
Ġ $
Ġsitu ation
A B
ĠG en
Ġoffe red
Ġjud ge
Ġcont ains
Ġh ur
Ġlike ly
Ġwall s
in i
ĠAr ch
e en
Ġs n
d s
Ġpro c
Ġstud y
ĸ ł
Ġst range
Ġchief ly
Ġal ter
Ġsty le
Ġview s
Ġmem bran
Ġl ived
ĠS ur
Ġha b
ĠC he
Ġman ufact
s p
ar a
Ġt l
ĠE p
w orth
Ġe p
ick ed
ĠV ol
Ġtit le
ĠWh ile
Ġsil ver
Ġcont aining
Ġexpress ed
Ġv en
ill ing
Ġexerc ise
b or
k nown
Ġheav y
Ġquar ter
Ġca used
Ġc and
Ġpart ies
Ġprof ession
ĠH on
Ġhard ly
Ġord ers
Ġadd ress
Ġexpress ion
ĠS al
ĠÂ §
O W
Ġal to
Ġmin ute
a a
Ġ4 9
Ġprev ious
as c
ess or
ĠIn st
Ġd ress
ĠScot land
ĠA f
er a
Ġsa ve
Ġo il
e g
a res
ĠPr ince
ES S
olog ical
p ri
cept ion
Ġsc ene
ĠInd ian
at ors
b ert
ĠB ra
he ad
n ight
U T
Ġv ig
Ġre ve
Ġinst ances
ĠV ir
Ġe at
Ġinde pend
as k
or ity
c om
Ġcap ital
Ġt um
m in
Ġaccom pan
Ï ħ
ĠE li
ĠDe c
Ġgra ve
is hes
ĠP eter
Ġan al
ĠR om
Ġr ate
Ġhy d
ci p
Ġprov ided
we red
ow ing
Ġbene ath
ĠC am
in o
ĠSt reet
Ġon es
Ġth row
Ġlook ing
ĠH y
e a
Ġamong st
ĠO x
ut ation
Ġdim in
Ġb ank
om ach
Ġbu ilt
Ġth in
v ent
ter ior
Ġf ro
or um
be ll
ĠSm ith
Ġo d
Ġt ions
Ġexp ed
Ġcont ained
ĠC a
Ġde lic
ign ed
ĠC ON
Ġle aving
c ies
ac es
Ġoblig ed
ĠM a
Ġw ait
Ġrepe ated
Ġval uable
Ġt in
Ġtra ve
Ġrel ation
Ġcal cul
ud es
Ġmod ern
Ġartic le
Ġdis ci
Ġhe nce
b l
ĠH am
ĠC r
per or
Ġf ib
Ġob st
ĠP et
Ġev ent
ĠRich ard
em ed
Ġm at
Ġex ternal
gy pt
Ġw id
4 0
c a
Ġre semb
i our
Ġser ies
Ġsum mer
Ġw ine
i is
Ġadm inist
Ġse vere
Ġdire cted
ĠPro v
Ġvirt ue
Ġstand ing
e ous
ĠO ld
ĠPres ident
Ġexam ination
i os
Ġro yal
oun ced
O P
Ġap ost
s ide
Ġser ve
ix t
Ġopportun ity
ĠW ar
Ġis land
E W
Î ¯
um p
Ġcl oud
u f
Ġtrans l
Ġfe e
Ġh orses
Ġex tend
Â £
Ġst ock
Ġear nest
ain ted
ak er
Ġfor ty
Ġmind s
ĠP at
Ġth rown
Ġmin utes
ĠPar liament
ĠC ong
ic o
e v
ur b
Ġm ir
Ġ^ ^
Ġinv est
Ġfig ure
Ġmean ing
est ions
at ives
Ġj oint
Ġord ered
Ġsp r
Ġg un
Ġdec ided
Ġun s
Ġ? "
Ġpop ular
c is
Ġextre m
as ing
Ġne ck
Ġbes ides
Ġc um
Ġde li
p ly
Ġnum bers
ĠSp an
Ġl ives
Ġregard ed
um ph
Ġbelie ved
Ġmil itary
Ġrem ember
Ġd read
ĠEar l
Ġbl ue
/ .
Ġv ast
Ġs ed
Ġsym p
Ġans wered
r id
Ġch o
' ll
Ġmer cy
? "
Ġunder stood
Ġc ra
Ġinqu ir
Ġd ig
Ġfl esh
iv al
Ġmin ister
Ġalto gether
Ġfrequ ent
Ġstr ang
Ġwr ote
um n
Ġp ale
Ġstr ict
Ġcomp osed
Ġc amp
ĠD E
Ġd ouble
ur a
av en
le ment
em s
Ġcont em
Ġce re
Ġoccup ied
ĠA ust
A V
Ġact ive
ĠS pe
Ġpr on
Ġinter p
Ġn it
' ,
Ġspe aking
Ġdecl ared
L I
ĠGree k
ĠTh ou
t r
Ġw est
Ġoff er
Ġwe eks
Ġfif ty
Ġeduc ation
TI C
Ġdes ir
ac ity
' .
Ġpower ful
ur ches
Ġan ge
Ġ ze
Ġpie ces
Ġwor ship
Ġb er
o le
u nder
c d
Ġrefer red
ĠP al
Ġ17 8
Ġsac red
ĠAn n
Ġgentle men
Ġapp ly
ĠB ur
c n
Ġmem ber
ay ed
ĠE ast
Ġoccur red
ict ed
ĠM il
ĠMaj esty
pl ic
ain ts
Ġc rit
rib uted
ĠE gypt
om b
O G
S S
Ġtreat ed
ag er
ĠW or
Ġsal t
ĠE very
Ġtri al
Ġd am
c le
t i
Ġr ank
ĠTh y
burg h
Ġgrad ually
Ġadv anced
Ġc ord
Ġvol ume
Ġ vel
ĠJ our
Ġr ad
Ġst ory
r ant
Ġaffect ed
Ġsub sequ
Ġs ons
Ġopen ing
Ġcontin ue
ĠColl ege
Î º
im ony
Ġb irth
Ġpra ise
Ġh at
Ġfav or
ĠM id
Ġgl o
Ġpurp oses
ĠComm ittee
ive red
Ġconf idence
OR Y
Ġwis dom
w ood
Ġev id
Ġam b
Ġr id
Ġste am
Ġstre et
Ġcon ven
Ġdif f
un k
Ġc ou
Ġfre ed
Ġmo ved
Ġre ach
ap h
c s
i ation
ord er
Ġremark s
Ġwrit er
oth ing
stand ing
ĠDav id
ĠL ou
Ġsole mn
Ġst omach
Ġa x
f ect
Ġfl ower
. ^
or ation
g n
ic y
Ġ5 5
i ance
2 5
Ġsp le
Ġadv ance
ĠT ur
Ġspe ech
Ġwe alth
od e
E E
Ġclass es
Ġp our
Ġcon qu
ĠD on
Ġdep os
op h
ĠP ers
Ġoffic er
Ġn av
Ġb all
as p
Ġkind s
ĠJ O
es tern
Ġ18 8
re r
ĠC ons
ĠMess rs
Ġd ign
Ġet c
ch o
Ġland s
Ġex cess
u its
ĠWe ll
Ġent it
Ġv ic
ĠS to
ir s
Ġgrow th
Ġhapp iness
Ġhon or
O D
Ġse at
Ġatt ached
' -
Ġwe ather
Ġdist ant
Ġ... .
Ġd ate
ĠP R
Ġn ine
Ġact s
Ġbo ld
ĠâĢ ŀ
Ġpret ty
Ġst ation
ad ing
AR D
Ġrepresent ed
w s
st reet
Ġs orrow
Ġd ed
Ġap art
ĠLie ut
Ġdesc rib
Ġh ither
ĠP ri
Ġc ustom
Ġfl at
I ON
Ġ ~
Ġpre fer
Ġear li
ok en
i ents
m ing
Ġmount ain
Ġsee k
Ġt ried
Ġm ad
Ġmeas ures
Ġimmedi ate
Î ·
ĠB el
ic le
Ġ8 0
Ġev ents
ol es
Ġtr uly
Ġsucceed ed
Ġcomm er
c her
ĠY e
Ġac ross
Ġartic les
ĠC ast
Ġte xt
ag ue
ver ted
Ġwrit ing
ac hes
le g
ĠF OR
ĠJ ose
Ġaccompan ied
w ed
Ġh om
Ġread ing
Ġcit iz
Ġl ies
ĠC ont
Ġi u
ast ic
ĠT wo
Ġbene fit
z z
Ġser ious
Ġfem ale
Ġs en
ert ained
Ġm ission
pe lled
Ġsh r
Ġvill age
b ar
are r
Ġt a
ĠD an
d ed
ĠComp any
ĠJ ust
d ing
ĠV er
ĠT em
re l
Ġu lt
et te
6 0
j o
Ġconst ant
Ġconcern ing
Ġs ong
Ġv an
fort un
F E
ĠI nt
Ġm ach
Ġright s
Ġwork ing
Ġbran ch
Ġ* '
Ġadm it
ort her
Ġesc ape
ĠF R
ter y
Ġve get
Ġmar ried
ed ing
Ġen s
Ġformer ly
Ġw o
ul ate
Ġopin ions
k ind
Ġspir its
Ġnation al
Ġread er
Ġsepar ate
Ġf ight
ĠIr ish
Ġa e
Ġwr ite
Ġbre ast
ĠM any
ĠM at
ĠF ig
Ġt u
ĠPr ot
o ber
Ġcap able
Ġprof ess
Ġtemper ature
Ġst age
Ġp it
Ġt aught
Ġ! "
Ġrep ly
Ġinf erior
Ġf ing
Ġpract ical
Ġtong ue
u ing
Ġder ived
ol s
Ġpop ulation
ip s
um es
Ġmer c
Ġhist or
im s
Ġ5 4
m ission
Ġmanif est
Ġredu ced
Ġdel ivered
ĠW ood
ĠMed ical
Ġass ert
Ġmount ains
Ġth orough
es e
Ġsee ing
Ġstru ck
ĠBrit ain
Ġaff airs
Ġ18 9
Ġperform ed
ĠW al
Ġe ast
Ġenem ies
Ġun ited
r ight
th at
Ġdi am
Ġcon vey
am ber
Ġch anges
Ġcomm ittee
Ġ5 3
he red
Ġsp oke
on ed
Ġmem ory
Ġze al
Ġor n
Ġprin ce
ie l
Ġbra in
ist ic
Ġfour th
ĠM em
ĠF irst
Ġ17 7
Ġwat ers
o very
Ġp ow
Ġpress ure
ge on
st one
Ġex ert
ul ous
u v
Ġsec ure
h all
Ġflu id
EL L
Ġin ch
Ġpro ject
ch an
Ġal t
Ġs ister
he l
ĠE l
Ġcond itions
Ġpar ish
or a
Ġhead s
ĠR ed
Ġev ident
ck s
, *
Ġprom ise
Ġun ion
Ġobs erve
Ġte eth
ĠP art
Ġcond em
Ġte ars
Ġspe ed
Ġsh are
Ġv iz
us al
Ġce ll
Ġst orm
ĠJose ph
Ġpreced ing
ia h
cc les
Ġsuff ered
ra el
Ġa ver
Ġtem pt
ĠGerm an
in ous
Ġexp osed
Ġcons ists
at ures
Ġqu ality
Ġnat ur
ĠY es
Ġmus ic
Ġcon g
an a
ord inary
Ġun b
f o
m y
Ġsudden ly
ON D
Ġsing ular
Ġn ess
ĠEd in
ĠR uss
Ġsh ore
Ġcur rent
Ġcelebr ated
ĠM art
Ġtem por
ne x
ĠSec ret
Ġcont ract
Ġgard en
Ġdise ases
U C
Ġth reat
ld om
ĠGo vern
Ġcount ries
Ġ5 2
m i
Ġ ÏĢ
orther n
ust ed
Ġe ld
Ġlike wise
Ġpoint ed
Ġn a
Ġrelie f
Ġm as
Ġshow s
Ġstruct ure
ur d
Ġp or
ĠS om
ĠE ven
iz ation
Ġfound ed
Ġsu st
ĠA R
ĠM ont
Ġ4 1
Ġread ily
ĠWh ite
Ġfaith ful
Ġinter nal
ĠA ra
Ġtr ouble
Ġsol id
T ON
Ġcl ot
Ġj u
Ġsp oken
Ġk illed
it ute
Ġro b
ur ity
ĠA pp
Ġintell ect
k es
Ġbott om
ĠP s
Ġh i
Ġir rit
am a
Ġcomplete ly
Ġrem em
Ġproceed ed
Ġproper ly
qu is
Ġserv ant
ĠH ence
Ġl ic
Ġch ance
ĠOct ober
or ne
Ġb one
ĠNo v
iv ity
n n
Ġdiv ision
ĠC at
y m
ĠS und
Ġi a
ot es
ĠL ib
Ġmar riage
Ġdes ired
Ġpossess ed
Ġche m
Ġdisc over
at io
Ġstre am
ac le
v ille
Ġinterest s
ĠI d
ou ther
Ġext ensive
u el
Ġinstr ument
Ġspe ct
Ġsub s
Ġprob able
Ġsold iers
Ġprop ri
Ġw ays
Ġag es
Ġple ased
Ġsw ord
Ġe ternal
Ġso vere
Ġpriv ile
Ġr is
' ^
ĠW he
am ents
Ġp age
ab b
est ic
Ġsufficient ly
er able
ad a
Ġra in
ig ation
p ro
Ġcur ious
ap pe
Ġbird s
Ġentit led
Ġcle an
er ation
Ġcoll ect
Ġsoul s
ĠN ove
g u
Ġd in
Ġhe ro
ll a
Ġconf ess
Ġarg ument
ĠS en
Ġship s
Ġpass ion
o res
ĠBl ack
Ġcred it
ct or
r ance
Ġar c
ĠSp ain
Ġh ill
Ġrec ent
O US
ist ry
Ġcomm ission
Ġform ing
u ge
re m
Ġsple nd
ĠS im
g an
m od
Ġcl ergy
Ġgir l
Ġer r
Ġcol on
Ġlead ing
Ġp ed
ĠAf ric
ĠCHAP TER
ro om
ĠG ood
Ġacc ident
Ġt on
ĠT ra
Ġabs ence
Ġobserv ations
Ġrespect ing
Ġf ame
Ġas ce
Ġwrit ers
ĠEli z
l ies
it ate
r ates
Ġpict ure
Ġrel ations
Ġprison er
Ġthr one
Ġre b
Ġacc ur
ĠTh ough
j e
Ġf ly
Ġv all
m os
Ġ5 8
if ying
Ġjour ney
Ġund ert
ĠÂ ©
Ġse ed
Ġoccasion ally
ĠAm ong
Ġt ax
Ġtri umph
it is
Ġcomm itted
Ġviol ent
Ġserv ed
Ġch air
Ġprev iously
Ġchar ged
Ġ7 0
Ġ5 7
it i
Ġmer ch
Ġfat al
Ġwho lly
Ġconcl usion
Ġme ant
Ġgrant ed
Ġenl ar
ĠJan uary
Ġre ven
ĠBo ard
Ġorg ans
Ġdestroy ed
ĠGre en
p her
us ing
ĠR es
Ġiss ue
z en
Ġinflamm ation
Ġcomm ence
ĠDe ce
Ġide as
Ġinform ed
th ren
Ġer ror
Ġcircumst ance
ic ian
it ect
Ġknow s
Ġâ ĸł
ĠD uring
Ġfa ult
Ġex tended
2 2
ĠS l
Ġclear ly
ĠS ub
Ġind ust
ĠHist ory
ĠH IST
Ġsymp ath
Ġslight ly
um ber
Ġdef ence
r as
p i
Ġch urches
ĠI S
t hen
Ġextra ordinary
Ġ5 6
Ġcar bon
Ġstand s
Ġfall en
ĠUn ion
ĠB en
Ġcont ain
ĠV I
a ft
Ġsqu are
a ult
Ġob ed
ct ive
Ġl ately
Ġsm o
Ġobserv ation
Ġcare fully
Ġ19 0
Ġsh ape
Ġgo es
os en
Ġstrong ly
ur ies
us c
Ġsin s
Ġdang erous
Ġra il
age ment
Ġstat ement
Î Ń
in ction
aim ed
ac c
ash ion
Ġbe aring
ĠTh ose
Ġright eous
re y
Ġro ot
Ġt one
ĠY our
Ġshow ed
Ġs ought
be red
ĠSept ember
ic ated
Ġbless ed
Ġsim ply
Ġch anged
g ments
Ġw icked
Ġb is
ĠL y
Ġpart ly
outher n
Ġp hen
Ġnatur ally
ĠÎ º
Ġfreed om
Ġsour ce
Ġse ction
Ġl ect
ĠP ol
Ġra re
with standing
Ġse ldom
Ġhop es
Ġassist ance
Ġw ound
Ġf ish
Ġg as
ro se
Ġb ones
Ġb en
Ġsa ke
ok ed
Ġde mon
Ġb apt
ĠIs rael
ul ations
ĠAs s
ĠSav iour
* .
Ġfor get
e f
ĠO R
Ġqu estions
Ġbelong ing
r h
Ġf art
ic ip
Ġeff orts
ĠM al
Ġmil k
Ġinst it
Ġpre m
ĠA T
, âĢĶ
M r
v y
Ġv o
Ġd it
Ġp ounds
Ġag ed
Ġpr ide
or ous
ĠLou is
Ġtot al
Ġw ished
Ġextreme ly
Ġconvers ation
ak ed
Ġu l
Ġcharact ers
U B
Ġmark et
Ġlo ved
Ġdirect ly
ĠCol onel
Ġtr ad
us hed
Ġt ail
Ġhab its
Ã ¨
Ġo mn
il ty
Ġess ential
ĠM ore
r um
all ed
a is
ĠP en
Ġbo at
Ġl od
Ġcomm enced
Ġsitu ated
ĠChrist ians
ĠJew s
wh ich
Ġevid ently
Ġcop y
2 3
ĠBo ok
Ġspecim ens
Ġth ro
Ġag reed
o on
x x
o ff
ing ham
Ġm ixed
ĠIt aly
Ġconf ined
Ġper pet
ĠA ng
Ġre nt
Ġad apt
Ġconsequ ently
Ġpleas ant
il ities
Ġsa f
ĠCath olic
, -
rib le
Ġstru gg
Ġp u
ĠC OM
Ġt ur
Ġche er
le ction
IC AL
Ġsmall er
j ud
Ġpers u
Ġdo g
ĠCong ress
Ġc ro
ot ten
Ġprint ed
r at
I M
Ġdep th
Ġtown s
Ġcoun cil
Ġact ually
Ġpap ers
Ġ5 9
Ġpol icy
ro g
br idge
Ġthe ory
, .
Ġstri king
AR Y
Ġconn ection
Ġrock s
it z
Ġhon est
Ġl ying
Ġ6 4
ĠIt al
2 4
Ġremed y
Ġc ried
Ġsuff ering
Ġexcept ion
Ġcry st
ĠE X
Ġre ject
Ġcons cious
Ġun iform
Ġrel ative
Ġexam ined
ĠLat in
ic ular
el f
Ġcor rupt
Ġadd ressed
Ġco ol
Ġmaj ority
Ġw on
Ġwill ing
Ġbit ter
ĠB rown
Ġ á½
Ġg ar
ĠUn ivers
ĠInd e
Ġint ention
ock s
Ġab dom
Ġr an
Ġact ual
ĠAn other
ĠN at
Ġsl ave
Ġoper ations
Ġrapid ly
Ġnot iced
h ib
Ġa i
ĠM er
Ġgl orious
P P
G E
pe nded
st on
ĠInd ians
Ġinter v
ĠProf essor
Ġrec oll
Ġele v
Ġref orm
ĠE v
Ġserv ices
ĠH aving
Ġfort une
ist ed
ĠL ife
Ġcl osed
it a
os a
Ġresol ved
Ġthan k
ĠLI FE
Ġw i
Ġcoll ection
Ġcommon ly
ren ces
Ġsatisf ied
Ġdra wing
Ġe gg
Ġapparent ly
Ġl ung
Ġb rief
A IN
Ġm ale
Ġx v
Ġfurn ished
Ġhyd ro
d o
.) ,
Ġr ising
Ġm ess
ric ult
Ġh ung
Ġacknow led
ĠPr in
Ġhither to
Ġsett led
Ġm uc
b a
Ġar r
ang ing
Ġc ure
Ġob v
ĠG ent
Ġw ings
os is
Ġl it
Ġs well
2 7
Ġgood s
Ġfore st
Ġlad ies
en ant
Ġopp osition
ll er
Ġgen ius
Ġt iss
ĠP ark
Ġper man
Ġsh arp
ĠS P
Ġsal vation
Ġcomp re
Ġcomp et
Ġbe at
ĠH ad
Ġjo ined
reg ular
c ol
pir ation
2 8
m ond
ĠNove mber
Ġst ar
K S
Ġbl ind
Ġin se
Ġexec ution
ĠDece mber
Ġfamil iar
Ġpo ison
Ġwhen ce
Ġb an
Ġlab or
Ġunivers al
Ġnot es
Ġconst antly
Ġsuccess ful
Ġbre thren
Ġli ps
Ġacqu ainted
C h
se e
Ġresol ution
ĠSecret ary
g l
Ġschool s
Ġo wing
ĠN ap
Ġdisp osed
Ġsh ad
Ġtr oub
Ġest ate
Ġman kind
ab eth
ra ction
Ġab and
Ġh ut
Ġpres erved
o a
Ġind ul
Ġre se
ĠSc ott
Ġsmo oth
Ġc ot
Ġo u
Ġl ig
Ġexper iments
Ġsa il
d ra
Ġinst ant
Ġthe r
h at
Ġacc ord
Î ³
UR E
Ġserv ants
Ġfar m
ĠD ep
Ġd omin
ot ing
i que
Ġexhib ited
Ġinf ant
I X
Ġun known
iet ies
ab led
i pt
Ġsepar ated
Ġexper iment
Ġexact ly
Ġre asons
ĠT est
OR D
Ġp an
mon y
Ġprot ection
Ġp as
Ġf ill
Ġra ise
o pe
ĠSund ay
Ġphen omen
Ġy es
Ġform ation
w ick
ok ing
Ġcount en
e per
ĠT re
Ġemb ra
Ġn i
ast s
Ġed ition
ĠA re
ir ing
Ġr ing
Ġmembran e
Ġleg isl
ĠB ill
Ġch lor
Ġbelie f
ĠM ond
Ġe f
ĠB ible
Ġrequ est
Ġtw ice
Ġd ur
Ġs now
Ġe nds
Ġr ig
Ġref used
Ġfart her
Ġres p
Ġdischar ge
ĠU pon
Ġrec ently
ĠTr ans
ĠEdin burgh
ĠS an
Ġcal m
Ġmus cles
Ġpl ate
Ġre ct
Ġg ain
O U
Ġest im
ĠG ard
ak s
Ġo un
Ġre ne
3 3
Ġexp ense
ac ed
Ġarrange ment
Ġn ut
Ġsupp lied
v ol
Ġter rit
Ġstra ight
ĠSch ool
ĠD em
Ġ ident
Ġab st
ĠS atur
Ġf ond
er o
Ġse v
Ġmin isters
ĠJ ac
ĠD el
Ġappro pri
ad s
ĠL ong
Ġwor se
ci pit
Ġac ute
Ġanx ious
ĠO P
Ġir regular
Ġh ills
Ġparent s
ĠV en
Ġcons cience
Ġte acher
Ġtest imony
Ġle vel
in et
t ies
Ġaw are
Ġan terior
ĠVir gin
ĠPo pe
ars h
ort ed
Ġdeep ly
2 9
Ġcl oth
ret ched
ĠI l
Ġs ion
Ġtend ency
in ated
ru ary
it ure
Ġest e
Ġr ub
pp ing
Ġw ounded
ien cy
Ġcr im
Ġconst ru
Ġdisp osition
en es
ĠS C
Ġreg ret
Ġple ase
ant ic
Ġappro ach
Ġo i
Ġmedic ine
Ġfor ced
Ġsav ed
Ġjo in
Ġfor ces
Ġpros pect
Ġsatisfact ion
Ġabs or
Ġfig ures
Ġp up
ĠU nder
ĠB es
4 4
Ġreg ion
ĠSec ond
ĠE r
at um
um ption
Ġr ules
Ġun fortun
ys is
Ġb al
ĠC orn
Ġdev oted
Ġg ospel
Ġrequ ires
Ġhapp ened
Ġment al
Ġgr ass
Ġf ix
Ġ6 5
Å ¿
Ġed ge
Ġrep ro
ig e
Ġsupport ed
Ġf ashion
a fter
ar ia
Ġgu ilty
p ool
Ġinf inite
Ġdest ruction
Ġsu gar
Ġst ay
Ġv ir
Ġvis ited
Ġsaf ety
Ġc ourage
Ġd oth
in ations
p es
Ġstep s
ul ars
Ġarri val
Ġfin ally
ĠCh ap
Ġte ach
ĠS er
2 6
i ast
Ġch osen
ĠFran cis
Ġtou ch
Ġexper ien
ens es
Ġfree ly
f our
L ES
8 0
R Y
Ġimp ression
Ġobs c
Ġaver age
Ġfl our
Ġcont rib
Ġf ate
Ġclose ly
k ins
Ġlim ited
Ġg a
Ġavo id
ape l
al ing
Ġ %
Ġpr oud
Ġá¼ Ĳ
Ġ6 6
ĠB u
Ġann ual
ĠChristian ity
Ġat mos
Ġar ise
Ġup wards
Ġexpl an
Ġthen ce
Ġthere of
ĠHe b
ri an
Ġam id
Ġoccur s
in th
Ġcru el
ir med
ĠH ospital
in ced
Ġe ase
ĠI ll
Ġdist inction
Ġtem ple
s es
Ġdis m
Ġpros per
* *
Ġpri est
i able
er k
Ġext ract
Ġcons ent
Ġfound ation
Ġque en
ic ation
Ġfac ult
v an
Ġn et
Ġproceed ings
oun ce
ĠÎ ´
Ġread ers
Ġ6 3
ĠT R
Ġpat ri
Ġp air
all el
Ġindividual s
Ġli able
pect ed
Ġele g
ĠK e
Ġcitiz ens
^ .
Ġcoll ected
Î ¬
Ġf ier
IN E
ĠFeb ruary
Ġle af
AT E
ut ch
Ġdark ness
V ER
ĠComm ission
ĠProt est
ĠW ater
Ġrem aining
ĠEliz abeth
un c
Ġp ains
Ġrem ove
ĠHIST ORY
Ġfl ow
Ġimprove ment
ĠM ark
Ġexc ited
Ġhum ble
Ġtra in
ĠAlex ander
Ġfif teen
ce an
Ġsk ill
Ġh ind
Ġmer it
r ary
Ġch oice
Ġbecom ing
Ġcompar ative
Ġshe ep
ĠHe aven
Ġvol unt
Ġaccording ly
Ġv ii
ixt ure
V E
em ents
Ġdevelop ment
Ġdist ress
Ġbreat h
ĠMond ay
Ġass ured
Ġcomp ared
b ly
Ġc up
Ġyour self
no on
L L
I ES
Ġsovere ign
Ġaffect ions
Ġsil ence
EN D
ĠC ur
Ġl ose
Ġm i
ĠOx ford
ĠâĢ Ŀ
Ġtub e
Ġevery thing
Ġful f
Ġl if
Ġim pl
Ġdin ner
Ġnerv ous
Ġast on
Ġc art
ĠWh ich
Ġphys ical
Ġdeli ver
Ġfamil ies
o qu
Ġso cial
Ġrun ning
Ġinn oc
Ġ }
Ġkeep ing
Ġl in
Ġut er
Ġcon j
Ġhy p
ac les
Ġg ained
Ġw li
Ġl ime
Ġbe hold
Ġleg s
is her
the less
Ġbo x
ers on
ĠAcc ording
Ġprec ise
Ġoccas ions
Ġst im
Ġse x
Ġb ul
Ġele ction
Ġacqu aint
ĠP RO
al ous
Ġimp ress
Ġl oud
Î ´
ac on
ac ious
Ġadv ice
se y
ĠF er
Ġb ond
4 5
hing ton
7 0
Ġsent ence
Ġcond u
p y
us ive
Ġsacr ifice
Ġr ough
! "
Ġc u
Ġdeg rees
Ġaff l
Ġmight y
Ġhealth y
ĠSpan ish
Ġvis ible
T E
Ġqu od
Ġs ale
ch ief
Î¿ Î½
Ġcommunic ation
Ġthan ks
Ï Į
Ġlearn ing
Ġsh ut
Ġd rew
A TI
Ġstre ets
Ġcons ult
Ġinj ury
^ ,
Ġco al
Ġgrow ing
Ġprom ised
Ġrec on
p ent
h i
Ġun able
b b
Ġin ner
Ġpict ures
ĠX V
Ġimm ense
ĠâĢ Ļ
our n
c ent
Ġmo on
Ġcarry ing
O B
ĠSatur day
ĠF ore
Ġmid st
Ġincl uding
Ġfort un
Ġrecomme nd
ĠJour nal
Ġhe m
Ġint im
Ġse arch
Ġro ots
Ġnecess arily
Ġexist ing
Ġinquir y
Ġdemon st
b en
Ġdifficult ies
ĠH or
Ġdis app
Ġpat ients
Ġqual ities
og ue
Ï ĩ
Ġh ol
ĠM et
Ġd ans
Ġst ones
Ġhe aring
Ġp ard
w ers
Ġpre cipit
ĠJ o
Ġpre jud
Ġsan ct
Ġcreat ed
Ġpar liament
HE R
ĠJ ack
Ġal tern
Ġprot ect
Ġprov ince
Ġmove ment
Ġdis appe
in er
Ġme chan
Ġre ward
ĠM ount
ound ing
Ġact ions
Ġcont ent
Ġr ic
ĠDiv ine
Ġadvant ages
Ġfr ame
Ġ Ã©
M ENT
Ġc y
Ġindu ced
Ġsp ent
ĠAg ain
Ġ6 8
ĠM en
ES T
Ġb anks
ĠH ill
Ġcare ful
ri ved
as ion
l ong
Ġjud ic
Ġpro cl
ĠN ature
Ġpun ishment
Ġl ot
ĠPhil ip
AL L
Ġcirc le
Ġfo ol
3 5
ill a
Ġf und
Ġall e
ic les
ĠMaj or
i ate
ĠH oll
b ra
ĠBe fore
Ġwind ow
Ġem pire
Ġf ancy
Ġarch itect
ĠD es
- .
as g
Ġs or
Ġar rest
Ġwe ar
ck ed
Ġspecim en
v is
Ġth ine
ĠM c
Ġsh ot
ĠL iver
ut ing
Ġexh a
Ġw ing
l aw
Ġmaint ain
Ġshow ing
Ġper mitted
he ster
d y
in y
ad em
Ġ7 5
ĠM aster
on n
ĠPh ys
Ġinter ior
r im
ĠB ay
ast ing
pt on
Ġgr oup
Ġcall s
Ġres idence
Ġs li
k in
ĠF red
Ġname ly
Ġlook s
Ġc attle
Ġresp ons
i ol
l im
Ġro of
Ġviol ence
A K
ĠS ol
Ġele ments
ĠG al
are st
Ġt b
Ġut most
Ġg rie
Ġb os
Ġm ax
I t
Ġopp osed
Ġcom pelled
ĠIn s
Ġint r
Ġnerv es
Ġcounten ance
p ed
I n
am en
ĠGovern or
um s
or al
anc ing
Ġliqu id
Ġpost erior
ĠW ed
ane ous
ĠA M
as m
ĠD ub
Ġ6 7
Ġe ccles
Ġbr ill
ĠM el
ĠS il
Ġobject ion
or ial
Ġinc on
Ġboy s
ĠP AR
ick s
' m
ĠM ass
in us
Ġhe s
Ġaccount s
Ġmar ch
Ġfa iled
Ġeff ort
Ġm ild
Ġere cted
Ġsub sc
Ġeffect ed
Ġdre am
Ġent rance
Ġm u
ĠLe g
Ġen abled
av ed
Ġk ings
r ical
Ġcomp osition
Ġsl aves
Ġvar ieties
Ġinv ol
4 3
Ġact ed
Ġfind ing
ĠAs soci
ĠAd m
Ġ6 9
Ġhold ing
N E
Ġt t
Ġcontem pl
Ġe ars
Ġdign ity
ĠC y
Ġ9 0
Ġout er
Ġ17 6
Ġs od
S t
Ġneighbour hood
ath s
it ors
Ġdelic ate
2 1
Ġreport ed
se ll
Ġaddition al
Ġb at
Ġprop os
ĠV al
Ġgr an
Ġcoun sel
Ġclaim s
c oh
Ġcand id
Ġc ert
Ġchap ter
Ġsurr ounded
ĠN EW
it ated
ĠB ro
ĠC ap
ĠE st
ĠWas hington
Ġb are
Ġv ote
Ġo s
Ġbe ll
Ġb i
ĠH el
Ġb ore
iz ing
Ġpass es
Ġce lls
Ġdiscuss ion
r am
Ġthink ing
Ġp ill
b es
ant e
h us
d on
ĠR em
. âĢĻ
Ġbl ow
n at
Ġe con
Ġcr ime
Ġground s
Ġs itting
ĠL and
ĠB ost
Ġp il
Ġf aint
ol k
Ġspeak s
h is
Ġsch ol
Ġauth ors
Ġmaterial s
Ġgen us
Ġdri ven
ur is
w ork
ens ions
Ġv ice
Ġnot withstanding
Ġeng ine
Ġmod erate
r ations
Ġdom estic
ĠÃ ł
Ġen ergy
Ġpres ents
Ġa im
Ġmon arch
Ġport ions
f c
ĠF a
t is
Ġv oy
Ġsil ent
Ġst op
Ġsc ale
f ive
n r
Ġacqu ired
Ġp aint
Ġrecomme nded
ĠA h
Ġas pect
I AN
Ġi x
ĠScript ure
IL L
u ce
ĠAb out
on a
re me
ĠC L
Ġch ron
Ġwant ed
id ay
Ġg rown
Ġ2 00
m as
ĠCast le
I P
or ter
Ġa pt
Ġto ler
Ġen able
Ġsus pic
k ed
Ġdeb t
ag n
Ġd ust
ĠF ort
Ġant iqu
Ġfo ld
Ġpar allel
Ġas ide
Ġendeav our
ĠSt ra
Ġarr anged
Ġiss ued
Ġm ile
Ġc ities
ĠA D
Ġexpl ained
Î ¸
Ġse ized
ĠB ank
Ġturn ing
Ġr ul
3 9
Ġex ists
ĠM us
ch ange
Ġmaint ained
Ġconcern ed
ific ations
Ġd ying
Ġget ting
Ġdo ll
Ġab road
ĠA C
Ġadminist ration
Ġar d
Ġm iss
ĠAp ost
Ġr ange
t ic
Ġinst ruction
p a
ĠO ther
Ġent ertain
ĠS E
- ,
cient ific
S H
Ġindepend ent
Ġsu rely
ĠD ist
Ġimp r
L AND
Ġmag ist
ĠG ospel
au x
sh ire
ĠD IS
S E
ĠFran k
Ġpain ful
Ġa a
ript ions
row s
en a
Ġexist ed
ĠS at
b re
Ġra rely
Ġ; "
Ġf et
Ġprov in
3 8
Ġthere by
Ġdef ect
m ble
Ġbro ke
Ġfe atures
Ġret reat
k y
Ġimper fect
Ġm ents
Ġfav ourable
Ġlo ose
Ġse l
Ġmar gin
Ġbur st
ĠD i
ci a
Ã ł
Ġintellig ence
Ġprop he
Ġemploy ment
Ġsl a
m et
4 8
Î± Î¹
Ġdo c
Ġs ink
Ġche st
ĠE t
Ġcreat ure
Ġc ab
Ġneg lect
ic ians
Ġxx x
b i
ĠGerm any
Ġimp art
Ġignor ant
ra id
Ġsu it
Ġflo or
Ġposs ibly
Ġl ux
Ġremark ed
Ġsugg ested
Ġconst ruction
3 7
Ġ' ^
on ia
f ast
Ġman ners
Ġunderstand ing
un ction
c ular
ĠC ent
* ,
Ġl am
Ġp ull
5 5
u er
Ġtreat y
Ġ ice
at tered
ĠM ill
Ġorn ament
ra g
Ġgu ide
EN CE
Ġvall ey
ĠEm peror
j i
Ġere ct
ĠP L
Ġd ull
Ġcapt ain
Ġtra ce
ĠBost on
y er
fic ial
ĠI T
G H
Ġem inent
Ġcommand ed
Ġin e
ach ment
Ġburn ing
Ġte a
Ġcon se
Ġsu itable
b ut
ĠS oc
u ity
m es
Ġass umed
Ġprom pt
Ġtr an
Ġinter rupt
Ġslow ly
ĠV OL
Ġconf l
at hered
ĠC ic
an im
Ġob ey
Ġal arm
Ġthorough ly
4 9
ĠR el
Ġhop ed
Ġlo ft
Ġout side
EC T
H N
Ġpr ud
per t
Ġv ary
U E
w as
ĠUnivers ity
ĠT own
ur re
3 6
Ġquick ly
Ġmark s
at re
Ġdiam eter
le ts
Ġi h
ur ance
Ġha ll
Ġexpl ain
Ġcoun ter
Ġb orne
er red
Ġagree able
Ġsign s
Ġw ants
Ġrest ored
Ġconsequ ences
ic i
Ġe ager
ĠL ike
ĠP op
ĠM AR
ĠIn f
Ġsubsequ ent
o ch
Ġav ail
4 7
id el
p here
he me
Ġpass ages
Ġbra ve
Ġbuild ings
Ġver se
Ġmo ist
ig s
Ġhands ome
if fe
asg ow
ĠW ales
Ġb ull
v ity
á½ ¶
ib er
Ġm aid
ar ation
AN T
z a
Ġincl ined
, âĢĻ
Ġc ust
Ġre n
Ġexperien ced
Ġfin ished
Ġauthor ities
Ġv ac
c ome
Ġadapt ed
u ation
a el
Ġrecord ed
- ^
Ġim age
Ġafter noon
Ġobed ience
Ġapp ar
usal em
Ġwonder ful
Ġprison ers
IT Y
Ġattempt ed
Ġur ine
Ġwis hes
Ġrespect s
Ġnew s
sel ess
Ġg ather
are t
Ġdisc overy
Ġele ment
W e
o ved
ĠH ol
Ġcall ing
ĠDe v
c ut
i ac
ĠP a
Ġn erve
Ġfall ing
Ġdi vers
Ġper sec
Ġnat ives
Ġre ck
Ġcent ral
Ġsec urity
Ġleg al
l ance
Ġprodu ction
ĠC amp
Ġspec ific
ain e
Ġing en
ĠD is
Ġpr ices
act ion
Ġpl ates
ĠSt ill
Ġst ir
Ġabsolute ly
IS H
Ġestablish ment
Ġy ards
Ġexc it
Ġgre y
ĠIs a
Ġl ake
a ud
ĠP H
ĠInde ed
Ġ' *
int s
Ġignor ance
Ġmagn ific
Ġcomb ined
ad el
Ġpre f
Ġv ul
Ġproceed ing
ĠItal ian
Ġ5 1
b ishop
i it
Ġkn ight
Ġh orn
Ġt ract
Ġem pt
T R
ĠIs land
Ġm ixture
Ġknow ing
Ġbring ing
Ġn arr
Ġsold ier
ĠC le
Ġvict ory
IT H
Ġobv ious
4 6
Ġp ressed
au nt
ĠR h
ic it
Ġce ased
Ġperman ent
ĠL u
Ġw ard
Ġextrem ity
Ġi he
ĠB E
ĠV ict
w ich
Ġsk y
Ġdefend ant
r n
Ġaccompl ished
Ġch amber
ĠS i
Ġsm ile
Ġstand ard
Ġsent iments
Ġexam ples
Ġn orthern
ĠP ost
ĠE ll
ĠT ues
Ġg ate
Ġsix ty
Ġexec uted
m ore
Ġimpro ved
Ġdist urb
Ġconven ient
Ġprov isions
Ġdoctr ines
Ġasc ertain
ĠC ity
ĠH E
Ġb ark
g est
Ġcont empt
X X
^ '
Ġsulph ur
Ġpet ition
Ġf h
Ġcalcul ated
id a
Ġru in
Ġty pe
Ġappe al
Ġdesce nd
H e
Ġrev ol
Ġsla very
Ġrest ra
ul ating
Ġal coh
Ġpat ron
Ġmanufact ure
Ġun w
Ġwood s
ĠM ur
Ġf inal
Ġant icip
Ġpray ers
Ġwe lc
Ġsatisfact ory
Ġdistrict s
Ã ¼
ĠGl asgow
Ġdes ert
F F
Ġl est
Ġfield s
ĠMe x
Ġun h
Ġkind ness
ĠAfric a
te nds
Ġcomple ted
á ¾
Ġincre asing
Ġh id
ĠB oth
os ure
Ġcan al
us ions
Ġpartic ulars
ĠEurope an
j us
ĠW in
ĠP ot
h ost
Ġphilosop hy
Ġf an
Ġdet ails
ĠAd d
ĠG all
Ġang le
Ġcondu cted
9 0
Ġmaj esty
Ġrece iving
Ġp ages
p us
Ġst ro
Ġt ask
or ia
Ġco pper
Ġdel ay
Ġexplan ation
Ġ ie
Ġcont act
th ur
Ġdevelop ed
Ġm it
Ġsh ame
Ġstrang er
Ġrel ated
Ġact ing
ĠT y
Ġvis ion
Ġatt ain
Ġ 00
Ġc am
ed ed
Ġprevent ed
Ġh ospital
4 1
Ġatt rib
Ġgold en
ustom ed
Ġinterp ret
Ġheaven ly
Ġpay ment
ĠP ap
Ġof t
Ġaf raid
Ġsucc ession
Ġfle et
Ġd ict
ĠH ug
Ġm art
ĠK ent
Ġt n
f a
Ġc ow
h ich
Ġcon nex
ĠS ince
ĠBes ides
Ġs erm
ĠBe ll
Ġ rib
ĠC e
m g
Ġlim its
ol ate
ĠO bs
i est
Ġv iii
Ġlung s
ar ian
Ġbur ied
ĠM ich
Ġto ward
Ġcorrespond ing
Ġcong reg
Ġsubst ances
) ;
ĠJer usalem
Ġpri ests
ar se
te enth
ĠÎº Î±
ac he
Ġsympath y
ol a
Ġm and
Ġhor iz
ĠÂ °
Ġsplend id
h an
Ġrep utation
Ġpre cious
Ġw et
Ġfl ight
Ġme at
Ġden y
ĠD id
Ġtr if
Ġafford ed
ĠLiver pool
Ġg rief
Ġconsist ing
Ġag ent
Ġorigin ally
Ġ7 7
he nd
Ġaccept ed
Ġc her
ub le
Ġd ent
ĠAssoci ation
ĠSto ck
Ġint est
ri ous
Ġexceed ingly
Ġ17 5
Ġpro sec
ĠF ar
Ġd are
Ġearli er
p ass
Ġbless ing
Ġmur der
Ġcommer ce
r r
ul us
Ġart ific
ce l
ĠFred er
Ġgra in
Ġ8 8
ĠTh r
or ing
ĠB ot
Ġter rible
Ġt ons
ĠH ave
Ġa rose
Ġl ust
Ġc ard
ur ious
Ġcar riage
D E
om et
Ġam mon
os ph
ĠF our
h on
ĠB ed
ĠJ ul
ĠAl though
Ġsum m
Ġrequ is
ĠC ome
ĠCon f
ind s
pl ace
Ġsec ured
Ġpul se
ĠT er
Ġbos om
Ġs ie
Ġtell s
b ro
Ġcav ity
ian a
Ġfam ous
Ġpow der
Ġcol ours
Ġdistinct ly
c an
Ġdirect ions
o es
Ġbr idge
ĠS ax
Ġatt ract
or ks
c ar
Ġele cted
Ġprepar ation
Ġins c
Ġ: âĢĶ
ĠC hem
id ents
Ġ7 8
Ġg rew
Ġanal og
il is
rib e
Ġlo g
Ġp ack
Ġprof it
Ġb a
Ġconf irm
Ġexam ine
Ġatmos phere
Ġpl aint
Ġfair ly
Ġv it
al i
if ies
Ġn u
Ġen cl
ĠDub lin
Ġal ike
Ġwith dra
6 6
Ġal ive
P H
Ġsurpr ise
Ġpres c
Ġsc heme
Ġsoon er
Ġbe ars
Ġdisapp oint
ke y
4 2
Ġv est
Ġpurch ase
Ġabund ant
Ġo h
Ġf ed
Ġconcl uded
Ġfriends hip
.) .
Ġadv oc
Ġwrit ings
ĠW at
Ġcommun ity
Ġesc aped
Ġphenomen a
Ġpard on
ĠJac ob
Ġange ls
u ated
Ġcast le
ĠM oses
Ġo m
Ġexcl aimed
Ġmas ters
Ġabs urd
ĠL ove
Ġ17 0
b t
nd e
Ġl u
Ġb ag
Ġste ad
ĠS H
ĠN ever
Ġri vers
Î¿ ÏĤ
Ġattack ed
Ġindust ry
Ġret ired
Ġc ens
ir al
Ġmel an
Ġag ricult
Ġb eds
l est
Ġgovern or
ord s
Ġmy st
Ġcont ents
Ġcontro l
Ġel oqu
Ġse eds
Ġn om
ĠSam uel
y x
ĠW all
w in
Ġprev ail
Ġprodu cing
Ġve ins
ĠT om
Ġdoubt less
Ġshe l
Ġc aught
I E
Ġdif fer
ĠO s
un i
Ġsent iment
ĠB et
Ġox y
Ġno vel
Ġmist ake
Ġweak ness
Ġthousand s
Ġph r
i U
Ġs cientific
Ġremo val
om er
am ing
Ġcirc ulation
Ġfif th
Ġ8 5
ir k
Ġfall s
Ġimag ination
Ġoffic ial
Ï Ĩ
ĠH a
i ot
Ġpal ace
Ġord in
ĠTues day
Ġfr uits
oc al
Ġver b
ĠN othing
Ġinst itution
Ġregard s
Ġbl o
ĠB a
ĠTh ree
Ġdu ke
Ġconv iction
Ġind ign
l ight
Ġa h
l as
Ġfun ctions
Ġr ays
Ġpres erve
Ġmill ions
Ġconf irmed
TI NG
Ġliter ature
Ġb id
Ġco at
ĠAl b
Ġb ay
OO K
Ġperce ive
Ġput ting
ast ed
ic us
Ġimag ine
Ġfather s
Ġh oll
Ġappre ci
Ġquar ters
Ġpres erv
Ġadv ent
O UR
Ġsens ible
Ġwant ing
arr ison
Ġimm ort
Ġtiss ue
m outh
ĠD er
Ġproper ties
Ġwas te
ĠC ape
Ġdeterm ine
ĠD ra
Ġexped ition
ĠSu pp
Ġw and
Ġse ver
/ '
ter day
Ġt ent
Ġquant ities
Ġar ts
Ġprop het
ĠO p
Ġde fic
k er
ĠE ach
ĠOr d
as ant
Ġdec ision
ĠCom mon
p se
Ġrep ent
ĠB Y
Ġwh is
7 5
t ion
un s
ĠL E
Ġo cean
Ġsto pped
Ġg athered
v est
Ġs aints
Ġcon ve
Ġs hed
Ġextend ing
Ġegg s
Ġc ir
Ġunc le
ĠS ar
Ġdisci pl
ful ness
ul ph
ag on
Ġcompar ison
ch ie
Ġtra vel
ia e
Ġmove ments
it an
Ġgod s
Ġ16 8
Ġun us
Ġconv inced
Ġprov ision
Ġm ould
Ġarm ed
Ġde ed
ĠCH R
Ġperf ection
Ġinter c
Ġcommence ment
Ġabdom en
Ġ7 6
Ġaccom mod
Ġconsider ably
Ġdecl are
ĠAt t
qu al
ĠAr thur
ĠÎ ¼
Ġa ug
Ġeng ra
Ġth rew
Ġthink s
Ġrev olution
Ġá¼ Ģ
Ġd w
Ġc as
if ts
Ġacc ustomed
ĠJ ones
Ġst ars
Ġto mb
Ġt all
oub ted
Ġjust ly
Ġe c
ck et
Ġpl us
Ġcreat ures
ĠAra b
r ick
om ed
AT H
Ġenc ourage
Ġintellect ual
Ġp ity
Ġm un
Ġdesir able
Ġv ener
Ġ15 0
ĠTest ament
Ġpen et
Ġst em
Ġn ost
Ġ8 6
Ġcour ts
Ġlib er
ate ful
o ir
ĠT im
Ġenjoy ed
Ġsp ite
ĠS k
ot he
ĠC ra
c ast
ire ct
Ġtem p
iast ical
Ġutter ly
er ies
Ġcharacter istic
Ġcontr ad
ĠM ah
ĠA L
ĠD en
Ġshad ow
ĠC ard
or us
Ġlib eral
Ġf el
ĠWed nes
ĠÎ µ
Ġintrodu ction
Ġpurs ued
Ġsett le
Ġwalk ed
ĠO d
Ġrighteous ness
Ġac res
Ġmy ster
app y
pe nds
Ġinstit utions
Ġgood ness
Ġver t
Ġdist rib
ĠB re
Ġgra ins
ph ia
n l
Ġwor st
ven ant
ĠAd am
ĠTh urs
ann el
ins on
Ġent hus
L Y
Ġus ing
Ġb ig
Ġincl uded
he ld
Ġli ver
ĠV II
Ġsh ade
Ġtrib es
Ġpoet ry
ĠD or
Ġconce ive
ĠS and
Ġassemb led
Ġcl imate
st e
Ġforg otten
Ġ7 9
Ġv ine
ĠOff ice
j ust
im a
Ġar ter
Ġcrow d
ot ic
O UN
Ġf est
Ġact ivity
Ġcomp ass
Ġpart ial
re rs
ĠJohn son
Ġ9 9
Ġem peror
Ġent ering
ter ing
ord ers
ĠT reat
Ġ6 1
Ġ16 0
ĠSe a
Ġf ert
orm al
Ġur ged
Ġdepart ment
Ġcap acity
Ġcultiv ated
Ġsc enes
Ġconn ect
ir a
ĠS a
ATION S
ĠOff ic
ĠM use
is se
ĠD utch
ĠM AN
Ġcon verted
d r
Ġconf usion
Ġwork ed
Ġoff ence
m t
se x
Ġsy n
O Y
Ġdoll ars
Ġp ound
Ġden ied
Ġacquaint ance
ĠHe ad
Ġcre ation
ĠPer haps
ĠComm ons
Ġt ie
Ġindu ce
Ġreason able
Ġqu oted
ĠM anc
Ġremem bered
Ġchar ity
Ġcol um
Ġport ra
Ġunfortun ate
c u
ĠA B
ĠT w
ĠT ake
âĢ ľ
Ġbut ter
ĠT ay
b ody
Ġen orm
Ġout ward
ĠU N
Ġde emed
Ġshort ly
Ġprodu ces
Ġfavour ite
ĠR ail
Ġar ising
Ġcomp ound
Ġje alous
Ġoff ices
Ġsacr ific
Ġdec omp
Ġlab ours
Ġbeh alf
Ġlar gest
Ġresist ance
p he
isc op
Ġam end
ĠGo ld
Ġsle nder
ĠHow ever
Ġfr ight
Ġo e
ci et
Ġm ing
Ġmult itude
ut her
ĠJO HN
Ġre jo
in ence
Ġcloud s
Ġre ality
Ġis lands
Ġcons ol
ĠV III
Ġfurn ish
oc r
Ġbrill iant
Â §
Ġre vel
Ġappar atus
ens ity
Ġacc ess
an i
Ġunc ertain
ĠR iver
Ġab ol
ĠD un
Ġaccom p
ĠConst itution
Ġan te
Ġpos itive
ĠE NG
Ġse lected
it ur
Ġelse where
ĠAct s
Ġenter pr
Ġrec overed
Ġbelong s
in te
l v
Ġappoint ment
Ġne arer
ing ton
Ġterrit ory
Ġcl ay
Ġdi et
l ine
ĠS erv
Ġconf orm
g ate
Ġqu art
Ġun p
Ġc ess
f rom
Ġdro ps
Ġse ll
h or
r ad
e i
Ġconnex ion
ĠFr iday
e es
Ġexcit ement
rop ol
ro d
Ġhar m
Ġnot ion
ĠI M
it us
Ġpass ions
le m
Ġmet al
ĠB R
Ġwar rant
Ġinc ons
Ġare a
Ġpain ted
Ġr ot
3 1
ad der
Ï į
i at
Ġh ospit
ĠS ac
ĠB on
Ġg ame
Ġc el
Ġeff ic
Ġunc om
Ġb ent
Ġcot ton
Ġce ase
ill y
ĠProtest ant
Ġbar bar
ĠD u
cho ly
Ġtrans fer
Ġ8 7
Ġstri ke
Ġterm ed
ĠP ass
Ġpun ct
e ur
Ġasc ertained
Ġnever theless
Ġob li
Ġmin istry
op er
ather s
Ġreturn ing
ok s
ĠM ost
urre ction
ist le
á½ ¸
Ġwhen ever
Ġcontin ually
Ġfl ag
w ater
ol n
yl ind
Ġdispl ay
Ġth or
Ġse m
ĠL ET
ĠLord s
us hing
Ġn aked
ĠT urn
Ġu m
N o
Ġar tery
Ġhe ll
Ġwhe at
Ġpre ached
Ġcrit ic
Ġthro at
Ġfee ble
Ġhuman ity
Ġalt ar
Ġs outhern
Ġwind s
Ġpri ze
im us
Ġacc um
ic ul
ĠBe ing
ĠCar ol
Ġl ing
AC E
Q U
m ark
Ġ8 9
UR N
AS S
Ġw estern
Ġam ple
I B
ograph y
ou te
Ġmo ving
Ġh unt
ĠCh ina
Ġgu ilt
Ġwait ing
Ġx i
Ġwor n
Ġstrugg le
Ġphilosop her
ru p
Ġam use
ĠAnd rew
Ġte aching
T o
en cies
ĠâĢĺ âĢĺ
Ġa y
Ġt ure
Ġacknowled ged
Ġun ex
Ġj ury
Ġanx iety
ag o
Ġv om
Ġtrans p
Ġphys ician
ul ent
ĠW H
Ġrel ating
Ġplant ed
A W
Ġcl o
ĠF in
Ġoccur rence
ĠÎ ¿
Ġwind ows
ĠBar on
il ton
Ġveget able
ĠP O
Ġgen u
Ġse ated
Ġret ained
Ġco ff
it ud
Ġt un
Ġcompan ion
ĠCount y
Ġdil ig
ĠSh all
Ġlater al
Ġadmir ation
Ġan c
ep ing
Ġwhere as
Ġmis ery
Ġbeg ins
Ġsett lement
ĠCam bridge
iz es
Ġatt ained
Ġh am
Ġde pends
ĠN av
ĠR et
Ġdepart ure
Ġl ament
Ġdistingu ish
Ġalcoh ol
Ġl b
Ġdece ased
Ġcho ose
Ġsuper st
Ġf ome
ĠManc hester
l ow
Ġprin ces
ĠA uth
ĠHoll and
Ġper mit
Ġobl ong
Ġchem ical
Ġw retched
Ġmed ium
Ġc i
Ġy on
Ġsh alt
Ġmort al
Ġrec over
Ġf itted
Ġdev il
Ġs ession
ut ive
Ġal k
Ġhere after
Ġcomb ination
Ġund oubted
Ġmass es
Ġint ent
Ġg le
Ġfib res
Ġaccomp any
Ġlim bs
Ġs tern
Ġstreng then
Ġvol s
Ġm ic
Ġent ertained
ĠH ind
ĠRe form
Ġt ed
Ġenc oura
Ġl aug
ĠWednes day
Ġelect ric
Ġhapp en
Ġrep ublic
ĠRom ans
Ġvoy age
Ġprom inent
ĠThurs day
Ġbishop s
ĠL inc
AS T
Ġch ain
ĠScript ures
Ġrun s
ĠSte p
Ġwid ow
Ġa ce
Ġno ise
m ar
ĠZ e
Ġinst antly
Ġsc attered
Ġprev ailed
Ġsubst ant
Ġman agement
Ġattempt s
Ġgener ous
Ġcl im
Ġsur re
Ġdesp air
Ġgun s
h and
Ġ12 0
Ġam i
Ġsub mit
ĠE xt
ĠC OL
Ġref lect
Ġper se
Ġcorn er
3 2
Ġcav al
b orn
be y
ve t
Ġdes erv
ad h
Ġno se
Ġret ain
Ġsurpr ised
Ġbow els
Ġdo ors
Ġcut ting
Ġperce ived
Ġref use
Ġev ils
Ġsk et
Ġvirt ues
Ġthere in
ens ation
Ġoccasion ed
Ġc ylind
Ġpre acher
ĠN OT
Ġcol umn
Ġv ap
Ġreg ions
ĠL amb
Ġ ic
w all
Ġr om
Ġmer its
Ġb ot
Ġdesign ed
n on
Ġ16 9
Ġth a
Ġr ude
Ġcomparative ly
Ġre j
d i
Ġg ift
ĠD ar
Ġcultiv ation
Ġclot hes
ĠA PP
Ġv ag
Ġcor por
ĠYou ng
Ġind isp
ph y
al is
Ġbeg un
Ġbes ide
ĠM S
Ġconcl ude
ers ed
Ġx ii
Ġne ut
Ġprincip ally
ĠLieut enant
Ġsc ript
âĢ ŀ
Ġprov ide
Ġrespect ive
e an
Ġtre mb
ĠS qu
Ġint ense
int ed
t es
Ġti ie
Ġadd s
ri er
Ġcompl aint
Ġdev otion
aw s
Ġconsider ing
Ġin her
l is
Ġappre hens
Ġch apel
ĠHeb rew
TION S
3 4
Ġu seless
f r
Ġo ath
ict ions
Ġliter ary
Ġpublic ation
p ress
l n
Ġc ott
Ġele ven
abb ath
Ġul cer
Ġcontin ues
Ġcol or
Ġtal ents
Ġprosper ity
Ġearli est
Ġjud ges
Ġret ire
Ġeng age
Ġpe ar
Ġwhere in
Ġwr ought
ĠL ab
Ġass ume
Ġshe ll
Ġse qu
Ġreg iment
Ġsugg est
Ġb ath
it udes
eng ers
U D
Ġsp o
Ġtrib e
s en
et ic
Th is
ĠL ow
Ġappro aching
Ġd rop
Ġpropri et
Ġk iss
ĠCan ada
Ġ6 2
Ġyes terday
ĠG er
ĠE D
Ġd ated
Ġfl ed
Ġw ages
Ġo w
Ġh ang
Ġg ross
8 8
Ġt ain
Ġgrat itude
or ated
Ġvar ied
plic ity
or able
Ġkind ly
ci ences
ĠPort ug
Ġ7 1
ak ers
Ġdoct or
ĠPr uss
AG E
Ġmus cular
, ^
Ġbel oved
ĠL ew
Ġan at
ĠS her
Ġbo il
Ġremain der
ĠP ur
Ġt ar
Ġt ing
Ġbo iling
Ġne at
Ġsubsequ ently
ro c
Ġelev ated
Ġch a
ĠVirgin ia
ĠS us
Ġprep are
Ġs ounds
Ġset ting
Ġrem ote
Ġsur v
Ġp ious
ill ery
l it
ĠW m
iv eness
Ġdescrib e
Ġenlar ged
Ġfun ction
Ġprof ound
ace ous
Ġn n
7 7
Ġchar ges
Ġdisci ples
ĠWal ter
it ious
Ġbene vol
Ġ16 6
Ġmis erable
Ġbread th
ind ing
Ġp ier
b ing
B ER
Ġall uded
Ġl ion
Ġmelan choly
Ġtre as
Ġfing er
in tend
S ee
v ous
Ġinvest ig
Ġcover ing
ĠN ational
Ġb order
AN S
Ġsens es
Ġfe ars
Ġen for
I AL
Ġcol oured
Ġexhib it
am ation
Ġcondem ned
IG H
Ġgra cious
al a
Ġsh out
Ġerr ors
ens is
Ġt ab
Ġdread ful
ic able
u k
Ġbr ings
ĠConst ant
Ġmot ives
Ġstart ed
Ġsa ith
ud d
it ch
Ġoxy gen
Ġlead s
Ġfe ed
Ġ, ,
Ġpl ed
Ġinc ur
y d
ĠN ich
Ġp iety
ĠM ED
Ġwalk ing
Ġabs ent
Ġfl ame
st r
Ġtli at
Ġfing ers
Ġcolum ns
Ġdiscipl ine
p art
Ġro w
l ers
Ġpl at
ĠC rown
ĠB ab
Ġdis gra
Ġqu am
Ġe a
Ġa pe
Ġwelc ome
ar um
Ġneg lected
Ġinqu ire
ĠL anc
ll or
Ġbas is
Ġassemb ly
Ġfind s
Ġl augh
ĠMart in
Ġt orn
ĠL uke
Ġbelong ed
Ġd ressed
Ġver d
ĠMar g
Ġbo ats
om a
Ġ9 5
Ġcompan ions
ĠM R
Ġj uris
Ġfor bid
Ġfl ood
Ġarrange ments
Ġbapt ism
ĠWor ks
ĠV ar
an th
Ġab ility
Ġplaint iff
Ġsp ots
oc ation
Ġrespect able
ps on
ĠAl so
Ġhold s
ight y
Ġproc ured
ĠW OR
Ġarg uments
Ġconvey ed
S ON
v in
Ġyour s
re en
Ġro oms
Ġinterc ourse
Ġstrong er
Ġco venant
Ġal tered
G eneral
im um
Ġf ount
j j
Ġs ore
Ġwrit es
Ġpat ience
Ġres our
Ġinstru ctions
Ġpron ounced
ĠB art
Ġpur ple
Ġ^ '
Ġal b
Ġincon ven
up on
Ġconfl ict
Ġorgan ic
Îµ Î¹
Ġass igned
Ġg ay
Ġcontin ent
Ġsens ation
ĠF rie
Ġindic ated
ĠAs semb
O n
Ġ9 8
m orrow
Ġprecise ly
ĠDe ath
ĠH um
ĠLinc oln
Ġapost le
Ġcol ony
worth y
Ġproceed s
Ġpol ice
Ġmore over
Ġuter us
id ity
Ġun ne
Ġse p
ĠXX X
Ġeleg ant
ial s
Ġb on
ĠN orm
A nd
ĠP ublic
re p
Ġoun ces
Ġshe w
Ġ3 00
ĠThere fore
Ġbr on
ul se
Ġdis order
Ġcross ed
Ġneg ro
ĠI X
Ġse ve
Ġbe ings
Ġag ents
os itions
ĠFR OM
Ġcent uries
Ġfriend ly
Ġgener ation
ĠC ross
ĠT ill
Ġinstr uments
Ġplain ly
Ġid ol
Ġdiv ide
it o
an o
OO D
Ġpre ach
Ġdoubt ful
Ġv ital
h al
Ġlove ly
Ġpre aching
ĠE le
Ġbur nt
et ing
Ġloft y
Ġperiod s
Ġimpr ison
Ġprivile ge
Ġcor ps
ri ve
Ġaff air
Ġbene f
Ġmus cle
Ġre ar
Ġinterest ed
Ġadm ission
b orough
ĠG EN
Ġexc ite
Ġmagnific ent
ĠGra nd
OL OG
Ġd augh
Ġr um
Ġc rew
Ġrecoll ect
ĠRuss ia
Ġsub mitted
ĠPhil adel
or ate
Ġinnoc ent
Ġr ay
Ġsign ed
Ġsur geon
a o
am in
Ġ16 5
Ġdo zen
Ġn s
i T
Ġtrans verse
Ġrep orts
Ġcrow ded
l eness
Ġcomp r
; "
Ġneigh b
OR T
ĠSe veral
Ġchron ic
Ġinv olved
Ġpro hib
Ġn ay
Ġvent ure
Ġan ch
Ġinter fe
. :
Ġt ide
ĠW estern
Ġeas tern
Ġtempor ary
Î¿ Ïħ
Ġtou ched
Ġdemand ed
Ġqu o
Ġsel ves
ĠL inn
ĠS um
Ġcare er
e b
á¿ ¦
min ster
ber g
Ġ7 4
ĠSt r
Ġwr ath
ĠH ard
Ġpl ans
Ġprop osition
ri p
ĠJud ge
Ġ9 6
Ġche ck
ĠWhe ther
Ġcommer cial
t em
Ġamb ition
ĠS ic
ĠB ull
c hen
Ġf erv
ĠB apt
Ġreturn s
Ġproc ure
M ON
Ġhistor ical
V I
Ġan ce
Ġprom ises
Ġdecl aration
Ġter ror
ĠCh ief
um ing
Ġc li
ĠL uc
os o
Ġp in
Ġins erted
Ĥ ¬
Ġn t
A n
p ired
act ions
Ġeight een
Ġt ies
Ġinj ured
Ġpleas ing
Ġc rop
Ġb att
Ġremed ies
Ġturn s
Ġf c
ut y
Ġconc ent
Ġsh op
as tern
Ġcontro vers
Ġacknow ledge
Ġinc or
ĠThr ough
Ġp oll
Ġdischar ged
Ġstrict ly
y ard
ar med
ig ne
ĠD ur
Ġl or
m us
ines e
ĠAb ra
or rh
ĠSh ould
Ġse es
j r
Ġabund ance
Ġapp et
Ġperform ance
un ct
Ġ11 1
Ġk ill
g on
Ġad orn
Ġartific ial
Ġmerc ury
Ġs orts
u ance
Â ®
n ut
Ġu re
Ġprovin ces
ĠK ings
Ġsil k
Ġbre aking
Ġse lect
Ġmist aken
ĠB uck
ĠG R
Ġs pl
pic uous
Ġman s
Ġh al
Ġgenu ine
Ġcom ment
Ġaband oned
ur bed
Ġlim b
Ġconsist ed
ĠCh ild
Ġhe ir
Ġtroub les
ic he
l ia
ĠRe c
Ġart ist
Ġ @
Ġprim ary
Ġwe ary
ic ate
Ġw ed
go ing
ĠWilliam s
ĠF o
Ġg i
Ġt ort
ĠG ar
Ġmut ual
Ġbal ance
ĠH as
Ġlow est
Ġinc ident
Ġfac es
Ġc atch
ĠGree ks
Ġtruth s
Ġtransl ation
Ġmeet ings
Ġsust ained
Ġdet ail
Ġg ang
ces ter
ĠTay lor
Ġmuc ous
Ġinvest igation
Ġpurch ased
Ġaut umn
t wo
Ġinv ari
Ġtub er
Ġgard ens
Ġrequ ested
Ġconstru cted
Ġdimin ished
ĠB urn
Ġs igh
M AN
Ġe tern
^ -
Ġvol umes
Ġad e
ĠF lor
Ġtot ally
Ġobt aining
w ho
ĠCh ron
ĠH ay
Ġprob ability
K E
Ġmur m
Ġcirc ular
Ġar ises
pt ure
Ġeccles iastical
Ġa ve
ĠAdm iral
Ġh ay
ĠV e
Ġslight est
Ġdeterm ination
it ic
Ġfirm ly
Î¿ Î¹
Ġre bell
er g
us ively
Ġper t
Ġdit to
Ġexerc ised
co pe
ud s
Ġempt y
Ġdispl ayed
Ġ8 1
ĠOr der
Ġsupp lies
ol i
it ia
Ġsan ction
ĠCl ass
T HE
á¿ ĸ
Ġhon ourable
ĠS EC
ĠFreder ick
Ġoccup y
Ġcommunic ated
Ġv on
re ement
Ġsurr ounding
Ġter r
ĠS yn
Ġ7 2
ut t
Ġr am
Ã© s
Ġrelie ved
Ġs ite
ass ad
Ġattack s
Ġse ct
Ġange l
ĠV ery
or i
c ause
Ġw aves
ĠF re
Ġstud ents
Ġh ide
ĠWil son
P ER
Ġann ounced
ĠWe re
Ġattend ance
Ġc er
Ġrecord s
ĠF air
a us
Ġes se
al ks
Ġ11 0
Ġcoll ege
Ġb atter
Ġrequis ite
Ġpro d
ĠG RE
Ġn est
Ġcryst all
Ġh u
Ġm es
D AY
cept ible
pe are
Ġconscious ness
or ic
Ġb ree
Ġconce ived
Ġra v
w art
ĠG ib
Ġp el
h s
Ġ15 9
Ġrepe at
Ġsh ock
ciet ies
Ġmerch ant
Ġphr ase
7 6
Ġre li
Ïĥ ÏĦ
Ġfour teen
Ġinv ited
Ġin ex
qu er
Ġwitness es
Ġinterv als
Ġ ence
Ġdwell ing
Ġrail way
ie u
Ġag us
Ġprivile ges
Ġtre asure
Ġw ore
Ġneed ed
7 9
Ġappro ved
Ġsuffer ings
Ġend ed
Ġle an
Ġever l
Ġdiv isions
im ately
Ġrev iew
a ired
ĠS ing
7 8
ĠM od
ĠD R
Ġ #
ĠPr ay
ĠE nt
Ġst ore
ĠMuse um
Ġbe e
ĠCon v
w a
r in
yl on
ĠD ay
Ġth read
Ġsor ry
Ġendeav oured
ĠPres by
ĠProv idence
ĠC OR
l u
ĠW IL
ĠRep ort
Ġsev enty
ĠL ittle
Ġcur ios
Ġru ins
ĠA S
Ġdep rived
Ġbl adder
Ġc ous
os h
ĠW ould
Ġc ul
ĠSom etimes
Ġdepart ed
Ġconstit u
Ġhar mony
Ġdes ires
Ġarri ve
Ġphys i
ĠB at
Ġmethod s
Ġearth ly
ut or
ĠAs ia
Ġsur vey
Ġassoci ated
Ġ8 4
r ig
c m
Ġsw all
Ġround ed
Ġenorm ous
Ġirrit ation
hed ral
ĠLET TER
Ġbu y
Ġatt ributed
ĠMed ic
ĠL ake
Ġlab ou
igh ter
- '
Ġfear ful
z es
Ġcolon ies
Ġar bit
ble m
Ġunne cess
li er
Ġconc ur
ĠA ld
ĠCh inese
Ġc ub
v ant
Ġe o
Ġmor bid
Ġd ried
Ġpe nd
id d
Ġdemand s
Ġsol itary
Ġaff irm
ll ers
Ġaw ful
Ġf are
Ġobsc ure
Ġappropri ate
ĠC ro
Ġneed s
eng er
Ġdef inite
ĠA y
Ġreven ue
Ġgall ant
Ġdri ve
Ġris k
ĠO l
ĠT lie
ĠT or
Ġthe fe
Ġdiss olved
AN C
ĠF orm
Ġeste em
ĠSt at
ĠCH AR
Ġd ies
Ġele vation
Ġrep air
Ġsub t
Ġpract ised
Ġins ult
ole on
Ġsm oke
Ġf ought
ie ce
Ġsepar ation
b ot
Ġrest rict
ĠSw ed
Ġsus pended
Ġsol ic
Ġadmir able
ĠGree ce
ĠR ose
ER AL
Ġpur ity
ĠSu per
Ġtrans port
Ġintellig ent
ĠAl m
ot al
Ġgir ls
Ġn ur
ĠL es
ĠR ight
ark s
ĠCh air
Ġsum mon
Ġins ol
on st
and s
Ġyoung er
ag h
ĠPhiladel phia
Ġre le
Ġexp enses
Ġw ards
Ġgl ance
Ġenjoy ment
Ġfoll y
Ġl ance
Ġreject ed
Ġlarge ly
Ġrep res
in ery
Ġto wer
ĠÎ ±
ist ics
ous ed
Ġecon omy
a per
sel s
Ġha z
Ġdisc ourse
Ġsafe ly
Ġi o
ret ion
ĠV an
ĠAssemb ly
Ġre ception
Ġcondem n
he rent
pe red
Ġe ll
Ġn our
Ġtou ching
Ġ7 3
ĠO b
Ġt ant
Ġg land
Ġmar ble
id i
ĠM EM
g a
on i
e nded
Ġpropri ety
ĠDo ctor
ĠL OND
ĠHam ilton
Ġholl ow
ag ger
s a
Ġins ide
Ġmis chief
a ign
ĠL in
ĠMad ame
Ġammon ia
ant ed
ĠN O
I RE
Ġw il
w ill
b ur
Ġrej oice
Ġtrad ition
z ed
Ġc ree
Ġs ter
Ġk id
Ġinst inct
Ġwh it
ĠAbra ham
A t
Ġfacult ies
Ġdaugh ters
Ġus es
ĠJ u
Ġf ab
Ġinc ap
ĠB ow
Ġhe ated
Ġown er
Ġw ounds
ĠB as
Ġqu ad
Ġobli que
Ġthir st
á½ Ĳ
Ġprocess es
Ġgrow s
Ġco arse
Ġpro st
Ġenl ight
Ġcon ver
Ġattend ing
ĠA ber
Ġp s
Ġb ought
Ġf ract
Ġhur t
T Y
Ġrepresent ation
ub s
Ġbet ray
Ġpurs uit
5 6
á¿ ¶
Ġinse cts
ĠF le
Ġr ises
Ġen act
ag ues
5 9
Ġsour ces
ĠWest minster
Ġsick ness
5 8
ĠL l
Ġmar ry
Ġsuspic ion
Ġp oured
Ġrece ipt
z o
Ġph osph
ĠA V
ĠMin ister
Ġwe igh
el ess
Ġun iver
Ġqu ot
ĠS ix
Ġm ol
Ġteacher s
Ġcompl ain
Ġcon ject
ĠAust ral
Ġsub l
Ã ¤
Ġvul gar
ĠQ U
ard ed
Ġlim it
Ġfat ig
oll y
Ġid le
Ġg ates
A r
ĠScot ch
Ġcomple x
Ġmost ly
ri v
Ġun just
w est
Ġra ising
Ġpo em
Ġsh ining
Ġh un
t re
Ġwhe el
b ation
ĠB arn
ĠPo or
Ġf uch
Ġstud ies
Ġadd ing
Ġb row
Ġcont est
Ġth under
Ġ| |
Ġri val
Ġprop ose
im on
Ġrest ore
ĠR us
k et
Ġour s
Ġref lection
Ġo o
Ġt ale
Ġun anim
Ġshould er
Ġdiss ol
Ġreason ing
Ġres ign
ism s
ot ted
Ġmach ine
ĠL ight
ind ed
Ġc ured
ĠH ome
ion ed
Ġu f
ĠP le
Ġlord ship
Ġd y
Ġbless ings
Ġfin est
Ġanc est
Ġevery where
pt ic
Ġse al
all s
Ð °
Ġe pit
Ġfail ure
g h
he nt
Ã ¶
Ġcop ies
Ġdes per
ĠJust ice
Ġvic inity
ĠC re
um er
Ġass ault
Ġmult i
T O
Ġreve aled
Ġfier ce
ĠGent le
Ġdis se
Ġdisp ute
Ġcertain ty
ĠA rist
Ġtra ced
qu es
LE Y
ĠS abbath
ĠG E
Ġg ently
Ġmot ive
ĠM ars
ĠO ut
ĠA mb
ĠH art
Ġun ite
ra ge
ĠWith out
u h
ĠM ort
h ouses
ĠLOND ON
Ġnew sp
ĠR og
Ġd ense
Ïī Î½
Ġhouse hold
Ġheat hen
Ġstra in
Ġswell ing
Ġl an
ĠE ss
Ġconce aled
Ġad vers
ENT S
ĠFl ore
ist ent
Ġte ar
Ġexc use
ĠH aw
Ġpro long
Ġeld er
Ġang les
ro l
Ġunh appy
ot hes
Ġstud ied
Ġa ux
Ġconstit ute
Ġc aps
is ation
Ġm m
Ġe in
ig en
Ġsh orter
Ġresemb lance
Ġsm ell
Ġexha usted
ot ions
Ġb orrow
Ġeverl asting
Ġde eds
Ġcon tend
ĠAn ne
Ġcontr ast
Ġat e
Ġn urs
Ġex tends
Ġ15 8
ird s
iv a
Ġt ib
ress es
Ġm ix
ĠB L
Ġstud ent
Ġs ess
Ġdism iss
Ġindepend ence
ĠNap oleon
ill ary
ge ons
b ted
Ġcongreg ation
m un
Ġ urg
ĠW alk
se a
Ġpo ver
Ġcont racted
ĠMich ael
Ġdesir ous
Ġobs er
Ġdec ide
Ġkn ife
s ix
Ġsc ul
as y
ul f
Ġland ed
Ġhapp ens
ic ans
Ġprom ote
Ġblo om
Ġste ady
Ġjust ified
ir y
Ġr anks
Ġbott le
Ġdec ay
ch n
Ġsince re
ad o
B S
ens ed
Ġexceed ing
Ġclaim ed
ft s
Ġpen al
Ġc f
C T
Ġbl ock
Y S
i ations
Ġed ges
ĠAl f
Ġafford s
if ully
Ġheav ens
Ġt ables
Ġbrother s
Ġest imate
Ġneg ot
ĠM i
iffe rent
Ġspeed ily
Ġf ub
Ġroad s
Ġre de
Ġm ud
g ia
ĠPo ly
Ġwas hed
Ġa ur
ĠLord ship
ĠLe aves
ĠTem ple
l ig
is ons
Ġextrem ities
g ht
ĠSt an
D ER
c ation
v ii
at ical
Ġver te
Ġdesign s
Ġ Ñ
an us
Ġdo gs
r ot
Ġa il
Ġrep ose
om eter
Ġd ial
th s
Ġpun ish
ĠG host
Ġpro ves
Ġmar g
ĠA st
Ġliqu or
Ġdu ly
Ġlist en
Ġe pid
Ġequ ival
Ġsup reme
Ġb ab
ĠO v
Ġinv ent
Ġstre ams
' ve
Ġd as
Ġlect ure
Ġatt achment
I F
ill es
op ing
c ont
i ie
Ġv ous
Ġeld est
Ġra ge
Ġrene wed
Ġacqu ire
Ġprot est
ĠTh ird
ĠB oy
ĠPro p
Ġoccasion al
ĠTh o
Ġlay ing
Ġcons picuous
b ac
Ġprepar ing
ĠW el
ĠF ree
av a
Ġg ifts
Ġp ist
Ġundoubted ly
Ġprefer red
Ġn ormal
ou ch
Ġpover ty
Ġun ity
ange l
re ne
sh aped
Ġfem ales
Ġno on
Ġconse cr
s ch
Ġc ough
Ġche ap
Ġste el
Ġp ick
qu ate
ri ages
f ig
ĠG il
Ġexpress ions
ĠDep art
ĠCommission ers
ĠS un
Ġaccur ate
d iction
Ġinv ention
Ġoff ering
Ġfe ature
Ġalter ation
Ġcal am
Ġapost les
Ġtran qu
so ever
Ġve in
Ġlive ly
Ġli p
Ġsp here
Ġsign al
Ġdisgra ce
Ġwhere ver
EN S
Ġin ward
ĠB ru
Ġex pend
ĠE N
Ġband s
Ġbr ig
Ġfl atter
Ġacc us
Ġatt ent
ly ing
ĠHo pe
Ġrid ic
Ġsim plicity
Ġplay ed
Ġdesce nded
Ġpossess es
ort ions
o is
Ġexert ions
Ġinde bted
Ġl ent
Ġrepres ents
ĠP E
a ver
Ġcaval ry
Ġsecond ary
Ġtry ing
Ġ8 2
Ġp ond
Ġaud ience
ra ce
Ġpre y
ic ious
Ġ8 3
ĠS outhern
um en
r ants
Ġin ject
Ġearnest ly
' re
Ġ9 7
Ġext ension
Ġdisc ern
Ġwe ap
Ġst ret
Ġgr ateful
w t
in ch
Ġste ep
Ġmanif ested
Ġbe f
Ġbest owed
d ered
t ts
Ġf f
ĠAr m
Ġsc orn
k a
Ġthreat ened
Ġr h
Ġoccup ation
Ġpurs ue
ur ation
ĠÎºÎ± á½¶
ĠS U
Ġred d
Ġcorrespond ence
Ġan ger
Ġalle ged
ĠB urg
Ġl un
Ġy ard
Ġgr asp
Ġperpet ual
Ġeduc ated
Ġmechan ical
ou ps
ER IC
d les
Ġarm ies
Ġmin eral
Ġsix teen
Ġn ig
ip es
Ġl ac
Ġprepar ations
Ġfar mer
ĠJack son
HE S
Ġconstitution al
Ġang ry
Ġe ther
Ġadm ire
Ġconv uls
Ġg lands
Ġc t
e ight
m ph
Ġdur ation
ĠEx am
Ġdeath s
ĠT en
le ep
Ġrend ers
ĠH an
Ġtum our
Ġvig orous
Ġneg ative
Ġneigh bor
Ġ13 0
l iness
Ġstrang ers
ĠLe e
Ġd ors
ĠW es
Ġhoriz ont
le ton
ĠB i
Ġdr unk
ĠS Y
ĠT ime
Ġover come
Ġca ution
Ġrec overy
Ġstra w
Ġextra v
Ġend ure
Ġf ie
Ġag reement
er i
Ġtim ber
Ġspr ings
ir ty
ra cy
ĠAn ge
i ated
ap es
Ġindic ate
Ġadj o
Ġr at
ol as
ĠIn n
ĠPr ice
i pped
ol ics
ĠJew ish
Ġpl enty
er ity
6 8
A U
Ġprim itive
in ating
Ġr ational
ĠSen ate
Ġstat ements
Ġfollow ers
9 9
Ġex change
u y
Ġdepos ited
ĠF am
Ġint imate
Ġtransl ated
Ġ5 00
ĠAc adem
Ġpot ass
ĠM att
em an
Ġnarr ative
Ġenterpr ise
Ġconqu er
Ġappro ached
t d
em pl
Ġillust ration
ĠMex ico
Ġo us
g ent
ĠH al
Ġcommun ion
Ġsh ield
h ill
ĠD ise
Ġobserv es
Ġlo ving
Ġg az
Ġregular ly
Ġresemb ling
Ġhydro gen
Ġse nding
s m
Ġdescrib es
Ġthick ness
on ic
Ġs es
ĠH ab
Ġunnecess ary
Ġ14 0
Ġsho res
ĠRuss ian
ĠGra ce
b el
Ġold er
Ġf oul
Î± Î½
ĠL ar
idel ity
Ġh it
ul um
i il
ac ent
ĠL am
Ġnot ed
ĠW ol
ĠB ran
Ġsecret ary
Ġd ose
Ġo re
ĠN ay
b ri
Ġasce nd
ar f
Ġs am
ĠD a
AN CE
Ġserm on
Ġaband on
ĠM ethod
Ġgl ob
Ġwhere by
ĠA G
Ġs aving
Ġper ish
Ġass ign
Ġsatisf y
Ġen v
Ġpeculiar ly
art s
Ġgra vity
t l
Ġun re
Ġpract ition
Ġinter val
ĠU pper
Îµ Î½
c us
Ġpersu aded
Ġunus ual
Ġty ran
Ġn od
ĠCol on
nat ural
] ,
Ġaccompl ish
Ġr ates
Ġr y
Ġe i
Ġshould ers
Ġrec ur
ias m
un ci
e ys
Ġsav age
Ġimag ined
ĠB rist
d ale
Ġlord s
Ġad vert
Ġ ig
t n
ic li
Ġdiffe rences
Ġsp are
Ġn omin
wh ile
ĠAuth or
Ġear l
Ġan a
o cc
Ġset s
ĠRep ublic
ĠIm per
Ġche ek
ul i
ĠM ax
Ġco in
ĠLet ter
ĠD om
ĠSu ff
Ġpat ent
Ġimmort al
ĠL ast
ĠBr idge
ĠW ard
Ġw ool
Ġsl ain
Ġsin ners
un ning
Ġw re
os ity
Ġposs ibility
ed er
ĠS in
Ġcl ause
Ġexcl usively
Ġdist ributed
om ical
Ġpl ane
ĠMarg aret
w en
Ġ9 1
Ġtr unk
Ġde eper
Ġres c
ran k
he nded
Ġe ee
Ġb ie
Ġse as
Ġfool ish
vers ion
ĠU r
Ġsum mit
ĠC ab
Ġel ong
Ġcurios ity
Ġsun k
Ġape x
it to
Ġconce al
e ches
Ġredu ction
Ġpup il
ĠAt hen
Ġro ll
Ġ10 8
ĠL im
Ġr oute
ĠN orthern
ve ll
Ġmerch ants
Ġrecon cil
Ġcrim inal
Ġjoint s
ple x
AR T
c re
ĠF L
Ġm our
ĠB ath
ĠInd ies
Î ®
Ġneighbour ing
Ġsur f
ĠH ot
or ge
ed y
Ġhol iness
Ġj ect
Ġfe ared
Ġplac ing
Ġcomm it
ĠM is
ĠF ox
Ġn nd
Ġi od
Ġins ert
Ġcare less
ĠD omin
ĠAn y
ĠB RI
Ġo mitted
Ġcl erk
ĠCh ance
Ġpre cept
Ġexhib ition
Ġgl or
Ġb ills
Ġst out
IC H
Ġm ourn
Ã Ł
u is
Ġfeel s
ĠRo ad
Ġlight s
b urn
Ġne arest
Ġst am
e enth
T is
Ġsing ing
ĠScott ish
Ġdec ree
ar ches
Ġcoll e
IC E
Ġa U
ect or
ap se
im o
" '
Ġsy mb
ol era
Ġa fl
Ġmist ress
if h
^^ ^
Ġuncom mon
ĠM as
Ġeight y
Ġinj urious
b u
LI AM
a U
Ġenlar ge
an ity
het ic
ĠSt aff
empt ion
Ġestim ated
Ġpo pe
in is
if ted
Ġcon ception
Ġle ge
ĠN ic
ĠSpan i
Ġphilosop h
Ġf p
Ġdepos it
al ogue
ĠStep hen
Ġd oses
Ġir re
Ġev ap
Ġanal ysis
Ġdest ined
ĠC ow
Ġbr ick
Ġsix th
Ġover t
ĠB ern
ĠT ri
Ġlo yal
Ġto oth
Ġpleas ures
Ġtal ent
Ġdelight ful
Ġtempor al
ĠW ork
Ġf oss
Ġobject ions
Ġsal ts
Ġann um
ĠS aint
Ġun se
Ġbus y
Ġess ent
Ġpo cket
ĠS O
â ĸł
ĠB al
f y
Ġall eg
Ġref uge
Ġho le
ion e
r c
Ġfl ock
Ġdis ag
ĠD oug
Ġtri ang
b at
Ġfe ast
ĠG az
Ġbur den
Ġp us
r ating
m aster
Ġmom ents
Ġp all
Ġtho fe
Ġfa ire
Ġfl av
Ġimp at
Ġent reat
ĠIN D
ĠN ote
ĠK night
in qu
Ġve x
ĠDan iel
erm an
at ched
Ġamid st
ĠT ro
ĠRail way
ider able
Ġpre tend
ĠGard en
Ġfulf il
Ġwitness ed
ot ism
Ġv ind
Ġself ish
ĠL ect
Ġexcell ence
Ġle is
he art
Ġwit li
Ġmount ed
Ġglo be
ff ic
Ġbene ficial
Ġsie ge
is i
Ġper mission
ne ys
Ġut tered
st ru
Ġ10 5
Ġprem ises
Ġdisc ont
cast le
Ġh ate
Ġsubject ed
ĠOn ly
ament al
ig hed
Ġdistrib ution
Ġw ax
Ġv a
he um
Ġbreak fast
ĠC u
Ġn ice
Ġproof s
Ġrel ates
all ic
Ġassist ed
Ġl um
Ġ9 4
P T
Ġv ow
Ġse asons
Ġkne e
es ar
Ġ9 3
Ġt f
Ġbl ame
ĠLew is
Ġpay ing
Ġadminist ered
Ġest ates
L D
Ġlo ver
in um
Ġx iv
Ġox ide
Ġvers es
Ġresour ces
ĠM erc
ar c
Ġappet ite
ĠI bid
Ġrecogn ised
Ġad ult
Ġnot ions
Ġdepend ent
Ġsuccess ive
Ġo we
ĠNat ural
Ġax is
d in
Ġer u
Ġst ick
Ġexcess ive
Ġover lo
ĠD ick
ĠArch bishop
Ġs angu
ĠGr ant
Ġw ars
Ġ nd
Ġclot hed
Ġqu id
ĠW y
h r
Ġwide ly
Ġb v
Ġp au
Ġke y
Ġsc ales
ĠWh it
ĠCl ar
um m
Ġquiet ly
Ġprev al
Ġse vent
Ġsus pect
ĠC ant
use tts
Ġantiqu ity
Ġmod es
ĠDist rict
j t
Ġsu nt
Ġfra gments
ĠBe cause
Ġass erted
AL E
ar ly
g ence
ĠB OOK
Ġkn ock
Ġven ge
Ġup right
if l
ĠP el
Ġr ud
ag ing
oll en
Ġw ire
Ġc au
Ġimpress ions
Ġmyst ery
Ġli is
Ġa chie
Ġacc used
Ġc es
ce nd
ĠJ ane
ia ge
Ġ- -
Ġform id
Ġg arrison
pl ed
Ġcountry men
u cc
Ġopp on
u ish
Ġcommand er
Ġvill ages
T T
Ġin ev
Ġill um
Ġric hes
Ġe ve
Ġexpress ly
ĠP an
ĠC ond
Ġca ut
Ġto il
Ġetern ity
Ġregard ing
ĠC ase
Ġ15 6
Ġcamp aign
Ġw ives
Ġjuris diction
Ġinte nd
Ġarter ies
Ġsin ner
if i
Ġrece ives
il ia
w y
ig o
ie re
ĠIs lands
ĠBr ad
ĠL uther
Ġr ide
Ġinvari ably
Ġmin or
Ġbr ide
ĠE u
Ġlo ves
Ġem ig
Ġpup ils
at ics
ĠThe e
Ġspread ing
l ain
Ġcult ure
7 2
Ġchar m
Ġ Ïĥ
ĠC op
ĠS L
Ġc ant
t ra
Ġinher it
Ġcr imes
s i
Ġd io
Ġtrave ller
ig er
quis ite
á½ °
Ġro d
Ġx iii
Ġstat ute
ĠH unt
me nd
Ġmot ions
ĠR os
Ġdest itute
Ġterm ination
Ġd ys
il a
Ġcost s
ĠW ord
Ġpo ets
Ġmar ched
h l
Ġfacult y
ĠCon n
Ġr ust
Ġdec re
Ġfu nds
Ġlangu ages
Ġu mb
Ġpi pe
Ġtrave lling
ĠT E
Ġte nded
Ġrel ax
ow ered
d a
Ġd au
C O
Ġpartic ip
ĠS ER
Ġdef in
Ġt ied
Ġinf irm
ĠP y
Ġble eding
Ġconf ident
Ġw ave
u pp
Ġprop ag
Ġrest ing
ĠD esc
á½ ²
ĠTur k
Ġassert ion
.' '
Ġwood en
Ġprofession al
Ġfro st
Ġrepresent ative
ĠAs h
ci ble
ĠMid dle
ĠB ib
Ġequival ent
ĠJ ob
ER Y
Ġcompl aints
Ġinterrupt ed
Ġeff icient
Ġbe w
Ġart illery
Ġinflu ences
z y
Ġpub lish
Ġl bs
Ġdesc ent
l ay
Ġland l
Ġspe nd
m m
Ġs ou
Ġcont ra
Ġ4 00
og le
Ġm ac
ĠCol umb
Ġper il
ĠAlex and
Ġcere mony
ĠE astern
Ġeste emed
Ġmon ument
c ond
id ers
ĠC as
Ġrevel ation
umber land
ĠN on
hes s
ĠMass ach
ĠG L
iv en
Ġem an
k i
ĠLeg isl
Ġke en
Ġst ages
Ġdrink ing
ĠÂ ¢
Ġjust ify
ĠD ie
et e
Ġreve rence
Ġbelie ving
Ġleg it
Ġavo ided
Ġle v
Ġcheer ful
g age
Ġintrodu ce
Ġan ci
Ġthe atre
Ġsod a
ĠY orks
Ġobserv ing
Ġprejud ice
ĠM A
asm uch
Ġschol ars
Ġpo ly
Ġillust rated
Ġcomm end
Ġcomm od
7 1
Ġcust oms
ĠSat an
g i
Ġa qu
Ġsee king
Ġass ure
Ġcontin uous
Ġdisappe ared
5 00
Ġs s
Ġdis cl
ĠG reg
Ġsp ark
Ġins pired
Ġimprove ments
ol ia
Ġro de
t f
h ar
ĠV ic
Ġans wers
Ġth ither
ent al
Ġo ak
Ġfo e
Ġdest ro
ĠMat the
Ġst amp
Ġel ab
ĠP ra
Ġwat ched
Ġfore head
bac co
Ġbe held
ÏĦ Î±
j u
w r
Ġann ually
Ġfor s
Ġexert ion
Ġsu ited
Ġa ven
Ġadjo ining
Ġ10 9
Ġarrest ed
ĠPhil osop
I TI
Ġdis g
C C
Ġsol uble
b us
Ġinv al
ĠPl ace
Ġcommand s
Ġun like
Ġvan ity
ĠTr ade
Ġst aff
Ġcount ies
Ġdise ased
oll a
Ġd ru
Ġpart ially
Ġrespect ively
ĠAlm ighty
ih il
OC K
h u
ĠI ron
pe ction
pr ing
Ġsus pected
Ġprop ortions
Ġcontem por
Ġaccord ance
Ġlaw ful
Ġcons umption
Ġcont ributed
Ġwar ri
Ġp t
Ġoun ce
Ġpaint ing
ist ing
Ġem ph
Ġportra it
Ġme al
b ack
Ġre aching
che ster
Ġbe asts
IS S
Ġf lex
ĠNe ither
re ls
Ġag gra
Ġcro ps
in ement
Ġw ont
Ġsp ort
Ġa pert
Ġmach inery
ĠFa ith
ÏĦ Îµ
ĠC ot
Ġex al
ĠBrist ol
n m
em on
Ġcere mon
Ġqu a
ĠFore ign
ĠC irc
ĠQu ar
Ġsh aft
Ġmaj or
Ġuniver se
Ġult imately
ĠS ep
ĠC rom
Ġres id
ĠS up
ĠF ur
ine a
Ġi ps
cess ion
ĠT imes
Ġres pond
ĠD ig
ht h
Ġcomfort able
uck y
Ġgr oups
Ġmem orial
Ġs ic
Ġshel ter
Ġass urance
Ġkne es
Î ¾
Ġinde f
ĠC reat
" .
qu et
ĠB irm
ĠD own
ink s
ĠB O
Ġl one
Ġunivers ally
ĠCOM P
ĠM ON
pl ess
Ġg erm
Ġbreat hing
Ġvig our
Ġtra ces
Ġformid able
usc ript
Ġth igh
Ġbr ass
Ġassoci ation
ĠHug h
Ġres ort
Ġaug ment
pher d
er ness
Ġmess age
Ġh oney
am ph
Ġe ating
Ġaf ores
u ate
Â ¢
ne ll
f olk
om atic
ĠS we
ĠBr ight
Ġhar bour
Ġov ate
Ġsto res
Ġun a
am bers
Ġwe lf
ent i
Ġhe d
Ġtroub led
Ġill ness
Ġall ied
Ġtender ness
Ġpresent ly
Ġoblig ation
Ġseve rely
s ed
Ġprodu ct
ĠCath olics
Ġaccur acy
Ġabst ract
ĠGr ay
Ġdecl ined
Ġsever ity
ĠObs erv
Ġwa ited
Ġvict im
Ġeloqu ence
Ġag ency
Ġvolunt ary
ocr atic
O OL
Ġdefe at
D S
Ġneut ral
Ġprodu ctions
E AS
Ġcart il
Ġdecl ine
7 4
Ġant i
og ra
Ġins ens
ĠT a
ure ly
o ok
Ġ10 6
ĠLet ters
Ġ15 5
9 8
Ġ9 2
Ġt ive
Ġsupp osing
Ð ¾
Ġdes erve
Ġyield ed
.... ....
Ġvary ing
in ter
et her
d d
Ġcert ific
Ġmod el
] .
ap ing
Ġp ars
Ġeffect ual
ar is
Ġlo ad
ĠW ITH
Ġpres ident
v s
ary n
Ġv ot
Ġ/ .
Ġw ilt
Ġdra in
Î¿ á¿¦
ĠA ch
Ġpot ash
Ġwelf are
c nt
Ġch ose
Ġeffect ually
Ġpartic les
Ġwas h
or r
Ġsubst it
Ġtri als
Ġr t
ĠB eng
ĠE lect
Ġdang ers
Ġremo ving
c it
R IC
Ġcontrovers y
Ġl ack
Ġaw ak
no ld
Ġcomp act
ĠP itt
ograph ical
ĠKing dom
Ġan nex
Ġch annel
ĠAd ams
re qu
Ġex quisite
Ġh uge
m ans
Ġab use
Ġspe cially
os er
Ġen qu
z ing
ĠMay or
Ġcompl ained
ĠB all
Ġadopt ion
Ġdro ve
al ysis
Ġser iously
Ġblood y
Ġvo ices
Ġpain ter
Ġembra ce
Ġe th
Ġafores aid
ĠJe ho
ch lor
ĠAust ria
medi ate
Ġdre ams
Ġth i
ĠRel ig
Ġlead ers
Ġlead er
Ġ0 1
Ġx vi
Ġcorrupt ion
br ance
Ġprofess ed
A s
od s
Ġapplic able
ep s
Ġinte gr
ĠU l
Ġopp ose
ar l
Ġph ot
yl van
Ġha re
ĠK now
Ġf ug
Ġprecipit ate
Ġbr id
Ġly mph
Ġda wn
est one
Ġdelight ed
Ġsuper intend
Ġhor ror
Ġcou ple
art e
Ġmagist rates
Ġtub es
Ġconvers ion
Ġdist urbed
Ġre in
Ġdomin ion
v n
ĠP ract
Ġcomp are
Ġrepresent ing
Ġacid s
Ġexpect ation
Ġdest ru
i M
ĠTr inity
and o
Ġopp ress
Ġmet ropol
Ġsub d
Ġem otion
Ġremark ably
in ently
Ġw ag
br al
Ġch im
f es
Ġneighb ours
Ġgr amm
as se
Ġexp osure
ĠH un
Ġgr ay
ipp ing
Ġinc om
Ġrelie ve
Ġdeb ate
ĠIN T
ond er
AC H
Ġlong itud
ĠH Y
ON S
f old
on ge
Ġtrif ling
oul t
ĠP RE
Ġthrow ing
AP H
Ġrig id
Ġ ion
ĠA u
l ock
Ġho c
ch i
Ġde ck
Ġrebell ion
Ġadv is
Ġexp and
Ġc ries
ĠS urg
Ġcous in
Ġent ers
Ġexha ust
ĠJ un
Ġpl ains
Ġsong s
Ġk it
Ġvenge ance
' *
Ġp osed
i ou
ore m
Ġhair s
Ġalk al
ed e
Ġn er
Ġpre tended
Ġstrong est
oc racy
Ġsmall est
ere r
arr ass
Ġend ing
ut a
" ,
h n
ĠD iss
Ġcrit ical
ail ing
at em
ĠAlf red
ru it
Ġdefe ated
Ġw ra
6 5
TIC AL
Ġor ange
r ons
E x
Ġform al
Ġann oy
Ġple a
Ġadv ised
h ow
ĠJ ap
Ġconve x
ĠF itz
ĠB ol
oint ed
ĠLe on
Ġfe athers
ĠR ow
ĠG oth
Ġbo iled
ĠNot es
Ġchlor ide
Ġimper ial
ĠT u
Ġcompan ies
Ġt inct
Y ou
Ġis t
Ġr ation
Ġsign ific
Ġtremb ling
Ġconf erred
ĠI he
Ġi j
Ġind ifferent
ING S
Ġessent ially
Ġa ward
Ġlay er
p en
ist ered
Ġpri or
Ġsubl ime
Ġd rown
Ġinqu ired
Ġhum our
Ġfortun ate
ĠCamp bell
Ġst ating
ĠGe o
ĠU t
Ġev ac
bo ok
Ġmedic ines
Ġfert ile
Ġm amm
fe rences
Ġconf ession
Ġindign ation
Ġextrav ag
Ġbod ily
Ġju ice
Ġha v
Ġchief s
el ing
Ġimp ulse
Ġf om
Ġsupp er
Ġ10 1
Ġillust rious
Ġorgan ization
Ġcont raction
Ġmyster ious
Ġcontin uance
Ġin iqu
Ġres piration
ath an
ĠCent ral
or ney
W hat
Ġab ode
Ġconsist ent
ĠL ang
b an
ic ity
Ġsy ll
Ġet iam
Ġqual ified
ĠS ed
Ġ10 4
Ġgovern ed
ĠCarol ina
ĠMassach usetts
ĠC all
em ic
l ar
v ah
Ġas se
ĠCl are
Ġf ired
Ġexcl usive
ci an
Ġsev enth
Ġsupp osition
Ġl amp
Ġbl oss
Ġm atch
ĠR ad
c f
Ġhas te
ho ea
Ġpl ough
Ġrel ate
Ġinterpret ation
Ġhat red
ry s
Ġtalk ing
Ġo val
Ġsket ch
ĠJ on
Ġp ig
az ine
Ġpress ing
gr ound
ĠH i
Ġsurre nder
ĠM ission
Ġsurf aces
Ġb urg
á½ ´
ĠN E
Ġcur se
Ġas h
D e
Ġmid night
T here
Ġdiff ers
p ing
Ġinc ome
Ġqu it
Ġdr am
ĠM ons
7 3
Ġpresc ribed
Ġimp osed
oc ity
Ġredu ce
Ġworld ly
Ġsummon ed
ĠI st
Ð µ
col oured
Ġcor on
Ġterm inated
ĠPrin cess
Ġconsider ations
Ġbe ast
form ed
Ġto m
I O
Ġd ance
ĠAl bert
Ġrest s
Ġsust ain
Ġasc ribed
Ġhe red
Ġex empl
ost er
Ġad du
Ġcommunic ate
ĠT able
Ġop ium
ĠSur geon
ĠMo ore
Ġw oe
Ġsucceed ing
Ġreg ulations
Ġf m
og y
ib h
Ġinterv iew
Ġatt racted
Ġpub l
od es
is k
Ġf ow
Ġerr one
ĠAt hens
Ġappe nd
Ġten ant
Ġinstru cted
Ġask ing
Ġco inc
Ġse ctions
Ġn ous
Ġment ions
Ġrest oration
Ġp y
ic ing
av it
esc ent
Ġreven ge
am pton
ĠSh aks
Ġt rop
Ġlect ures
ĠSo on
Ġenthus iasm
ro gen
ĠP age
Ġcompet ent
yl um
ham ed
ĠT otal
ĠP ut
ĠH and
ĠW it
Ġsa iled
Ġincl ination
ĠO ver
Ġsc r
ĠL ower
ĠA U
p at
Ġbra nd
Ġg ene
Ġappear ances
Ġel astic
ĠPl ate
Ġe jus
Ġt lic
ĠPe ace
no x
Ġdro pped
enn y
Ġdra g
i ug
ĠAM ERIC
i ir
S e
ĠVir g
Ġsh ine
Ġdoub ts
ĠRev iew
l j
d am
ic ult
ĠG ive
v iii
ĠMe an
Ġ12 5
bo ard
Ġgener a
ĠI R
Ġperse ver
Ġming led
b ow
v as
l ause
ne um
Ġo c
Ġgl ab
Ġ10 3
ust ice
Ġsur pass
r ich
Ġamount ed
Ġpure ly
Ġpreced ed
ad er
l ate
o irs
Ġmal ign
ĠB less
Ġo y
Ġprophe ts
Ġsub ord
Ġa us
ĠD uc
ĠL ORD
is en
Ġrene w
Ġrecogn ized
Ġrender ing
Ġincap able
Ġper m
Ġyellow ish
re ts
Ġrepent ance
Ġsur g
g reg
Ġsulph ate
Ã ³
Ġgu ar
Ġf y
s he
Ġamb assad
6 9
c li
ĠDe ar
ct ing
EN E
A l
re a
Ġs ag
Ġfore ver
Ġe cho
Ġde leg
Ġwor sh
ane ously
Ġt ip
ap ers
ĠAn th
Ġir res
U e
Ġme ad
uc le
ons cious
Ġ11 8
? .
ĠAt l
Ġd amp
Ġim b
A H
Ġt ight
ĠD itto
Ġc ited
Ġres erve
Ġgreat ness
Ġj aw
Ġunex pected
Ġpil gr
Ġprodu cts
oy s
Ġpres ume
Ġfor fe
Ġfount ain
ĠS OC
i in
Ġhundred s
Ġhid den
Ġref ers
h um
en cing
ĠFl owers
Ġcur t
Ġshe et
ĠYorks hire
ĠF ield
qu am
Ġh ue
Ġl ift
Ġconsequ ent
Ġdoub ted
e em
I TION
Ġless on
Ġing s
ĠChance llor
Ġper pend
Ġappear ing
Ġhost ile
Ġso cieties
AB LE
Ġann ounce
Ġpropos al
Ġc iv
r f
ĠWh atever
ĠT ar
ĠIn ter
ĠDoug las
Ġst up
Ġo ra
ĠChair man
ol ph
Ġaffect ing
Ġas hes
un ch
Ġrespons ible
all en
Ġlist ened
ĠV es
Ġimp ressed
ĠM OR
ĠM uch
Ġindisp ens
om on
Ġst iff
Ġres erved
Ġamend ment
Ġencoura ged
le ctions
ĠH ast
ĠJ oh
Ġpresent ing
Ġcitiz en
ĠL i
ĠAcadem y
Ġdesper ate
d es
Ġb orders
ĠPl ant
Ġbe nd
Ġconstit uted
Ġl iv
Ġinquir ies
Ġjour nal
ĠS em
Ġhon ours
ĠC ertain
ĠBirm ingham
po x
Ġhorizont al
uff icient
Ġexam ining
Ġbul k
ĠNor folk
y le
Ġident ical
Ġr if
Ġim ages
nt y
ĠP il
Ġp int
ĠTh or
Ġapart ment
Ã© e
Ġinterfe re
Ġhur ried
ell a
it ating
Ġa o
Ġrep re
l ot
Ġoff ers
Ġ14 8
ener y
Ġappe ll
ĠHer od
Ġprud ent
Ġper plex
ato es
are rs
Ġrepresent atives
Ġwithdra w
Ġconqu est
Ġdra ught
ĠC AR
Ġave c
ĠAr my
Ġhar mon
Ġmin es
Ġd aring
Ġes q
Ġv io
ii ii
Ã ²
Ġro ws
og s
C ol
ra nd
Ġsuperior ity
n el
Ġaut hent
Ġtell ing
Ġg al
Ġc x
Ġs aint
ĠP ER
ft ed
Ġcorrespond ent
Ġcommand ing
ĠL iv
Ġca using
Ġexped ient
Ġfarm ers
Ġdisag ree
Ġprot ected
Ġown ers
Ġmort ality
Ġlif ted
Ġundert ake
ant y
Ġres urrection
Ġcoff ee
Ġcan non
Ġmet allic
Ġnew ly
Ġmir acles
Ġcl othing
Ġprod ig
is ible
ĠL oc
Ġsulphur ic
r ust
Ġfellow s
Ġext ens
Ġtransp arent
Ġres umed
iff s
Ġp atter
ĠSpani ards
Ġexhib its
Ġdet ected
Ġhy mn
Ġher b
ĠHar ry
Ġas hamed
Ġsecret ion
Ġwork men
Ġbenef its
Ġcryst als
Ġagricult ural
Ġbo ast
Ġv oc
Ġac re
Ġit a
ĠL od
J ohn
Ġbl ank
Ġun worthy
UC TION
ra in
Ġingen ious
Ġmeas ured
Ġdiscuss ed
Ġdis hon
ylvan ia
Ġard ent
ĠEs sex
aps ed
Ġlin en
Ġglo omy
Ġrepro ach
ri al
Ġsub du
ĠDepart ment
ĠLaw rence
ĠEd ition
ur t
Ġfore going
u o
Ġv id
Ġf ires
Ġyour selves
p re
ĠDe an
Ġ12 8
Ġm ob
ly n
Ġ11 5
Ġapprehens ion
p ers
Ġjud ged
ĠB our
Ġthir teen
Ġinse ct
Ġconv ention
Ġs ine
Ġexpend iture
be ar
Ġcott age
Ġla ud
ĠD al
Ġs isters
Ġdef ined
Ġfly ing
ĠGo ogle
act er
ĠE du
Ġl ui
ĠT it
Ġvent ric
Ġb orough
Ġcarbon ic
Ġrapid ity
r m
Ġsu f
Ġvom iting
ĠM arsh
Ġaccommod ation
orrh age
ĠPen ns
Ġf ury
ĠAcc ount
nt o
Ġt ne
ĠM os
T e
Ġmain ly
Ġmat hem
ĠN um
Ġ11 9
ĠHer bert
Ġhar vest
ĠT RE
Ġ25 0
ĠBer lin
Ġwar ning
ĠH IS
x im
ĠMar quis
Ġappro bation
ĠS n
Ġind if
ill ings
pe c
ĠNew ton
N S
Ġbet w
th ree
ic um
Ġtre ason
Ġfra ud
Ġden omin
Ġd c
Ġconcl usions
Ġsystem s
Th at
Ġsuccess fully
ĠNOT ES
á¿¶ Î½
ir l
AC K
Ġsum s
Ġ14 9
B e
ĠD am
ON G
Ġco ach
Ġst ip
Ġtr ades
Ġre verse
ĠL O
ĠW AR
Ġdis ple
IN C
ĠLo ok
Ġye a
ĠMedic ine
Ġc ate
Ġexc iting
Ġadm in
gr at
Ġdisp os
Ġemb arrass
Ġpre ference
Ġsole ly
Ġman uscript
M S
Ġexerc ises
ĠConv ention
Ġforg ive
Ġdesc riptions
to ok
ut ors
Ġde em
Ġf isher
Ġca res
ĠMil ton
Ġabsor bed
Ġkeep s
Ġmill ion
Ġst ories
ĠF ab
Ġopen ly
Ġdecided ly
Ġcal yx
Ġnav al
Ġco gn
li o
po ch
ing e
Ġimpro per
Ġp ause
ĠWor ld
ĠD irect
ĠEd m
ĠM un
Ġneed le
ĠDo es
Ġrequ iring
i ro
Ġsk ull
Ġtempt ation
ĠSm all
Ġdeserv es
ĠS S
ĠGl ou
Ġlib rary
Ġgrace ful
O IR
Ġse ats
au nd
Ġpolit ics
Ġman ure
Ġwild erness
Ġl O
qu ar
ipp i
in ia
ie ur
ist ence
Ġthr ust
Ġex agger
Ġverd ict
ĠOh io
Ġcap it
Ġpass engers
for th
Ġv iv
ĠL ane
ag an
ĠCreat or
Ġexal ted
ĠAn at
Ġpred e
Ġpre gn
Ġd Ã©
Ġr idge
ĠZ ool
Ġl as
Ġresemb les
Ġsw ift
Ġsp ont
Ġt out
Ġh ie
Ġconv ent
Ġplay ing
th y
Ġhyp othes
Ġvener able
Ġshe lls
Ġdefe nded
Ġ10 2
Ġcl er
ĠE T
Ġp ect
Ġadv ancing
Ġinj ustice
Ġa le
ĠSt ud
Ġnight s
Ġcrown ed
Ġto bacco
Ġtra ining
Ġcompre hens
ĠJeho vah
re al
Ġal iqu
Ġglo om
Ġlight ed
Ġincl ude
Ġcons pir
ĠE ccles
ĠNe xt
lo oking
Ġresol utions
Ġidol at
I f
ĠWIL LIAM
ĠB alt
Ġtem ples
Ġdes erved
Ġt s
Ġb ind
ĠFlore nce
Ġfight ing
Ġs ke
Ġwh oles
Ġn ull
vers ed
ĠIsa ac
Ġt ick
Ġv oted
Ġm ant
our t
u ced
Ġapply ing
i w
ert y
Ġmet aph
6 1
ĠP ed
Ġmod er
Ġch rist
ol o
Ġpr ime
Ġport s
Ġfun eral
ĠX L
ĠCH UR
Ġeat en
Ġcruel ty
ĠS ant
B E
Ġor th
Ġrest less
Ġrespons ibility
Ġdim ensions
Ġlat itude
OUS E
it ory
Ġs ut
Ġem er
OLOG Y
Ġp inn
OL D
Ġpossess ing
ĠC ass
Ġas leep
Ġso ber
Ġloc ality
Ġphys icians
ut enant
ĠO per
Ġal as
" "
in ued
Ġline ar
Ġenlight ened
Ġin asmuch
Ġsuccess or
ut ton
? ,
Ġsp inal
ĠAss ist
Ġv otes
Ġdeg r
ĠB ene
ag le
ĠWalk er
Ġpe c
Ġt il
Ġdown wards
Ġbe es
Ġemb ark
r ar
Ġsugg estion
Ġgrad ual
Ġdi agn
ĠG ro
l an
Ġbar ren
ert on
Ïĥ Î¹
Ġm ock
ad ise
le ans
AM ES
Ġm ak
Ġaccount ed
Ġca us
Ġencourage ment
A IL
ĠP ay
Ġleis ure
ĠSp ring
ĠS ulph
Ġer a
ch anged
Ġtrib un
Ġ10 7
Ġallow ing
Ġtalk ed
Ġpos itions
Ġview ed
ĠE nd
Ġm ate
at on
B R
A X
OM E
Ġre action
Ġenc oun
Ġunder go
ĠG ener
Ġall y
Ġman aged
p ore
Ġvert ical
ĠHo ok
ES P
ĠX I
Ġl ia
f elf
Ġvirt uous
Ġrese mble
ĠH ung
Ġun qu
Ġar sen
Ġcomb at
Ġs ap
Ġ12 9
Ġdel ib
Ġfort night
ĠM ir
Ġfr ank
ch ant
ĠE M
ĠV ien
/ ,
; ,
or gan
Ġli as
Ġun m
Ġsh ake
ĠSim on
Ġf id
ist les
ĠD I
Ġam az
Ġaffection ate
ĠS cience
Ġover th
ĠF ull
Ġ Å¿
Ġm ap
Ġdet ached
ĠU s
uls ion
Ġburn ed
Ġwli ich
Ġbrief ly
Ġprud ence
Ġc os
ĠAmer icans
ĠEng ine
Ġdeb ts
Ġult imate
Ġanch or
Ġv oid
c ils
ĠCO UN
Ġd ic
ĠH omer
ĠR ock
ĠIll ust
Ġle ather
ĠM ack
Ġfac ility
Ġrep et
ĠJe ff
Ġexpress ing
Ġconfess ed
Ġfab ric
Ġfault s
Ġsk il
Ġscar let
Ġundert aking
Ġ13 8
Ġwarm th
ie g
UR ES
Ġ\ \
ĠS el
ĠGEN ERAL
Ġt an
Ġt ire
Ġpl un
ĠPs alm
Ġvis its
Ġt id
ĠMatthe w
Ġdors al
Ġinter mediate
ĠF E
Ġres erv
Ġb ount
Ġn in
Ġsuper ficial
Ġins piration
Ġus ur
Ġto w
ll o
Ġdis h
ĠBr other
ĠI h
Ġinter n
Ġarchitect ure
ug g
Ġsle pt
Ġdeli very
Ġt ii
Ġga ze
s y
Ġn os
Ġperpend icular
ĠH ort
Ġwatch ing
Ġh anging
Ġcre ate
Ġrib s
Ġconf er
ĠS ay
Ġins isted
Ġinsc ription
ĠMe eting
Ġfol iage
Ġpenal ty
Ġdisc retion
Ġd ar
m d
ub e
Ġb ased
Ġinf er
Ġto e
Ġe u
Ġve il
Ġe h
Ġg n
Ġtax es
Ġr ushed
ĠOr ig
ass es
Ġremem brance
ĠBeng al
ot hed
ber ry
ĠMar ia
Ġcl ust
ĠX IV
Ġrec ourse
ĠCl ay
Ġam iable
ĠAn s
Ġeng agement
Ġpatron age
Ġr heum
ĠP ier
Ġall iance
Ġbre ed
Ġpos it
Ġcle ared
ĠSc ar
ĠPh arm
Ġc ath
w hel
Ġpersec ution
AN G
Ġfine ly
Ġobst ru
Ġbre ach
ĠP ont
Ġforest s
n c
iscop al
Ġimport ed
Ġchar ming
Ġserv ing
Ġmor ality
Ġro lled
ie nd
Ġris en
Ġpl um
Ġvap our
ĠI b
ol t
Ġfl ames
Ġrest ed
Ħ ¢
Ġtrave llers
Ġeffect ive
Ġmagist rate
Ġgu ess
Ġrepeated ly
Ġinter m
ĠNich olas
Ġpract ically
Ġder ive
ĠRus sell
ĠMid dles
ĠNew castle
fort une
t ime
ĠG ord
ĠV ice
ĠM ic
Ġro pe
Ġnob les
B ut
ĠSqu are
ĠSt and
Ġwhat soever
ĠWh ose
Ġtransfer red
Ġend less
Ġfa id
Ġfulf illed
ĠSt u
Ġex terior
ĠE ve
if er
ĠChe ster
Ġt urb
Ġallow ance
Ġlo aded
l ion
ĠApost les
Ġattend ant
ĠImper ial
ang er
Ġsu ng
al ia
Ġbeh av
Ġdig est
ĠÎ ³
Ġn ic
ri x
Ġt our
Ġm ul
Ġdeg ener
ĠU p
Ġo st
Ġmon st
ĠG ran
Ġa z
ag us
ĠF ra
ĠL is
Ġmer ry
Ġdecl ares
Ġrecoll ection
ĠS ign
t w
Ġwid th
ĠIn c
Ġaffl icted
en i
ĠCorn wall
ĠCan ter
ĠP om
Ġhe irs
Ġri v
Ġmon aster
Ġw are
Ġins pection
un a
Ġexcept ions
TI SH
ET H
L e
* '
Ġmain ten
ot y
ĠPresby ter
u in
ĠInst itution
Ġ] )
Ġencl osed
Ġincre ases
ĠPo et
ul is
Ġdw elt
Ġfl owing
ĠGre y
Ġ^ ^^
ĠTr ue
Ġcal c
C om
Ġanim ated
ĠNorm an
ĠEgypt ian
ĠCOM M
on ian
Ġpal m
Ġt ired
ĠP i
Ġtre acher
Ġal ien
ĠEn ter
ĠN one
Ġstat ue
Ġst airs
r idge
ĠNap les
Ġcomm e
ĠP I
Ġmoist ure
Ġfurn iture
pe ls
or se
Ġch olera
ĠBra z
Ġdece ived
Ġi p
Ġsp ared
n ia
Ġch anging
TI N
Ġbe er
Ġfol io
Ġtrib ute
Ġ ers
Ġjoy s
Ġar ray
j a
cept ions
es se
ĠO ri
ĠMore over
ĠCh r
Ġa ad
Ġp est
Ġref lected
id o
Ġg ig
ce t
Ġwa a
Ġp ine
Ġa ft
6 4
Ġr ash
ĠP oint
Ġcarbon ate
AL S
if erous
it he
Ġjealous y
Ġdam age
Ġchar ms
ĠL ist
Ġr ug
Ġt enth
Ġar ist
ĠChrist mas
Ġ14 5
Ġmagn itude
Ġf on
Ġpray ed
th a
F or
r ative
Ġb ounds
ĠH ER
Ġtra ck
it u
ĠM u
ĠÎµ á¼
ling ton
ĠP ower
ĠM oh
ĠGaz ette
Ġal armed
Ġprodu ctive
Ġex tern
Ġabdom inal
i atic
ure t
id h
A I
Ġmission ary
L IC
n et
ing er
Ġchar ter
Ġbapt ized
Ġinfinite ly
ĠF ed
ĠMur ray
ĠW o
Ġamuse ment
ment ioned
Ġcop ious
ĠClar ke
Ġmo le
ring ton
ĠC R
al o
Ġag itation
ĠL ad
Ġrese arches
Ġavail able
Ġout line
ĠJap an
ne a
ĠP OL
Ġpit ch
ci le
l r
Ġo z
Ġbl iss
y ou
Ġterm inal
Ġmet als
Ġquar rel
Ġcur ved
Ġh ia
T i
Ġpo ems
ĠBe hold
Ġnob ody
Ġarch bishop
ĠPruss ia
ir on
ir i
Ġvers ion
Ġanticip ated
Ġim itation
ĠI L
ĠMEM OIR
Ġhe n
ll i
o ly
END IX
IT E
ri um
Ġcommission ers
ĠT ower
Ġtreat ing
Ġr c
Ġconsult ed
Ġal fo
v ate
Ġch ains
Ġbr u
Ġintegr ity
Ġhe ret
Ġbest ow
t ree
Ġcross ing
Ġfund amental
n u
Ġadvent ure
Ġp ose
Ġ186 1
ĠT ell
Ġg est
Ġ* ^
Ġdet ailed
Ġ11 2
C l
Ġinconven ience
Ġunw illing
Ġsc enery
d em
ĠS id
Ġr out
op ed
Ġme ek
Ġexcept ing
Ġut ility
D R
Ġprede cess
is is
ĠJO URN
Ġpro se
Ġsitu ations
Ġsubst itute
Ġass ent
Ġsy ph
ĠAg ricult
Ġp ots
un ity
ĠK il
Ġv ib
Ġcell ular
Ġse lection
Ġfe eding
Ġres ided
Ġredd ish
K ET
ĠF if
Ġext ingu
Ġright ly
Ġ13 5
Ġade quate
Ġsus p
ĠM IN
Ïģ Î±
Ġes p
Ġ* .
Ġmod est
Ġcapt ure
Ġkit chen
ĠF al
Ġcandid ate
il ation
g one
ĠRich mond
st ead
Ġt res
ol ated
Ġdomin ions
w ar
Ġancest ors
ran ean
li i
ĠAn im
Ġpo le
Ġinter ference
ĠWes ley
Ġha unt
s pring
Ġh arsh
ĠG ene
Ġcru c
ract s
Ġbeat en
ĠC ru
rest ed
ur st
Ġsk ies
Ġthor ax
Ġall ies
Ġb ud
Ġres ident
Ġt ained
Ġd uc
man n
Ġcon grat
Ġen im
a ire
Ġha il
Ġqu ae
ĠAl as
ĠX II
6 2
Ġabs cess
Ġstro ke
Ġanalog y
Ġf asc
Ġst uff
Ġp ace
or ical
AT ES
c alled
ver b
r ice
ĠC HE
Ġhistor ian
Ġyield s
ĠK irk
ĠS erm
ĠPers ian
Ġtiss ues
Ġpur g
Ġm ail
Ġnav y
Ġput s
Ġn oun
ĠT i
ĠAfric an
Ġveget ables
Ġall usion
m ount
ĠBel g
> .
Ġt une
Ġsacrific es
Ġf ide
Ġg el
b et
Ġfer ment
Ġt int
Ġmus ical
ĠV all
Ġobt use
ent e
Ġhapp ily
Ġfav oured
land ers
Ġ186 2
Ġed itor
um erable
ĠEar ly
O E
ĠDur ham
Ġord ained
an ing
ge l
Ġsc rew
/ /
Ġcontrib ute
ut able
ĠM it
Ġn ucle
Ġmod ified
Ġl id
Ġnur se
Ġful ness
ĠCl erk
Ġdisappe ar
Ġtrust ed
Ġdec is
ĠBen j
ne fs
or ph
ight ed
ib i
Ġtreat ise
Ġcor pus
ine as
Ġcompass ion
ĠDIS EAS
a que
Ġrep rodu
Ġpun ished
Ġopportun ities
am us
Ġins pect
ul o
ĠR oss
th ra
Ġmon ks
Ġliter ally
ĠAtl antic
Ġf idelity
ĠH om
ĠÂ ®
ĠRE V
Ġcomp ressed
ĠAustral ia
Ġinc omp
Ġinflamm atory
il ian
sh ine
ĠM other
Ġlab ors
v t
Ġprejud ices
ĠO t
Ġs cept
Ã ª
Ġf he
her s
ĠAp pend
ag raph
Ġobed ient
OR S
uc id
Ġth ai
ĠL iter
Ġindispens able
es y
Ġra ces
Ġche eks
Ġr atio
Ġland sc
Ġcons umed
Ġp yr
Ġunc onscious
Ġple ad
Ġjudic ious
Ġ11 4
Ġattempt ing
* ^
ĠP ow
ĠCont inent
ct ic
ĠRE P
Ġcont ag
ĠIN S
ĠAPP ENDIX
ĠPet ers
Ġinfl icted
Ġsal ut
Ġcontin ual
ĠPenns ylvania
Ġdisappoint ed
Ġdis gu
E AR
d l
ch us
Ġschol ar
Ġw alks
ĠVict oria
Ġtrans mitted
ĠG O
ĠBu ild
e z
Ġover whel
Ġvent ured
ĠPe ople
AM P
Ġab rupt
Ġcl osing
ĠH ud
Ġmater ially
Ġgrand eur
u u
ĠC AS
Ġunfortun ately
Ġwe ep
Ġu i
Ġorn aments
ĠLe ices
Ġsho ok
Ġ" '
Ġsim pl
ict s
Ġsub mission
Ġthr ong
Ġmis fortune
in ople
ĠCa esar
Ġzeal ous
xx x
Ġpart ed
Ġhope less
Ġst ations
it um
Ġad ul
Ġru ined
Ġaston ished
Ġrel uct
ur us
ĠP ac
ie h
ĠA ff
Ġsh illings
ress ing
Ġprof its
Ġinv asion
Ġj un
Ġsign ifies
ĠB U
ter a
Ġpl ague
Ġadm ired
Ġse ize
ĠOffic er
Ġexcl uded
ĠOr leans
I EL
Ġfr ig
Ġoff ensive
ra ined
Ġprof itable
re c
Ġcar ries
Ġhaz ard
ĠC AT
ĠApost le
Ġz inc
Ġcar go
Ġg um
Ġunf av
Ġpl ent
IT T
Ġdisturb ance
Ġth orn
ĠBr ig
Ġatt ach
Ġopp ression
g ro
ĠDise ases
Ġsteam er
rib es
Ġh int
ĠFe llow
ĠEx hib
it as
Ġ12 1
Ġp ushed
Ġtempt ed
Ġconcern s
e ast
ĠCHUR CH
Ġ184 8
n ant
Ġ11 6
Ġsurpr ising
ĠSol omon
Ġvict ims
AN E
ĠJour n
fact ion
Ġstr ife
Ġattrib utes
ĠWith in
Ġkind red
: :
Ġf as
Ġle ar
Ġspeak er
Ġapplic ations
g ain
S c
Ġa unt
Ġlat est
Ġ13 9
en f
Ġh ou
Ġabund antly
Ġconven ience
m el
Ġp n
Ġ11 3
Ġtext ure
Ġpul mon
Ġdepos its
Ġper it
leg raph
ĠChild ren
int on
Ġte nds
Ġnob ility
be c
Ġimprison ment
Ġdi pl
ĠSax on
Ġst retched
Ġdes erted
and a
ĠEm pire
Ġembra ced
ĠCanter bury
ather ine
ĠN AT
Ġserv es
ĠIs le
Ġf ath
ĠHy d
ĠB AR
Ġd ip
ob ed
ĠVen ice
Ġaston ishment
ĠCic ero
o ft
Ġchild hood
Ġs ive
Ġre cip
im i
Ġdu ct
Ġmainten ance
Ġpe asant
Ġanalog ous
Ġprophe cy
Ġbree ze
Ġp amph
Ġtum ult
Ġstr ing
Ġo ct
r ine
Ġwand ering
Ġflo ating
x y
Ġv ices
ore t
Ġb ust
th ly
Ġ19 5
Ġcivil ization
Ġadm its
ad d
ĠRev olution
Ġs own
Ġlaug hed
] )
Ġune qual
as is
Ġhe res
Ġtw een
Ġresult ing
ove re
e er
Ġforg ot
IG N
Ġde w
Ġdet ect
Ġbenevol ence
á¾ ½
ie e
ĠHe alth
Ġan ten
ĠT ow
Ġcon vert
Ġt am
á¿ Ĩ
ĠM SS
c ra
Ġvar ies
th is
Ġdoc uments
Ġb red
Ġne ces
Ġl os
Ġnit ric
Ġc ran
Ġt et
Ġsh ades
O K
Ġprocl aim
Ġh oles
at ism
ĠSom er
Ġcirc uit
Ġne phe
ĠS ect
ĠAp oll
Ġr iding
Ġw ol
I ET
an ch
ĠS ection
Ġv ivid
Ġ1 000
i ens
UL T
Ġint ensity
pe re
ink ing
Ġinfl amed
ĠCh amber
ĠH em
Ġheart ily
ĠVien na
ber y
Ġdestru ctive
Ġsc and
ĠW E
AT ER
Ġag ony
ĠM E
Ġcan on
Ġcapt ured
Ġp omp
ĠB omb
Ġcritic ism
Ġfir ft
Ġhunt ing
g eneral
Ġlegisl ation
EN C
Ġinherit ance
ĠG ARD
ĠEx p
ĠG a
Ġlegit imate
ĠF em
ich t
Ġasce nding
ĠCl ub
Ġem otions
Ġpost erity
ĠCor por
Ġback wards
Î» Î»
Ġpictures que
ĠK en
Ġfle e
Ġillust rate
ell y
Ġswe pt
al us
h alf
Ġres ent
Ġde alt
ĠV ill
Ġbar on
um pt
Ġdisg ust
heart ed
Ġw ret
Ġr ush
ĠPortug al
ĠGreg ory
Ġprocess ion
Ġexec ute
ĠFrank lin
Ġpurs uits
g reen
Ġm ig
as er
ĠSt am
Ġconsol ation
ĠThe od
Ġwhe els
ĠS M
Ġcompre hend
ĠA P
Ġsens ibility
Ġar id
r ors
Ġval ued
ĠP resent
y ng
Ġfa it
Ġlaug hing
Ġpled ge
a ii
Ġdefic ient
Ġfast ened
ĠAb bey
ĠHot el
" ^
Ġoccur ring
Ġexh ort
Ġinn umerable
Ġsho ot
Ġfortun es
Ġend owed
Ġri pe
em per
Ġlight ning
Ġfl ows
Ġv ault
Ġen vy
Ġless ons
anc ies
ĠSc ots
olog ists
ĠR od
Ġelectric ity
Ġindic ations
ag ne
od ox
Ġwhere of
Ġen umer
Ġcont ented
f are
ĠThom pson
Ġpast or
ĠEx cell
Ġun ple
ol ation
Ġfu pp
Ġsink ing
ut ies
ĠS vo
all ing
Ġc n
a fe
Ġadj acent
Ġb ien
Ġphilosopher s
Ġhe ed
Ġpotass ium
Ġr n
Ġcandid ates
ub er
ĠAnt on
; .
cul es
Ġbeaut ifully
Ġconqu ered
Ġc erv
ĠOther s
v r
Ġdesce nding
ĠD ry
or ily
h ile
Ġfin ish
Ġsleep ing
tem py
ĠAccording ly
Ġst ances
umb ent
Ġar isen
Ġfaith fully
Ġexpress es
ĠCon c
s l
ĠEx per
M y
Ġgener ations
ĠHow ard
ĠD io
Ġsub m
Ġinf all
ore r
Ġb ars
Î ²
ĠBar b
ĠJOURN AL
ys s
RO W
Ġbene fic
ĠIm p
Ġgu ests
Ġadv ise
Ġdri ving
Ġindul gence
Ġintent ions
Ġbe am
ĠGentle men
Ġcolour ing
Ġrefer ring
Ġj ew
Ġtli is
Ġbe ef
Ġvig or
Ġy o
Ġcons iders
Ġcl am
and y
Ġod d
Ġinv ested
Ġoper a
ĠB an
Ġreb els
Ġf ect
ig nty
M i
Ġle agues
la very
ch a
6 3
Ġstr ata
g us
ĠO cc
ĠInst ead
Ġpron oun
Ġvisit ing
Ġess ence
8 9
Ġdep ression
ĠB os
Ġpoint ing
Ġsp ake
od a
ĠB ry
Ġapert ure
Ġtyran ny
Ġpet als
ĠC ould
Ġpar agraph
Ġ185 1
Ġsubstant ial
ĠA SS
Ġhypothes is
ĠSt one
Ġatt en
Ġdecl aring
Ġbe lly
ĠC ad
Ġco ck
Ġau f
Ġpossess ions
Ġfl ies
Ġeight h
ĠM O
Ġl ou
A d
Ġide al
Ġch amp
Ġinstru ct
Ġper ished
Ġse gments
Ġn igh
Ġsympt om
ĠLe eds
ĠRed eem
Ġhur ry
ch t
ĠL ind
Ġinfant ry
ĠENG LAND
Ġg y
ĠLe v
Ġcompl icated
Ġfavor able
Ġcon ference
Ġfac il
ĠI x
ĠF ive
ĠG as
Ġmor als
ĠSwed en
Ġprint ing
Ġyear ly
Ġprolong ed
op es
O r
Ġtheir s
in ine
Ġim plic
Ġser pent
Ġexp ans
Ġthy self
Ġvisit ors
ĠJ E
ĠH orn
the y
Ġse mi
Ġv acc
Ġgrie v
Ġcompet ition
Ġa j
US T
ĠN a
Ġgather ing
Ġch ast
ut s
art ar
Ġpul pit
ĠD isc
Ġlod ged
F OR
Ġs ont
Ġf illing
Ġ185 0
Ġdoc ument
ĠP ast
Ġg out
Ġxv ii
ĠL ECT
ĠO li
Ġper v
ĠCrom well
Ġman age
Ġsm iling
Ġmo ft
ĠE V
Ã ¹
ĠC are
Ġlig ament
Ġundert aken
Ġdead ly
ĠB or
Ġhospit als
ĠS IR
ĠHim self
Ġcord ial
Ġdi arr
Ġwe ighed
ip h
u en
ĠSh ort
Ġg ets
- *
az z
Ġhon oured
f le
Ġad hes
ĠSw an
Ġhom es
Ġv ague
Ġ... ....
c al
Ġ185 7
ĠPat rick
ĠCard inal
Ġha nded
Ġinj uries
Ġhast ily
ĠS urely
Ġd ence
Ġhind er
we alth
Ġprevent ing
od d
Ġtrave lled
ĠR EL
Ġreg ulated
ĠSte wart
as i
ĠA ut
." *
f el
ĠPal ace
Ġprevail ing
Ġl akes
Ġpro blem
Ġ186 3
Ġdi ver
Ġaltern ate
Ġbu ff
au c
Ġestim ation
Ġcrim son
Ġmed i
Ġlast ly
Ġdimin ution
m p
l en
Ġunqu estion
re ll
Ġp ir
iss ions
Ġint ol
U AL
Ġfo es
Ġdelic acy
Ġf li
Ġere ction
ĠMa ur
ĠT al
Ġdra ch
2 00
ant ur
Ġsuperst ition
l on
Ġl av
Ġheart y
Ġadvoc ate
Ġ11 7
Ġhere to
Ġsqu ad
Ġhard y
x es
ab out
Ġcompl iment
Ġ12 3
Ġwas hing
Ġconc ert
ĠPh ill
Ġred emption
Ġt el
te xt
hold ers
â Ĥ¬
ĠRe f
Ġyouth ful
Ġsc ru
Ġlegisl ature
A IR
Ġd ared
Ġenc amp
Ġimpl ies
Ġen er
b rown
o it
UR AL
Ġdiscover ies
ĠB uch
Ġa ra
Ġtoler ably
Ġadv ances
Ġscul pt
L ISH
R APH
Ġlabou rers
Ġadorn ed
re ct
Ġm ales
Ġdeal ing
w l
Ġfatig ue
ĠV ide
ack s
ĠR oc
Ġco ag
ĠSpe c
Ġs ang
Ġfor wards
ĠE S
RO D
ĠH alf
Ġdismiss ed
asc ular
ĠShaks peare
Ġalter ations
Ġtemp est
Ġ. '
Ġattrib ute
f ied
ĠO wen
ĠHun ter
ie m
Ġar ches
am y
Ġat que
cut ta
Ġinc red
Ġspe eches
Ġinv ented
Ġbreat he
Ġerrone ous
Ġmouth s
ĠEar th
Ġconf ounded
ĠBab ylon
aryn x
à ¤
f ather
Ġ185 8
ĠTH OM
Ġrep aired
un ken
Ġperson ally
Ġfalse hood
ĠRe y
ĠS ab
Ġind irect
Ġin cess
ĠR u
Ġc c
ĠRob inson
ĠBishop s
Ġ186 4
ĠCON S
ĠR ay
t li
Ġpublic ly
n is
Ġcircum ference
Ġclergy man
ĠConstant inople
ant es
Ġty ph
ĠTurk ish
Ġlux ury
Ġsecond ed
em a
Ġhor rible
Ġtreas ures
8 5
ĠR est
Ġc ip
Ġsp in
f u
Ġbold ly
Ġr hy
Ġk not
Ġpoet ical
Ġem inence
ĠGord on
ĠMED ICAL
Ġse pt
ĠStaff ord
ĠHigh ness
b les
Ġr ice
Ġsun shine
Ġstead ily
Ġsw im
Ġlongitud inal
i ary
Ġpen it
Ġsc re
TI AN
ĠOn ce
Ġsand y
in ian
Ġaut em
am an
ĠK n
W hen
Ġ12 6
ĠF IR
Ġdefic iency
ill er
Ġpe as
Ġpropriet ors
: âĢĶ
e ers
Ġwill ingly
ĠA th
ur ated
ĠLegisl ature
Ġ12 4
m al
Ġb om
ĠC A
Ġem p
Ġst ems
Ġcra ft
Ġex empt
Ġde af
ĠH EN
Ġsp ine
et us
Ġpull ed
Ġd us
ĠCl ark
Ġ184 0
Ġlast ed
ĠC ob
ĠL ocal
ER T
Ġdep ressed
ag ers
Ġn y
ĠP ub
Ġpre lim
re te
Ġyield ing
ĠC ivil
Ġt le
Ġlast ing
Ġgu id
Ġindif ference
Ġne e
ĠB acon
C L
Ġassist ant
Ġcle ver
ot a
Ġdisagree able
ĠFrie nds
Ġm ood
Ġabsor ption
J i
ĠG OD
A Z
Ġphenomen on
Ġbar ley
Ġt ones
Ġcens ure
Ġfra gr
Ġs her
Ġres orted
Ġm use
Ġincl udes
Ġinflu enced
Ġse nds
Ġreb u
Ġ185 4
Ġvel ocity
ke l
Ġex erted
Ġref ined
ĠTr uth
Ġprov idence
Ġpl ot
ĠE LE
ul c
Ġlo bes
ra c
our ned
Ġon t
ĠTh ames
d t
,' '
ĠFrie nd
ĠS W
Ġfib rous
ĠP all
Ġvall eys
le te
ĠServ ice
ĠS CH
Ġd un
Ġsc ro
ĠCal cutta
Ġlo ck
Ġib id
Ġtra ined
Ġpeace ful
ĠAd v
Ġmetropol is
Ġhered itary
Ġswe ar
Ġtra ffic
Ġimpro b
Ġcur ve
Ġreck on
it ations
Ġenj o
Ġinstit uted
ĠAv ith
Ġc ows
Ġoblig ations
Ġendeav ours
ĠP ly
Ġdimin ish
Ġst able
Ġcre ed
Ġd ancing
Ġafter ward
Ġal um
Ġhast ened
Ġextract s
ĠW ild
Ġch alk
Ġx ix
ogra pher
AC T
ÏĦ Î¿
y ne
ke eper
Ġs ciences
Ġra w
Ġconv ince
Ġart ists
ĠRedeem er
Ġm ast
Ġ19 9
Ġdecis ive
ĠG os
Ġpeculiar ities
ĠSac r
Ġinf ancy
Ġl osing
Ġ12 7
Ġde pl
ĠBenj amin
ĠC ut
ĠL og
Ġsepar ately
ĠJ osh
Ġ184 1
Ġsin cer
Ġmic ro
f all
Ġr ings
Ġmil itia
Ġl eng
ĠCo le
ER V
Ġch ase
no v
ĠH arr
ach d
ast ric
U t
ll en
Ġobject ed
Ġunf requ
Ġre lic
Ġ14 4
Ġbound ary
Ġcomp ounds
Ġp ant
Ġform ula
Ġb or
Ġcontin uing
ĠW r
Ġagricult ure
ab et
Ġeffic acy
Ġve ter
ĠR oll
po on
Ġbond s
Ġ13 1
ĠQuar ter
ĠPAR T
Ġf ay
co al
Ġinv itation
ues e
Ġde er
Ġanci ents
Ġdel iber
Ġsubdu ed
ent a
Ġapp lause
ĠCo oper
Ġfor bear
Ġtor ment
Ġbl ows
Ġoper ate
Ġtit les
ĠBRI TISH
Ġd rank
ER N
? '
est ial
f ly
Ġcat hedral
Ġarbit rary
ĠF el
Ġ12 2
p ence
ĠC and
Ġconstit utes
h as
j l
Ï İ
Ġaw ake
Ġinnoc ence
ar ms
are n
Ġdef orm
Ġgl im
ĠV is
ĠNever theless
Ġinv isible
Ġbenevol ent
Ġbehav iour
ĠÏĢ Ïģ
D r
ing ing
Ġincor por
ann a
i astic
Ġreck oned
ĠCor inth
Ġaccur ately
Ġland ing
ors hip
ĠBapt ist
Ġw er
Ġsymb ol
Ġreal m
ĠDav is
Ġn am
Ġdev ote
Ġplat form
ĠR EC
Ġ184 7
Ġmembran es
ĠH erm
ĠA ir
Ġr al
Ã ¬
ĠAv as
Ġceremon ies
ent er
ĠB ad
ĠAppend ix
Ġn f
ĠBet ween
Ġval ve
ĠCh apel
Ġshad ows
ĠN ight
of ed
Ġdress ing
Ġn inet
Ġdecomp osition
Ġp ile
Ġconsecr ated
Â° ,
Ġo pt
Ġun he
Ġs ions
Ġdil ated
Ġcommunic ations
Ġst ig
Ġhum ility
Ġ186 5
ĠR oy
ĠIN DE
ĠComm ander
Ġlandl ord
? âĢĿ
nd on
c ase
Ġins ign
uous ly
Ġmans ion
Ġcl ub
ĠWe lling
ec d
ĠProtest ants
Ġd irty
Ġ14 1
Ġan e
Ġgall ery
Ġvar iation
ĠTre as
k t
en ne
Ġde arest
Ġab ound
Ġ184 6
ING TON
Ġop ens
Ġmission aries
bor ne
Ġval ves
ĠRog er
Ġwicked ness
Ġre cl
ĠC ec
ĠJ ama
ĠIN F
Ġ185 5
I s
Ġmar vell
Ġelab orate
Ġstim ul
ĠP or
Ġreb el
id al
Ġtr am
ĠTh an
ST R
Ġdisappoint ment
ĠÎ »
Ġ187 0
Ġdis ad
ĠE ight
Ġper ception
ĠSwe et
Ġsen ate
ĠO B
ĠDer by
ul ch
Ġb ord
Ġro lling
U y
we re
ĠEst ab
Ġsupport ing
Ġ13 3
ĠRep resent
Ġnav igation
o or
Ġposit ively
Ġcab in
th ird
Ġm oss
ĠEx ec
Ġd ow
Ġwh ither
ĠXX V
Ġexp ose
Ġinhab ited
ĠPH IL
ĠW right
v ings
Ġcont rived
ĠT W
6 7
en z
Ġtli o
Ġth c
ĠC AP
Ġdepth s
Ġ ern
Ġ18 1
op hy
Ġag greg
Ġsc ra
Ġur ge
Ġt ers
Ġlay ers
Ġsorrow s
w hen
Ġear n
Ġhoriz on
Ġp ipes
Ġast ron
Ġunivers ity
Ġimpat ient
ĠB road
Ġent ry
r us
Ġinf ants
Ġv ide
Ġjud gments
Ġ185 9
Ġopp ressed
iss ippi
Ġeager ly
ons hire
Ġaccident al
Ġdis reg
Ġunb el
ĠLETTER S
Ġphilosoph ical
el a
Ġb ury
Ġrem onst
Ġv ile
Ġn ave
Ġ6 00
EL S
Ġâ Ĥ¬
Ġe on
Ġwhis per
Ġmanufact ures
Ġa we
Ġorgan ized
Ġdio ces
Ġl ens
ĠMill er
ĠPray er
Ġnin ety
Ġtrans actions
ĠGu ard
Ġsuff ice
ĠTr ust
Ġmart yr
ic c
Ġj i
Ġmult ip
ĠYe ar
ag en
Ġpreserv ation
Ġrock y
Ġod our
ĠEdm und
Ġeloqu ent
RE ET
Ġuniform ly
ĠIn fl
Ġattract ive
ĠStu art
Ġnav ig
Ġnit rate
Ġannex ed
Ġreg ener
Ġsw orn
Ġtor rent
w i
Ġprospect s
Ġeru ption
Ġconj unction
pl ied
he res
Ġabol ition
Ġam bit
ĠE P
Ġbe ard
Ġoppon ents
Ġp airs
Ġadmin ister
Ġd h
ii h
Ġnephe w
IGH T
ĠA men
Ġte nding
Ġcr isis
Ġpersu ade
IS M
Ġor b
Ġw c
Ġg em
Ġgu ided
Ġfract ure
5 4
Ġhung er
Ġá¼ Ķ
Ġv s
l at
Ġsho ots
Îµ á¿ĸ
Ġmon uments
Ġspr ink
ĠIs ab
C I
Ġw ander
Ġsecond ly
Ġme nd
Ġoffe nd
ĠW rit
Ġhonor able
ond s
z er
Ġwond ers
Ġcy st
ĠEd itor
Ġle nd
Ġpl ays
Ġjudic ial
c b
Ġcab inet
A E
Ġbeaut ies
Ġkingdom s
ĠB ent
Ġd ol
in ates
Ġ22 0
Ġwor m
Ġe g
ĠDe f
Ġbeg ged
Ġmur dered
Ġc ash
Ġmir acle
Ġproject ing
Ġtra ged
Ġt ang
Ġin it
Îµ Ïģ
Ġsec uring
Ġmaid en
Ġ21 0
Ġd ates
ĠBern ard
ck ets
ĠBed ford
ĠChe l
Ġcivil ized
Ġconf ine
ĠPal mer
ĠMag azine
ship s
Ġac ce
Ġflu ids
Ġele ph
ell e
Ġing red
Ġorigin ated
im er
Ġl ays
unci ation
Ġty p
U TION
Ġadm on
Ġad herent
Ġill eg
if orn
Ġshall ow
ĠHor ace
ON E
Ġhel pless
Ġ19 8
Ġ186 6
Ġpreval ent
Ġp ac
Ġnegro es
Ġli ken
ag g
Ġdu ced
Ġded icated
Ġb und
he aded
op ol
Ġc ed
Ġhes itation
ĠR OB
f d
Ġappre hend
ĠSup reme
Ġenact ed
Ġdefin ition
ass ed
r j
ĠBomb ay
Ġbe ams
ĠTur ks
Ġl ii
Â° .
Ġepid emic
Ġdefect s
ĠE g
Ġ24 0
Ġs ow
ĠWe b
Ġawak ened
Ġtre ad
ĠF ro
Ġ186 0
ĠCount ry
Ġun av
Ġm n
nd ered
Ġapp lies
Ġoff spring
Ġman ly
Ġl is
\ \
Ġrespect ed
IN S
ĠSo ld
ĠSar ah
Ġ- ^
Ġri p
Ġw y
Ġintest ines
m ont
Ġdepart ments
Ġpred omin
ĠN ame
ĠEd wards
Ġtranqu ill
Ġfier y
ĠJ en
Ġdisc rim
Ġ13 2
Ġdestro ying
Ġwe e
y a
o j
Ġbelie ves
ĠInt o
ĠH ouses
w he
Ġm ars
Ġ183 0
Ġjust ification
Ġin ve
ony m
ĠTurn er
Ġl il
r il
ip ot
Ġ185 3
ĠSy stem
c ence
Ġconject ure
Ġenfor ce
ann ah
Ġcollect ions
ĠN OR
U i
ĠD et
Ġres igned
Ġde pended
Ġqu ote
ĠMess iah
t ar
IET Y
Ġsincer ity
Ġc m
Ġvac ant
W ill
Ġfoot st
P L
l ings
Ġv ie
ĠC ran
Ġra p
Ġheight s
ĠT ab
h ad
Ġattend ants
Ġst ol
ĠAber de
Ġ184 4
Ġun im
ĠSur rey
Ġus age
ĠAssist ant
un ion
Ġtrans gress
Ġ13 4
ĠEdu cation
r iment
Ġasce nded
IC K
ri ans
Ġatt raction
Ġappre hended
Ġass umes
ĠD ire
Ġbatter y
Ġant agon
Ġpret ence
ili ary
Ġang uish
Ġconcent rated
a ze
ĠGARD EN
ĠMem bers
Ġdescrib ing
ĠFed eral
Ġrese arch
Ġinte g
Ġinev itable
ĠCom mer
Ġlim estone
Ġfl es
er als
ĠA LL
ĠL or
Ġread iness
Ġappro ve
ok es
r l
AT ED
Ġd ost
ID E
Ġsup ra
Ġexcl aim
Ġweap ons
ĠL an
ĠP RI
Ġvig il
ĠPl ato
ar ious
Ġlust re
Ġhereto fore
ĠArist ot
U l
ud al
co ver
Ġbarbar ous
Ġapart ments
ĠN ative
ĠCh urches
Ġobst inate
ĠInst itute
Ġillust rations
Ġlibert ies
ĠW ind
arch y
Ġext racted
Ġ186 7
Ġwealth y
Ġa ided
ĠAdd ress
Ġg host
Ġwish ing
Ġdis l
Ġlie utenant
Ġmess enger
i ag
Ġhand le
Ġted ious
U n
ple te
ĠThom son
0 8
ĠT li
5 1
Ġbot an
Ġpulmon ary
Ġtest imon
Ġfare well
5 3
Ġsin ful
Ġforbid den
ĠBe au
Ġf itting
Ġextens ively
Ġbelie vers
Ġxv iii
ĠJ up
Ġ14 3
Ġ184 5
Ġ13 7
ĠJama ica
Ġlight ly
Ġmir ac
ath y
Ġthe ology
M E
Ġ184 2
Ġdispos al
Ġmurm ur
Ġfirm ness
Ġcir cles
Ġl ap
Ġco vers
Ġdig estion
Ġpot atoes
Ġcertific ate
d n
Ġbl ast
Ġprosec ution
Ġdeep est
Ġli ked
ĠBut ler
Ġtong ues
Ġincons istent
Ġfront ier
ĠL t
Ġf us
Ġbox es
Ġrad ical
is ition
Ġan ecd
Ġ185 2
st ances
Ġatt itude
ĠDiv ision
ĠPortug uese
Ġrepet ition
Ġcomm encing
B UR
ĠP enn
Ġco ats
ĠC av
AN TS
Ġqu el
Ġf ishes
al and
Ġfort ress
p ast
Ġco ok
Ġl aughter
Ġv ascular
Ġ13 6
Ġunanim ously
Ġsho es
ĠRelig ion
ĠJer sey
Ġr ites
Ã© t
Ġaccept able
Ġamount s
Ġespe cial
S ir
OS E
Ġguard ed
ĠPers ia
Ġg an
IS C
ĠAng lo
Ġfa ils
ic at
B B
io v
Ġcons ented
Ġsc ore
Ġ14 7
Ġassoci ations
Ġwar n
Ġpl under
Ġj am
Ġpar alysis
Ġb ail
Ġlone ly
Ġreg iments
Ġoffe nded
ĠBook s
Ġass ass
st ers
Ġdiagn osis
oth y
us hes
Ġshr ub
TI S
Ġpray ing
Ġsens ations
ĠC her
Ġther m
ĠM ans
Ġconf id
A v
Ġem inently
Ġsc hem
Ġsevent een
Ġsw ay
Ġof l
Ġa in
1 00
Ġc ette
Ġc ave
Ġlaw yer
Ġobser ver
Ġs ne
R A
ur i
o fe
Ġadj ust
ĠC hes
Ġ184 9
Ġha em
ĠCal vin
ĠL it
reg n
ĠWelling ton
Ġj unction
ĠBran ch
u um
ĠO il
ath am
Ġpol ished
ĠM ade
Ġtr im
Ġinform s
Ġri ot
ĠGent iles
Ġf pe
OP E
im ore
Ġ- --
Ġ14 6
Ġol ive
ĠAll en
5 2
ĠAugust us
F rom
ĠB t
ĠJ AMES
Ġweek ly
Ġdev out
Ġse aled
Ġpro l
Ġacc idents
O X
for ce
OG RAPH
ĠL XX
ret t
Ġpret ensions
ap arte
ĠN ott
ĠPar ish
ĠB eth
quar ters
ĠCh ris
Ġto wers
Ġf ain
ĠMiss issippi
Ġencoun ter
Ġsplend our
Ġexp ort
ĠAnn ual
Ġexpl os
Ġ186 8
Ġfu el
Ġspeed y
ĠG U
Î¼ Î±
Ġprocl amation
sc op
itz er
ĠE y
Ġg h
ĠA ud
Ġwhit ish
ĠLeices ter
Ġgl ow
Ġbas in
c or
Ġdescend ants
Ġc unning
Ġor ator
Ġdisad vant
ĠCHR IS
Ġtre m
Ġmel ted
se ven
Ġens ued
l h
Ġrul ers
, ]
Ġterm inate
Ġsc anty
Ġadmir ably
Ġstrengthen ed
Ġtr um
ĠC art
Ġauthor ized
Ġridic ulous
Ġ15 1
ic is
Ġglad ly
ĠB ir
Ġpres by
Ġpract icable
Ġmagn et
ĠD isp
Ġel apsed
ĠP S
Ġcust ody
ĠH od
Ġpart ing
ION S
ĠBless ed
Ġaccompany ing
ĠWel sh
Ġtub erc
Ġcylind er
Ġag itated
Ġcharacter istics
Ġmal ice
Ġn un
Ġoccup ies
Ġ185 6
in ical
Ġal oud
OU TH
ren cy
ĠE ph
Ġ( ^
ĠM Y
Ġlandsc ape
Ġres ide
Ġpro ving
Ġfl as
Ġpron ounce
: .
Ġcomm ences
ĠS ons
Ġtract s
Ġexc av
Ġimpl ied
ĠFIR ST
e h
Ġlocal ities
en ch
Ġknight s
Ġpreserv ing
Ġb il
Ġins anity
Ġp ont
Ġn as
Ġthem e
5 7
Ġt v
ĠPr im
ĠCount ess
ac re
Ġskil ful
Ġveget ation
Ġmaint aining
ĠCo ok
Ġmur de
ĠWh ilst
j n
Ġab hor
Ġdest iny
Ġstart ing
Ġprocl aimed
b h
ĠPro b
ĠPri est
ĠMo or
Ġspr ung
ĠI le
ĠWar wick
Ġsh ares
ĠAlexand ria
Ġcr ust
Ġdel ir
Ġintest ine
Ġcar riages
ĠMin isters
Ġdilig ence
a um
ar on
ĠW inds
Ġres iding
Ġdefect ive
Ġsu ck
Ġit h
Ġobey ed
Ġhes itate
ps hire
ĠO pp
ĠE ld
Ġen erg
ou ri
overe ign
ĠInde pend
Ġprov iding
Ġbron ch
Ġj ump
ĠCal iforn
Ġ14 2
Ġf ishing
ĠR EM
Ġdiv inity
Ġspect acle
Ġqu itted
ĠE ver
ĠNot withstanding
in f
Ġborrow ed
Ġre aches
m at
Ġwe eping
ĠC atherine
Ġt ents
Ġpilgr im
r ils
Ġconf inement
Ġpel vis
Ġab ilities
Ġg ale
vel ope
Ġhorn s
Ġ15 3
Ġpet ty
ĠAr g
Ġrich ly
ru ct
Ġce ived
Ġinc ision
Ġdisp ersed
H AM
F IC
Ġn r
hth alm
Ġfew er
Ġe ft
Ġb ile
Ġo a
ĠP rest
ĠB ac
is ement
Ġdirect ors
âĢĶ âĢĶ
Ã ¡
ind er
ĠOffic ers
Ġdep ra
Ġcre am
all e
ĠPl at
Ġprom oted
ĠEx eter
Ġener get
Ġte chn
ĠLanc aster
our ing
Ġprev ails
Ġas pir
Ġpropos itions
Ġserm ons
Ġconfirm ation
ĠHud son
b led
Ġun fit
j f
Ġtuber cul
Ġlabour ing
Ġch in
ĠA z
Ġindul ge
Ġcomfort s
Ġ16 1
ĠF ire
Ġconf used
p ie
ĠPark er
ig an
Ġne c
Ġinter ven
Y es
Ġaffl iction
l am
ĠWin ter
Ġunple asant
Ġsal ary
Ġaw ait
ĠSuff olk
Ġpeculiar ity
Ġpres umed
ĠD ES
Ġre ly
Ġgu est
ĠGra ham
ĠFam ily
Ġ' .
Ġin ference
Ġequ ality
Ġre cess
Ġshe wn
Ġf its
ci ed
ud ence
Ġdraw s
Ġsince rely
Ġdemonst ration
ens er
Ġgu ards
o ise
ĠNe ar
ic ations
ĠGil bert
Ġexhib iting
ĠHel en
Ġ17 1
ĠMed iter
Ġin m
in als
j s
Ġder iv
Ġst ool
Ġcl ock
ĠLib rary
os i
Ġexc urs
Ġw ider
oy d
T r
ĠB ul
Ġt ars
The y
ĠRet urn
Ġn il
Ġl ighter
ĠBl ood
Ġmyster ies
Ġhero ic
OY AL
Ġobv iously
Ġdr unken
u ld
Ġsovere ignty
le e
ĠSt ation
i L
Ġpatter n
Ġaw a
og ues
Ġl ink
ĠCHR IST
Ġref res
ĠE e
Ġ... ..
Ġnewsp apers
Ġindic ation
ĠA e
Ġwe l
Ġglab rous
Ġ184 3
ot us
Ġdeb ility
Ġsens itive
Ġhom age
Ġindef inite
Ġref resh
Ġmalign ant
Ġforward ed
Ġd red
Ġcon tended
ĠB aker
ĠHor se
ĠK t
f h
ash ire
ĠA qu
Ġcons ul
ou ve
Ġsh one
Ġaccept ance
Ġat ro
Ġrepl aced
Ġcontempl ation
ĠO T
ĠSOC IETY
is er
Ġsc ope
ĠStock ton
ĠB us
Ġsl aughter
ĠFur ther
Ġex pe
Ġnit rogen
olog ist
Ġfle w
Ġsubstit uted
Ġthere to
r usted
ci o
Ġcomp ensation
Ġsol itude
Ġgl it
ĠT ex
ĠM ach
ĠH ipp
at u
Ġprof essor
ye ar
Ġt ern
y ers
Ġhot el
ĠE L
Ġup ward
Ġqu est
es ter
ind e
m l
Ġmo ves
om ination
Ġc alf
Ġnot ices
ĠW AL
Ġ183 7
ÎŃ Î½
Ġed ifice
0 9
ĠO range
ros cope
ĠM ust
Ġsubord inate
ĠJup iter
ro oms
Ġfl ocks
Ġcow ard
Ġsuccess ors
Ġap ud
Ġle ase
Ġliken ess
ĠV inc
Ġob f
t u
ĠE AR
Ġha w
Ġdial ect
Ġd yn
ĠE th
Ġha ught
Ġins ist
Ġ15 4
ĠGE OR
Ġv ale
ĠTreat ment
Ġeff usion
Ġfound er
Ġbur d
Ġr ural
ĠDe ity
Ġelong ated
Ġfound ations
cher s
Ġterrit ories
Ġte aches
Ġt ory
ĠP ad
ĠEv ans
ĠHarr is
ĠSh akes
ĠD um
Î ¶
Ġintr ig
Ġbreak s
Ġcard inal
n ine
ĠOli ver
Ġe poch
Ġcon ced
Ġbo ards
Ġcorrect ly
ĠA li
er d
oy ed
e at
Ġdet er
Ġamount ing
! '
Ġrect um
Ġcount ed
ĠM es
Ġsm iled
atic ally
Ġgra ces
vere nd
Ġfl or
ien ces
Ġpreacher s
Ġsub j
Ġex pended
ĠM ason
Ġvar iable
Ġun g
Ġe cc
Ġt c
ih i
ĠC ly
Ġg ut
d ess
Ġcontempl ated
sm ith
Ġhabit ual
Ġ187 1
kins on
ĠINT ROD
Ġpen ny
Ġty rant
ĠR ES
ĠT IM
ĠL L
Ġold est
ĠF il
Ġg ilt
ĠX III
Ġwithdra wn
Ġcon verse
Ġ16 4
ĠW is
Ġw an
Ġpri zes
Ġtrans action
Ġendeavour ing
Ġha be
ĠT enn
Ġperform ing
it ie
Ġhere by
he y
Ġcry ing
Ġnewsp aper
ĠLu cy
Ġ183 1
ere rs
d ers
ĠB ody
ĠMor gan
Ġ" ^
ĠPl ut
p in
Ġv n
Ġcomp rom
ĠIm pro
Ġiniqu ity
Ġcand le
ar ius
Ġdist ances
Ġpar ox
Ġappro aches
elf th
Ġgovern ments
Ġtroubles ome
ac ies
ĠPly mouth
ĠL AW
Ġav owed
ad ers
Ġped un
il us
Ġl ame
Ġwor ms
Ġaff ording
Ġpill ars
ic ard
Ġfurn ace
Ġevent ually
Ġfor ci
Ġf en
ĠC lement
TER S
Ġclass ical
ĠPR ES
ĠJ am
ĠS et
Ġj j
Ġimpart ial
ĠExhib ition
f if
Ġcav ities
HE N
ĠGoth ic
Ġresult ed
Ġadj ourned
ĠC od
C on
ic ut
Ġ15 2
Ã¨ re
t le
Ġambit ious
Ġm os
Ġg er
Ġlear nt
Ġhe aling
Ġbad ly
ĠÏĦ á½¸
ar o
Ġdeserv ing
Ġj us
Ġdiss ip
ĠMark et
Ġrem ind
Ġc ement
ure r
ust ic
Ġspr ang
p ay
Ġ17 4
Ġconform ity
Ġs q
Ġ15 7
ĠC yr
ll um
Ġhe ap
em en
ik es
Ġconstitu ents
ĠAb b
Ġadd itions
ĠDISEAS ES
ĠÏĦ Î¿
y ch
Ġvar iations
ĠM orn
! ,
Ġcontrad ict
c en
ĠPrin cip
is a
ĠV iew
Ġvol can
Ġ; '
ĠTreas ury
Ġrecogn ition
ĠINDE X
o ii
Ġwe pt
x i
ĠXV I
Ġunf old
Ġgre et
ĠGr iff
Ġto ps
Ġdraw ings
Ġra g
uss ion
Ġrede em
ĠI j
Ġcel estial
Ġty pes
ough s
Ġim me
aid h
G R
Ġsm iles
Ġmar ine
Ġpyr am
ĠB ou
Ġl ur
Ġaward ed
Ġs ider
ĠK ING
Ġp icked
Ġd ont
Ġab ide
Ġcere bral
ĠL ud
Ġh ood
Ġ... ...
Ġat on
U s
TI ES
ĠU se
Ġb j
Ġgran ite
ĠVen et
ars on
Ġfig ured
ian o
Ġma is
Ġa is
Ġ16 7
b n
Ġspec ulation
Ġb ounded
ĠGl ad
Ġsh ops
Ġ21 2
ĠBl ue
Ġchair man
Ġ23 0
ĠL ay
ĠWor cester
ĠBr id
h il
ĠG i
Ġp ension
Ġpract ices
ĠW AS
ĠIM P
Ġdece ive
Ġfh ould
om el
Ġ183 6
Ġhum bly
Ġmeet s
the re
Ġwe aring
Ġhum ili
Ġg ird
Ġsim ult
o il
ĠProv in
ĠVen us
Ġvir gin
Ġdepend ence
Ġbetray ed
Ġcondemn ation
Ġdiv iding
iqu es
g ard
Ġstruct ures
ĠA bs
Ġindic ates
ĠSil ver
Ġst air
Ġsol utions
umb ling
Ġhero es
ĠCan ad
Ġt act
Ġb ade
ours es
Ġmal ady
Ġdesp atch
ĠP ent
ĠS alt
ĠStan ley
Ġrom antic
Ġfor b
Ġdeliver ance
- |
k n
Ġ183 9
te l
ĠGlou cester
Â ©
ĠDuc hess
Ġ' "
Ġb owed
Ġpost s
Ġrec all
Ġno v
ĠV ers
Ġre a
C HES
Ġter ra
Ġmagn es
AD E
ĠObserv ations
â Ħ¢
ar io
Ġth ie
Ġam using
ten ed
Ġhe al
p oint
Ġforeign ers
ĠSus sex
Ġplant ing
Ġgu ineas
Ġo on
Ġmarvell ous
ĠSchool s
ff e
ĠG ren
Ġenlarge ment
Ġpart e
Ġestablish ing
ater al
ig ible
O V
Ġpractition er
Ġch ambers
ir ms
Ġy oke
IN D
ĠMons ieur
ĠF ruit
Ġsent ences
Ġl en
Ġmon k
Ġsurr ound
ĠCar th
c at
Ġoff ences
ĠC AN
Ġirres ist
Ġheav ily
AM IL
Ġachie ve
Ġpre l
Ġr oused
Ġ20 1
Ġcl asp
Ġeas ier
ĠLanc ashire
Ġperiod ical
ĠBraz il
Ġpra ises
Ġhydro chlor
Ġincur red
Ġingen uity
Ġguid ance
ĠWat son
ĠP ick
Ġ16 3
ĠK enn
Ġexp ired
ge ant
Ġp neum
Ġass uming
Ġenerg ies
um ps
ĠH AR
Ġengra ved
u per
ucc ess
Ġsol icit
Ġgar ments
Ġp ink
ĠB od
ĠJ os
ĠSt ar
ĠH OUSE
le aved
Ġpath s
c ot
Ġure thra
ĠPs al
Ġmad ness
Ġfles hy
ĠM ake
Ġmother s
Ġseem ing
Ġqu es
ĠAberde en
Ġpur se
Ġfavor ite
Ġrem inded
ĠF ern
Ġy n
Ġo at
ĠV isc
Ġlo vers
of orm
ĠM alt
Ġor ifice
Ġbrand y
ium s
g re
ĠC ou
TI T
Ġcor olla
Ġfashion able
ĠBe aut
Ġdis orders
Ġarri ving
ĠDev on
Ġ183 8
x ter
ĠJe an
Ġwas ted
Ġschem es
Ġp ater
ĠC AL
Ġ17 3
Ġsho oting
Ġexceed ed
ne ath
e or
ĠTHOM AS
ĠInt rodu
ĠLar ge
. \
Ġpen cil
i id
Ġlist ening
est ine
al ph
Ġw ake
ĠS UB
Ġace t
IL D
Ġro ses
u j
y t
Ġprin cess
; '
r v
ÏĦ Î¹
á¾ ¿
Ġche cked
Ġstorm s
ĠDe ut
Ġrecommend ation
ĠCar l
ĠL A
Ġsp as
Ġper ceptible
Ġ( '
Ġforci bly
Ġis olated
Ġ: -
vo id
e ft
Ġ17 2
oura bly
Ġjour n
Ġpropriet or
Ġle ur
pl us
Ġdil at
Ġex pelled
ig g
ĠFore st
ĠCo vent
Ġsex es
Ġprelim inary
ab l
0 1
Ġess ay
or is
Ġgrat ification
ĠReform ation
ĠG lo
Ġor bit
Ġro ar
ĠENG LISH
Ġb inding
Ġco ins
Ġgl oss
ĠGu y
id ious
po le
Ġcalam ity
Ġwa ist
Ġins in
e le
ĠPac ific
Ġab ly
Ġdif t
Ġeng ines
Ġsa ge
ĠN it
Ġbl est
Ġm ont
ĠSal is
p iece
ĠP ress
ĠSy d
ug h
ĠA ge
Ġentertain ment
ĠH arrison
ai y
ĠF arm
ab ilities
Ġemb ry
Ġref lections
f en
ĠT erm
Ġun in
ĠAr ts
ĠAN N
Ġball s
U G
Ġexpect ations
Ġse gment
k o
Ġinto x
Ġcomb ine
ĠAust rian
Ġlab oured
Ġind ig
B Y
ĠC i
Ġans w
O h
M ER
I UM
ĠP ho
Ġ183 2
b one
Ġhyp oc
ĠST R
Ġp ark
Ġá¼Ĳ ÏĢ
Ġattent ive
Ġhe arers
om ic
itt y
Ġsail ors
Ġc rest
Ġobst ruction
ĠE qu
Ġev angel
Ġj ur
Ġl ined
Ġt amen
Ġto es
Ġs its
Ġsp orts
ĠD ow
f ed
ĠNav y
Ġprecept s
Ġimp ly
ag u
Ġw reat
Ġt m
Ġas ks
Ġthreat ening
Ġadvis able
Ġdiss olution
Ġresist ed
Ġm ature
Ġlab orious
Ġwholes ome
g iving
Ġenfor ced
Ġ19 1
uni ary
ĠC um
s ome
Ġcub ic
Ġtim id
Ġsumm ons
Ġsuccess ively
Ġtre mend
Ġcor ro
Ġn g
Ġmis er
ĠMediter ranean
Ġbe ach
o in
Ġcour ses
id ian
Ġver o
Ġsur geons
ĠSh aw
ĠMor ris
Ġreg istered
ĠLaw s
Ġn im
.' *
Ġper n
ĠM aid
ĠC er
Ġf rown
ĠCot ton
ĠAl ice
Ġxx ii
ze k
ĠSur vey
il ated
Ġbur ial
Ġlegisl ative
i op
Ġmeant ime
Ġfe vers
Ġch allen
Ġens uing
ĠTre asure
Ġappropri ated
Ġinsens ible
Ġten ants
Ġepit he
Ġfil aments
Ġchar coal
ĠPers ons
AN K
Ġwise ly
Ġbe lls
Ġd art
Ġdesp ised
Ġdo om
Ġthe ories
Ġpass ive
Ġbe ating
Y N
Ġdark er
Ġresol ve
ic ide
Ġcomb ust
ĠHast ings
Ġhast y
Ġextern ally
Ġinc idents
Ġc od
ĠFle et
Ġsign ify
Ġb ol
ii ig
ĠAnd erson
Ġins ufficient
Ġviol ation
Ġp ad
ĠH av
Ġac adem
ĠCor respond
Ġcons cient
G o
Ġf ined
ĠColl ection
Ġve h
ĠMon te
Ġparox ys
Ġam p
ĠAnt iqu
ĠW ords
F ORD
Ġw omb
ĠTur key
ĠEnglish man
Ġyoung est
br id
ĠSw itzer
ig uous
Ġsolemn ly
im en
Ġbes ee
Ġcomplex ion
Ġse mb
ĠL ess
ren n
Ġoccup ying
Ġj n
E ng
Ġsc al
Ġmem orable
Ġneed ful
Ġrev ived
Ġsuper fl
Ġsangu ine
ĠPl ants
d rew
Ġ20 8
Ġfe es
ific es
om as
un n
Ġident ity
ĠSC OT
an ed
ĠC arn
ĠSp en
ro v
ĠCour ts
ĠCh al
Ġfra gment
e o
ĠS overeign
Ġdemonst rated
Ġneg lig
ĠL ion
Ġinf erred
re ng
Ġregret ted
Ġend ured
gra ve
Ġf ence
ĠFo ot
Ġcont riv
Ġbatt les
. |
Ġst alk
ĠMan ufact
Ġadm itting
Ġ183 5
og en
Ġaddress es
Ġo mit
Ġanat omy
Ġv il
os us
Ġprof use
Ġ. ,
Ġsacr ament
Ġarm our
IS E
ort a
ia ce
Ġ20 5
Ġbl unt
F ig
ĠC ases
Ġaff irmed
nt e
ĠP A
Ġexec utive
Ġled ge
Ġpl a
Ġthere on
bo at
Ġun natural
it ative
ph or
Ġviol ently
ĠWinds or
ace a
ĠAc id
ur ities
ĠT T
ott ing
Ġtid ings
ll es
d al
Ġ16 2
Ġb ub
Ġwh icli
Ġaggra v
Ġhair y
ĠRE G
Ġadvantage ous
Ġcorre cted
ess ed
Ġto ken
RE E
Ġdiss ent
ĠEss ay
Ġan i
ins ula
ĠN el
Ġa que
M t
am med
Ġpe op
be ing
Ġmour ning
u et
ĠW ool
Ġsus ceptible
gl ass
Ġgra v
Ġr r
s is
Ġj ar
Ġdrown ed
Ġex ult
ĠSy ria
U P
Ġestablish ments
i S
Ġcoast s
ĠB enn
ĠP orts
al ion
Ġvic ar
ĠB ened
ĠCHRIS TIAN
Ġresign ation
Ġjud ging
it ical
Ġflower ing
Ġ18 15
Ġall ude
form ation
ĠEx che
int ment
ĠFour th
ĠR OYAL
Ġresid ue
Ġcat alogue
ci us
Ġunc on
ĠGard ens
ĠE ly
ĠAnth ony
it io
ĠF und
Ġqu ently
ĠCaliforn ia
u ence
Ġne ce
Ġ18 20
at ile
ĠD und
Ġflav our
Ġcons erv
Ġ18 00
M e
Ġsugg estions
OS P
iction ary
ĠC el
Ġim itate
ĠO cean
Ġrele ase
ett le
Ġwar fare
Ġ186 9
Ġover fl
Ġrespect fully
ĠGRE AT
et ime
ĠDen mark
Ġtranquill ity
v ens
ic ial
Ġornament al
Ġto ss
Ġevery body
Ġemb od
Ġprom ising
d ays
ĠAb ove
Ġlabou rer
ĠArch itect
Ġcon gen
ĠGre cian
Ġsacrific ed
Ġed itions
u ations
Ġapp rent
ĠDE ATH
Ġw d
Ġex ile
ĠK al
ĠCertain ly
ĠÎ± á½Ĳ
Ġcontempor ary
Ġdoct ors
Ġha ue
Ġcar b
Ġfact ion
Ġpractition ers
Ġintrodu cing
Ġfr amed
Ġpot ent
Ġend ow
ĠN os
ale nd
Ġref usal
Ġsh aken
ĠCo x
Ġimp ed
f ull
itte es
op her
Ġl ute
ht his
Ġbl asp
Ġambassad or
Ġ. -
er it
Ġulcer ation
m id
ĠF all
ĠC ork
ĠJosh ua
Ġfest ival
Ġpurs uing
Ġleng then
Ġpersever ance
Ġp oult
h ol
Ġp on
ĠPro per
Ġ20 9
Ġin a
OP H
Ġspec ified
Ġin k
Ġsee ks
ĠMad ras
Ġmu ft
Ġcontrib utions
Ġeman cip
ĠV oy
Ġfan cied
Ġce pt
Ġjo ining
ile y
Ġrel inqu
ĠN umber
Ġgra vel
Ġguard ian
Ġ18 14
0 2
ĠAdmiral ty
ĠHEN RY
ĠP UB
Ġwind ing
Ġaddress ing
Ġl ud
Ġdis inte
Ġcom pel
anc hed
." âĢĶ
w rit
Ġdid n
ĠPers on
Ġportra its
Ġ22 5
gr am
Ġstri kes
er on
Ġliber ality
Ġune qu
Ġstret ch
Ġden ote
Ġhe ating
ĠA i
pent er
! âĢĿ
h m
b al
Ġpol ite
Ġornament ed
S p
ĠM s
Ġlance olate
ĠPom pe
ĠCh ic
Ġpre rog
ĠF ol
Ġoverlo oked
Ġf im
ĠK er
com ing
IN T
Ġass umption
ann els
Ġar row
ut us
Ġcol onel
Ġl uc
ĠS ie
Ġvis ions
Ġc ation
lc ers
Ġappreci ate
Ġreg ulate
ar ine
ĠSomer set
Ġshr ubs
Ġmarg ins
Ġhem isp
Ġworld s
per m
ro f
Ġn inth
ĠR am
u an
ĠS UR
Ġdisp ose
Ġ19 2
Ġuseful ness
Ġpast ure
ĠAr nold
Ġmod ifications
Ġpec uniary
ATI VE
ĠTer rit
Ġcost ly
Ġse amen
Ġreign s
ste in
Ġbott les
Ġind ol
Ġj ug
Ġurg ent
Ġcomple tion
ĠH ob
Ġno is
Ġout rage
Ġphot ograph
Ġla x
Ġdece it
Ġalkal ine
Ġben ch
Ġaltern ately
Ġd ata
Ġf iss
Ġ187 2
Ġ Ïĩ
Ġtreas ury
Ġdeterm ining
ĠR a
Ġcalcul ation
ant ee
: ,
ĠGEOR GE
E d
Ġdev ised
Ġmerc iful
ĠIt em
Ġprev ents
ĠS ud
Ġlod ging
ĠP AT
Ġthe ological
Ġtriang ular
Ġmoder ately
Ġtr ick
Ġp ave
Ġinv ite
Ġconvuls ions
ĠS oph
m r
Ġman or
Ġswe ep
Ġr it
ĠBalt imore
Ġl amb
Ġback ward
Ġstol en
Ġgrat ified
Ġimp ost
Ġbetw ixt
Ġpat ches
ĠD ion
Ġg orge
ĠCon ference
ir ation
Ġexcl ude
Ġbank rupt
ĠÎ´ á½²
Ġrepresent ations
ĠL on
* -
W ell
Ġpatri arch
f al
Ġce ases
Ġp ump
ĠWe lls
Ġ183 4
Ġpar ishes
Ġsec ular
ĠI LL
Ġm arsh
ĠHon or
Ġxx i
Ġsupp ressed
Ġsli p
c um
h air
ann y
Ġnob lest
ci i
Ġbr ut
ĠU nt
Ġmulti plied
Ġc ents
Ġreform ation
Ġv v
Ġm irth
Ġpl ural
Ġ19 3
Ġcons umm
Ġprofess ors
ĠCar bon
ĠP em
Ġit y
ĠC ry
Ġher s
ĠW a
Ġune as
ast es
Ġunder took
ĠSan ct
af ed
Ġsod ium
wh ite
Ġref using
Ġl uck
Ġh ire
ĠL oud
ĠT am
Ġwith drew
bre ak
Ġsm art
Ġan aly
Ġle ague
Ġdistinct ions
Ġ18 12
Ġadvoc ates
ch in
est ab
Ġgl owing
Ġcylind rical
Ġrestra int
Ġpro verb
Ġspo il
Ġcom r
oub t
Ġhelp ed
ri pp
ar ium
ĠR aj
Ġmod ification
0 3
ĠPl in
Ġimprob able
Ġunre ason
g ings
p ower
Ġimpro ving
Ġvag ina
Ñ Ģ
Ġcan cer
Ġca vern
Ġcustom ary
UL AR
Ġmax imum
ne ver
N ESS
ĠC umberland
OR E
w orks
Ġha p
Ġrestra in
Ġalb umen
Ġspe ar
Ġdisp ens
ann ed
Ġho ok
Ġl oses
Ġext inct
Ġdet ained
cc a
Ġimp et
Ġmanufact ured
ĠK o
n us
Ġeleg ance
ON IC
Ġcr ushed
Ġc ad
f in
Ġf n
Ġorth odox
Ġlo b
Ġadvance ment
ĠG aul
Ġn an
Ġimmort ality
ĠD ru
Ġtremend ous
and um
Ġ21 5
Ġenumer ated
b all
ĠS ult
Ġexpans ion
Ġcol ored
Ġlod ge
Ġnovel ty
Ġpu zz
Ġfir ing
Ġengine er
Ġm t
if olia
Ġlux ur
P S
ĠPat ent
Ġsupp lic
Ġthe at
Ġpar as
ĠDe cl
Ġfig s
Ġun ac
Ġthrow s
Ġ ÏĨ
Ġme a
ĠMean while
Ġr Ã©
Ġt ic
Ġprecipit ated
par able
Ġcar n
Ġdef iance
Ġsur mount
Ġchim ney
m inded
ĠExche quer
Ġalarm ing
ĠH os
anc he
it ably
Ġfe ather
e ar
Ġstate ly
Ġunfrequ ently
Ġstation ed
Ġt ile
v re
Ġdiff used
Ġdiarr hoea
Ġd ice
ĠW i
ond e
ĠJ ord
Ġst ance
Ġpamph let
p ost
Ġ20 4
Ġse lling
Ġforth with
ĠC up
Ġapp le
Ġsubt le
Ġpe pper
Ġlege nd
Ġep istle
ĠRe ad
ĠPol ice
D on
Ġprom oting
ĠCons ider
I OUS
ĠC ree
ĠCat hedral
Ġan il
Ġtop ics
Ġ20 3
or o
an an
Ġdis d
Ġexp ensive
Ġidolat ry
Ġconc ave
Ġso ap
Ġ21 8
ran ces
ĠNew s
Ġmag ic
Ġwhis pered
Ġá¼ ¡
Ġqu ibus
ĠSe ven
ĠP ath
res cent
Ġsle e
Ġp aste
Ġstat utes
Ġgr ants
iment ary
Ġdesp atched
Ġster ling
Ġfold s
ĠLa ure
ut i
Ġo ar
bour ne
Ġ20 7
Ġ19 4
a ution
Ġ183 3
Ġt ap
Ġi ad
ĠSEC OND
ĠT un
Ġsupp oses
ĠB anks
Ġcle ans
Ġindul ged
rib ers
g am
Ġth u
Ġap ology
Ġse q
ĠPro ceed
ĠLod ge
S C
ĠZe aland
Ġcrown s
Ġcapt ive
Ġconv icted
Ġhost ility
c id
Ġd ia
ĠSwitzer land
Ġund e
Î¿ Î¼
h ave
Ġansw ering
W ARD
Ġcon ical
Ġke eper
Ġcop ied
unt ur
icip al
Ġs ans
ĠN urs
Ġ182 5
ĠI v
ĠSp art
Ġcaps ule
Ġhe ars
Ġdes olate
um inous
Ġuncertain ty
Ġenerget ic
Ġcoun cils
Ġshe pherd
Ġinj ure
Ġm atur
Ġ- |
ĠN ile
ĠShe ll
ĠExcell ency
Ġp ays
ĠDo ct
Ġu g
Ġas ylum
Ġref lex
ĠConn ect
Ġa ro
Ġunder gone
velop ed
Ġgig antic
Ġvio let
ĠReg ent
c ur
g le
Ġdisc ord
ĠAC C
Ġnum er
Ġdesp ise
p ine
Ġ ich
Ġcrystall ine
Ġ á¾¿
S o
Ġrail road
Ġfin an
Ġcher ished
Ġwarri ors
Ġprovin cial
Ã Ń
Ġwre ck
ĠSyd ney
u ction
Ġiss ues
ĠSic ily
Ġrent s
Ġpl uck
rem acy
ĠMars hall
Ġcra ck
Ġ26 0
Ġ19 6
Ġaddu ced
poon ful
Ġocc a
Ġcur rency
ĠD od
Ġeld ers
Ġbre eding
Ġspec ul
Ġcont ing
! .
Ġfr iction
Ġ? âĢĿ
ĠA ve
Ġsettle ments
Ġso ils
Ġh ier
y rs
ĠT ru
Ġ21 9
Ġkid neys
ĠAnt io
i ating
ĠMil an
ĠP ul
ĠPol and
Ġcast ing
Ġlo an
Ġpract ise
Ġc wt
Ġmod em
ĠZ ion
ri ving
ĠR y
ĠF ew
ĠT ac
or ters
ard y
at hed
Ġp ens
ĠOr n
Ġenjoy ing
ĠG es
Ġg in
Ġw n
ag a
Ġcool ing
m ort
i ic
p n
ung en
Ġtrust ees
Ġaston ishing
Ġoverth row
cl ass
Ġm d
qu are
Ġhe aled
ĠA ur
Ġsupply ing
Ġder ange
Ġcomprehens ive
ĠCO UR
Ġang ular
Ġhor rid
Ġpopular ity
t rees
ĠMem oirs
Ġd an
Ġl ith
Ġsatisfact orily
ĠGeor gia
Ġprec aution
ant ine
ne e
Ġun pro
Ġthank ful
ĠMac ed
Ġchrist ian
ĠBy ron
ĠâĢ¢ âĢ¢
Ġexpress ive
ĠAristot le
ĠL ic
Ġpart ake
Ġins ane
Ġcent res
v v
Ġmin ist
Ġcourt esy
il ic
p ur
ĠBur ke
ĠC rit
Ġprosper ous
Ġpl aster
ĠLect ures
Ġcollect ing
at ine
Ġo wed
Ġclo ak
Ġ28 0
ĠEll en
Ġmod eration
Ġ182 4
Ġhon esty
Ġche ese
do or
ĠK han
ĠCo ld
Ġn al
Ġin oc
id ation
ĠL ength
Ġquestion ed
Ġrul ed
Ġconc ili
am ps
ĠF ound
Ġreg ister
ir ts
Ġf ist
Ġstates man
Ġ19 7
Ġplan et
ĠHo ld
ĠCHAR LES
ĠWeb ster
Ġst u
Ġabol ished
Ġreg ulation
ann ers
ĠM OD
ĠAugust ine
Ġ21 1
fl owered
Ġprompt ly
Ġ8 00
Ġbr ush
ual s
Ġvine gar
ĠI TS
Ġsu e
Ġgra ph
Ġ20 2
ble ms
Ġcurrent s
Ġmer cies
a wn
i pel
Ġsh ared
Ġtribun al
Ġheres y
ĠT t
ĠO LD
ul g
ĠAm mon
h im
Ġt ame
Ġfoot ing
Ġcomb inations
ĠWhe at
Ġweap on
he im
ĠD O
Ġm eth
Ġpres umption
ie ve
Ġpul s
l ane
M N
ĠR alph
ĠV o
IN ES
Ġlo cks
ox ide
Ġextravag ant
ri ers
y ll
Ġreve al
Ïģ Î¹
Ġmonaster y
Ġprec ision
Ġres pir
Ġcor nea
ĠBen ch
Ġra ins
Ġrel atives
ang s
TER N
ĠST E
op eration
Ġhung ry
Ġcl oser
ĠNor wich
EM ENT
Ġob vi
Ġfurn ishes
n ity
vel s
ĠC ott
ĠBru ce
Ġt ales
ĠÃ© t
p able
Ġre cept
art hen
Ġr ans
ut ter
Ġ27 0
Ġgaz ed
ĠPhys i
Ġtrum pet
Ġgener als
' "
Ġreconcil ed
af on
ĠSalis bury
ĠC ock
Ġinf ection
as per
ch ard
Ġevid ences
Ġal i
r un
Ġw l
Ġm itted
ĠCom ment
Ġh ated
Ġexpand ed
Ġordin ance
ib ilities
ĠC os
u ent
Ġwi U
Ġinvol ve
Ġvis cer
Ġi S
ĠC amb
ĠH OL
ans as
Ġfright ful
Ġpay able
Ġf ii
ĠP oll
ĠCl if
ĠU e
Ġsa iling
ĠPl an
Ġwest ward
ĠTem py
Ġsquad ron
Ġalleg iance
Ġg ases
Ġdesign ated
Ġb h
o ire
Ġfam ine
ĠS ad
Ġcan als
Ġdelic ious
ĠShe ff
st ant
Ġsw ollen
Ġl on
Ġmant le
Ġl ace
ĠD ud
Ġec li
Ġrec alled
OS S
Ġmuc us
Ġsecret ly
Ġfin er
Ġmel ting
Ġfo res
Ġbl ush
Ġacqu ies
^^ ^^
Ġd t
w ife
Ġd ul
Ġcontrad iction
ĠH ull
N e
Ġen ables
Î· Î½
i B
Ġf ant
ar ians
Ġfoss il
oun cing
Ġv ou
Ġbl own
og ical
ĠR ub
Ġsweet ness
ĠT ol
Ġresc ue
Ġfor ts
EN TI
Ġe agle
Ġbus h
Ġindust rious
Ġdr ama
Ġt ures
Ġcomm em
ick en
Ġsh ower
Ġban ished
bro ke
Ġinsol uble
Ġim pe
Ġh t
Ġdist illed
ĠIsa iah
ĠAMERIC AN
Ġac um
ub a
Ġmonarch y
T LE
Ġo ats
Ġins urrection
Ġloss es
ud ent
ĠWin chester
oth s
A ll
Ġent rusted
Ġ35 0
Ġtempt ations
ĠC ord
Ġconcl uding
Ġnum bered
Ġinter se
Ġfm all
ĠFather s
ĠT l
c in
Ġuter ine
Ñ Ĥ
alt ies
Ġpatri otism
Ġv ested
Ġgreen ish
r ont
Ð ¸
ĠTreasure r
ĠO ft
rop ri
Ġp ic
ĠComm and
Ġretire ment
ĠMiddles ex
ĠDav ies
Ġomn ibus
ĠN ort
AN Y
Ġd ub
Ġharm less
Ġcho ir
Ġb onn
Ġá¼ Ħ
Ġcaut ious
Ġtr u
Ġequ ation
Ġstat ues
anth rop
ĠP ain
Ġu fe
ĠAnt i
Ġchap ters
m other
Ġev inced
ul ed
Ġsp aring
Ġinstru ctive
Ġdep rive
Ġple aded
ur ate
Ġwant on
Ġthr ice
ĠR ap
Ġverte bra
Ġsa ils
Ġsword s
Ġprot racted
Ġrecogn ise
Ġn p
I US
ĠI i
ĠBuck ingham
ĠH at
ie a
n ance
ĠSpen cer
ĠMad rid
ĠST REET
Î± ÏĤ
nd ant
ĠK ir
ĠJ l
ĠJ ere
Ġfl ank
Ġste al
Ġunfav ourable
ĠCorpor ation
Ġdirect ing
Ġweigh ing
Ġtemper ate
ĠB irds
Ġra lly
ĠCh lor
Ġequ ity
Ġredu cing
ĠYe ars
M A
ĠWhere fore
Ġbut t
ĠH OR
Ġthick ened
ĠS ong
IT S
Ġ21 3
Ġmad am
th ood
Ġmult itudes
Ġbes ie
Î» Îµ
if ting
ym ph
Ġdioces e
Ġt ut
ra it
Ġless er
Ġle ve
Ġinfl ict
Ġbitter ness
Ġ18 18
Ġmax im
Ġelement ary
an um
I r
Ġlog ical
ĠCra w
Ġsk ins
Ġdrag ged
ĠCab inet
ĠSh ip
Ġtrad itions
Ġobst acle
Ġde xter
k h
Ġtro d
nt on
Ġm are
Ġappreci ated
Ġcartil age
w it
z i
ĠL ep
ĠM ater
ĠR O
ĠEd w
ĠOrd ers
Ġbro ok
Ġswall owed
r ue
p ot
Ġcl a
Ġdiss atis
ĠEp istle
; ;
Ġ182 8
Ġsep ulch
Ġcapt ivity
Ġprem ature
Ġk in
Ġj est
ĠCe ylon
Ġadmir al
ĠChap ter
Ġfrequ ency
ĠTrans l
T A
C r
Ġdwell ings
ĠD EC
W ith
Ġfa iling
ĠH ie
ĠH op
ĠHan over
ĠPresbyter ian
ĠF ine
Ġg ild
ĠPr om
ir p
Ġassert s
inn ers
Ġsubd iv
ĠBar th
ĠE re
Ġenc ount
Ġimag inary
Ġqual ifications
Ġnut rit
Ġfur ious
Ġpest il
Ġcounsel s
Ġ22 9
Ġj ack
i om
ĠGerm ans
Ġey el
ĠPa per
Ġs f
bo ld
Ġconnect ing
a an
Ġmem or
Ġ22 8
Ġd ou
ĠFer din
ĠT RI
Ġbu ck
Ġobsc urity
Ġep ig
em b
Ġdistingu ishing
Ġfath oms
Ġfellow ship
pe ak
Ġsal es
Ġqu ia
Ġ21 4
ESP OND
Ġs ire
ĠS ale
c ity
ĠGr amm
Ġpenet rate
Ġf ills
ob s
Ġsu nd
ult y
ĠShakes peare
Ġtinct ure
Ġin ade
Ġfr anc
Ġpart ner
i E
Ġ21 7
ĠCal yx
Ġsugg ests
Ġwret ch
Ġru pture
ĠT ert
Ġl emon
Ġbond age
Ġuneas iness
it ans
Ġed it
ĠB ark
esc ence
Ġr s
Ġb ac
Ġjoy ful
Ġordin ances
Ġf ile
Ġimp regn
Ġown ed
Ġe b
Ġf ung
ĠJud ah
ĠÎµá¼ °
Ġhast en
Ġex ter
< ^
Ġs ack
ĠTh os
ĠS AL
Ġprot r
Ġinvestig ations
ce re
ĠEurope ans
Ġdiff ering
W AY
Ġmy th
Ġa it
Ġbro od
Ġsp acious
Ġpoison ous
ĠAn cient
Ġcultiv ate
Ġ22 1
n it
Ġaccum ulation
Ġbrown ish
ĠCom pan
Ġb t
ĠHe ar
Ġfib re
Ġmagn etic
Ġ22 4
Ġrepublic an
Ġengage ments
11 1
Ġobst acles
ĠPruss ian
Ġarsen ic
Ġrub bed
Ġ21 6
ĠH ume
Ġ- .
Ġtraged y
c ourt
ĠO ak
lot te
Ġn ause
Ġfl owed
Ġridic ule
Ġguard ians
Ġpersu asion
ĠR ou
are th
Ġimp osing
ĠB ag
Ġman hood
ĠMiss ouri
ĠÎ´ Î¹
Ġro be
ob ert
f on
Ġintim ately
Ġcomp ens
ĠÎ ½
Ġknock ed
c ock
ĠE aster
. ?
Ġ182 9
Ġbe re
Ġz u
Ġsp oon
Ġtro op
ĠEr nest
Ġde ux
Ġwar like
che ll
Ġad here
ĠBrit ann
Ġ20 6
Ġc ient
Ġprohib ited
Ġ! '
Ġdre ary
Ġplun ged
Ġon ward
Ġproc uring
Ġta per
Ġrecogn ize
ĠR and
c omp
ĠEng l
Ġann ihil
Ġpres ided
Ġvict orious
ĠSe b
ĠS r
Ġapp li
et ur
ĠE mb
ÏĮ Î½
ĠAmong st
Ġ0 3
ĠD unc
Ġ24 5
Ġmay or
ĠC ost
ĠM AG
Ġwater y
Ġll ie
Ġconver ts
Ġscript ure
ac a
Ġrep uls
ĠPer cy
Ġkid ney
V ENT
g al
Ġintellig ible
Ġprom otion
L ie
Ġprefer able
Ġad ject
Ġjourn als
OU GH
G IN
in em
Ġdid st
Ġag rees
Ġd umb
Ġemploy ing
Ġab uses
Ġaw k
ĠH u
Ġdis like
Ġsup ers
v ial
Ġcomp aring
Ġbatter ies
Ġst ain
ĠAv hich
Ġaff inity
ac r
Ġstrugg ling
Ġdecl ar
Ġf uit
Ġj aws
Ġencount ered
Ġmark ets
ĠI J
Ġequ ip
t own
ĠHe art
Ġdecomp osed
Ġor ph
ĠM ol
Ġ187 3
Ġbreat hed
ĠPhill ips
Ġdisp uted
Ġsav ages
Ġdepend ing
Ġpost ure
Ġs ab
Ġuns uccess
Ġb ases
Ġdissol ve
Ġrele ased
os c
il it
ĠMaj est
ĠB ert
ang led
Ġstri ve
Ġsalut ary
Ġshe ets
i D
ĠS ci
Ġconspir acy
Ġwarri or
ĠArt icles
Ġpier ced
Ġoper ated
ir ling
Ġbount y
Ġve he
ĠSheff ield
AV E
Ġtoler able
ĠMc C
Ġcong estion
Ġqu is
Ġa ught
an ic
Ġmar it
Ġtre mble
ĠCOR R
ĠVinc ent
li um
ug ar
Ġdec or
Ġneed less
MENT S
Ġ23 5
Ġpe er
Ġ23 8
ĠRichard son
Ġc ode
ĠW ay
Ġdram atic
ent ric
Ġsingular ly
ĠPri vate
ĠF RI
Ġatt orney
Ġpro ced
ĠA F
Ġhospit ality
Ġpe o
ĠSupp ose
r ition
ĠPhilosop hy
Ġt ert
ĠPrest on
b is
} '
Ġsymp at
Ġdilig ent
us a
Ġcommunic ating
Ġbas ket
ĠNott ingham
Ġaccum ulated
ps y
Ġb uds
ĠPh ar
Ġox en
Ġgro ve
Ġ18 10
Ġcontract s
ast y
Ġste aling
Ġtriumph ant
Ġabsor b
ar act
s er
ĠDe i
Ġdi aph
Ġp ou
port ant
ĠPap ers
Ġass ail
ĠS ene
ĠEx c
Ġlic ense
f te
Ġg aining
ĠF en
az ar
Ġgrat ify
ke e
ĠV ern
im in
Ġen m
Ġra b
ĠPar adise
ĠMary land
g t
Ġpe u
0 4
Ġdel ayed
Ġmic roscope
h c
UN D
ĠM inist
Ġdo e
jo ined
ĠVict or
Ġresol ute
ĠMex ican
Ġser um
Ġmetaph ys
Ġa ch
Ġminute ly
Ġte legraph
Ġcross es
ĠO S
Ġan ther
Ġgl ories
Ġric hest
Ġrecip roc
Ġinvol unt
Ġforg iveness
Ġres ume
ĠP AP
Ġchem istry
ĠM t
av o
ĠPer u
Ġse ar
ĠN ether
T t
Ġa ld
á½´ Î½
Ġrom ance
Ġsumm ary
Ġhydrochlor ic
av ia
US S
ĠMarsh al
Ġpern icious
Ġtr un
ĠFin ally
Ġutter ance
Ġcar ved
ĠCh a
Ġpol es
ĠWar ren
US TR
Ġstir ring
i og
o z
ĠD U
itt ent
Ġdistress ing
Ġauthent ic
Ġst i
Ġread s
ĠET C
Ġi re
Ġsto pping
Ġimprison ed
Ġreason ably
Ġomn es
ĠF are
Ġsu lt
Ġsu is
che t
ar b
ĠCh rys
Ġtort ure
mans hip
ay ing
Ġrob ust
OUN T
Ġmirac ulous
Ġchar itable
ia i
Ġspect ators
Ġsett lers
pher ic
Ġencoura ging
Ġsty led
Ġmach ines
ĠChar lotte
Ġsuper natural
Ġgra nds
Ġ23 1
Ġxx iv
ĠS B
ib ald
an es
Ġnot orious
Ġpre cip
Ġdisp ensation
Ġfort ified
Ġnoble man
ĠBra nd
Ġf res
Ġfl uct
we ed
Ġproject s
id ency
ĠCan on
Ġtuber cles
ii y
Ï ĳ
Ġp ent
Ġtherm ometer
ent ery
ĠWit ness
Ġe fl
Ġflat tened
ĠH I
Ġ182 7
Ġaton ement
Ġf hall
anc ery
Ġn omen
Ġexc om
ĠB est
Ġdefend ants
ĠChron icle
ĠDirect ors
Ġdelir ium
Ġaque ous
ab s
Ġe ly
rib ing
pect ive
Ġimperfect ly
ĠNorth umberland
ĠU S
id ated
ir n
Ġall ows
iv able
Ġsup remacy
ĠChem istry
Ġobl iter
Ġarg ued
ĠSte am
ill ation
c ons
ĠH ert
Ġsp ur
Ġg iant
Ġtrans c
or ce
Ġearnest ness
ĠAr ms
ho le
Ġinterp re
Ġhy m
Ġt ian
ior um
ĠJord an
Ġfar ms
Ġe lle
Ġiod ine
Ġswall ow
Ġget her
Ġfix ing
Ġf uc
re f
Ġb aths
TI CE
Ġru ff
v il
Ġglass es
Ġcorpor ation
Ġtrop ical
ĠF ac
ĠWh ig
Ġcon gress
Ġl ions
Ġind is
Ġappell ation
Ġla ure
id y
nd o
Ġpre face
Ġ182 6
ĠS ans
am ous
Ġcomp ose
Ġfo x
Ġweight s
Ġfac ilities
ile e
ĠL iving
UR S
Ġcon e
Ġsl umber
is o
Ġrepe al
Ġd ug
Ġcom eth
ĠGl en
Ġfright ened
ious ness
Ġst ake
Ġfor d
ĠR io
Ġ25 5
ĠAra bs
ĠJeff erson
Ġperit one
Ġinde x
Ġpu er
Ġrede emed
Ġb ou
ĠCat alogue
ĠTw enty
ric ate
Ġlo cked
ĠD iet
Ġappro val
Ġlo be
Ġcorre ction
Ġassoci ates
Ġs ank
on er
Ġ23 3
Ġdign ified
ra h
Ġrug ged
Ġvisit or
Ġnecess ities
Ġbe nding
ĠDesc ription
Ġk illing
Ġca ustic
Ġbloss oms
el ius
Ġexam inations
f j
Ġconf eder
Ġs ig
ĠStra nd
Ġu lcers
ĠS ho
ĠI gn
E Y
ĠH ur
ĠMerc ury
S ax
ĠL ock
Ġat oms
Ġsh aking
Ġen um
Ġr amp
Ġfold ed
Ġstup id
Ġtechn ical
Ġdread ed
ĠH ost
Ġhabit ation
IEL D
Ġrif le
Ġfe c
Ġdisp utes
Ġbe et
Ġbelie ver
Ġis h
ĠMED IC
ver age
Ġlie u
ĠHum an
Ġsa uce
Ġnour ishment
Ġfruit ful
Ġinsert ion
Ġsome where
Ġt ation
ĠHe ath
Ġ23 9
Ġdec rees
Ġcol ors
Ġ24 8
Ġp ush
Ġsc our
io a
Ġ22 3
EC TS
Ġ23 4
Ġmod esty
Ġgall ons
ĠConnect icut
Ġ22 2
Ġoblique ly
Ġmir ror
Ġimp aired
Ġrev ival
Ġdecre ase
Ġdigest ive
ant ry
Ġin ft
Ġal s
Ġsad dle
Ġá½ ĳ
Ġto pic
O H
Ġg ains
ĠV i
art on
Ġ18 19
Ġreign ed
Ġpredecess ors
Ġplent iful
ĠI c
Ġs ci
.- -
Ġst ew
Ġ18 16
fact ory
ĠINTROD UCTION
Ġinsign ific
Ġlong est
ic ism
ĠM IL
ĠS aul
Ġgrand father
ĠSCH OOL
ĠMet ropol
io ii
Ġsoft ened
NE Y
Ġ18 13
Ġboil er
Ġsecond s
Ġmanufact uring
ĠL omb
ker chief
Ġtrans ition
Ġ23 7
Ġd ye
Ã© n
ĠNel son
d is
Ġval our
il ion
Ġappe als
Ġhere in
Ġell ipt
Ġper usal
ĠS HE
Ġ182 1
Ġcon fe
ĠTr in
Ġsc or
Ġ22 6
h orn
Ġdiv ides
Ġher ald
ci ples
y th
m aker
Ġtlie ir
or g
ĠAl ps
Ġloyal ty
ĠMort on
ĠAn na
Ġrid ges
Ġtax ation
ĠVisc ount
Ġm ihi
nd a
B y
ĠGod s
Ġlam ps
Ġl apse
ĠVirg il
Ġ22 7
Ġbright ness
Ġhistor ians
Ġli im
ĠC M
p ow
ud ge
Ġreal ized
Ġev i
Ġpregn ancy
onym ous
Ġrob es
Ġha ck
Ġsad ly
Ġd ition
ĠWOR KS
l b
Ġf um
Ġspont aneous
Î± Ïģ
Ġd ren
ĠBe at
ĠF AR
ĠK h
Ġrep r
Ġre ver
Ġ24 1
Ġmon ster
Ġd azz
ĠC ort
ist inct
Ġcheer fully
ĠPre v
Ġrheum atism
Ġgu ides
ĠAnat omy
ĠF isher
u il
Ġliter al
ĠEgypt ians
B t
Ġtra itor
Ġrecon cile
Ġrelic s
lis le
ER C
medi ately
.* *
Ġrequire ments
O f
w yn
Ġconvey ance
Ġd at
AL M
ĠP ict
ĠFerdin and
ist ical
Ġsp aces
g rown
ĠM US
ĠA k
Ġo j
Ġexp iration
Ġre e
ĠAp pe
ĠCON T
OUN D
n um
Ġre ced
Ġasc ent
ĠChrist opher
ĠRobert s
air d
Ġtest ed
re ous
Ġbr isk
Ġl ining
Ġconduct ing
Ġconcl udes
Ġsand s
m or
ĠN ob
ĠYe llow
Ġval ues
Ġb un
Ġdelib erate
Ġe j
Ġhorse back
Ġpatri otic
Ġreward ed
Ġlad en
Ġbl ade
Ġpri es
Ġworth less
ol ar
EC H
Ġins pire
in ers
Ġwe eds
ad t
Ġbr ighter
ers ion
ĠD over
ĠTreat ise
Ġsix teenth
Ġpour ing
ĠSyn od
Ġp f
ĠRh ine
ĠFlor a
li us
ĠS aints
an z
Ġth umb
Ġawk ward
v c
Ġbo ots
Ġre lied
ber ries
Ġany where
Ġsan itary
Ġin land
Ġtra che
Ġc en
Ġflour ishing
Ġxx iii
Ġsess ile
Ġcour te
ĠLl oyd
ĠFran ces
st ock
ai res
Ġpl ied
ĠG ab
Ġg on
Ġneighbor hood
ĠJ a
at ible
are ous
Ġbesee ch
Ġto k
o at
Ġret aining
hthis is
f ound
Ġ urn
Ġdel ine
8 6
Ġembark ed
Ġc ern
e rest
Ġval id
Ġthick ly
aw l
Ġcontempl ate
Ġtw elfth
Ġlong ing
n amed
ĠTrans actions
ord e
Ġtest ify
Ġan ew
ĠVall ey
cl uded
Ġdrain age
Ġann o
Ġident ified
ic iency
ĠâĢĶ âĢĶ
Ġ24 9
Ġsyll able
ĠC it
Ġdelight s
A i
ad le
Ġgener osity
ĠBurn s
Ġbar gain
Ġo ss
Ġc ards
ĠM AT
ĠT in
ar g
Ġtravel s
Ġdeleg ates
ĠSe v
Ġpenet rated
Ġsl ate
Ġexpl ains
Ġ182 3
el ed
ess es
Ġsign ification
ĠTem per
ĠM ot
Ġl ation
ph al
Ġenc ro
Ġver bs
ĠMount ains
Ġbl ocks
ĠI ce
ĠM M
Ġar rows
Ġperman ently
ĠB lo
ĠSte vens
Ġfor cing
Ġobst in
Ġwar ned
ĠG ulf
ĠS ent
ĠC ave
l m
á½ º
Ġ182 2
Ġad verse
ro it
ĠExec utive
Ġch annels
Ġacqu isition
ĠU nd
á½¸ ÏĤ
( )
c ount
Ġret iring
Ġsanct uary
as ters
Ġd ir
Ġpill ar
Ġsearch ing
Ġind i
Ġgod ly
Ġde an
ill on
ra ble
Ġsubs istence
Ġcomm ons
ĠD AY
ĠShe pherd
Ġod ious
w d
Ġgra ves
fortun es
ay a
Ġgrat ifying
Ġlean ing
Ġprogress ive
Ġcor pse
Ġb arn
ĠT ig
Ġaggreg ate
S i
ĠCons erv
Ġcounter act
Ġsl ope
Ġu bi
Ġr f
s ing
ci um
ĠLo ch
Ġdet achment
ĠMEMOIR S
ight s
Ġdist rust
Ġs ounded
Ġfro zen
Ġeast ward
Ġwarm ly
ĠThe atre
Ġst ren
ĠG un
V II
Ġr d
Ġr ushing
k ets
er at
aw are
Ġx l
Ġsub lim
ĠFe ar
Ġb in
Ġsystem atic
Ġunus ually
ĠCec il
Ġmin ut
Ġstim ulus
ĠBr om
Ġoccup ations
Ġbl owing
Ġm oll
ri us
Ġinterrupt ion
Ġw ate
ĠÎ¿ á½Ĳ
Ġt astes
Ġspec ulations
Ġopp osing
Ġvel vet
an ia
Ġs ary
ĠM ISS
ĠJes uits
Ġinf ect
Ġexp osition
Ġaltern ative
Ġh ive
Ġconcl usive
ce ived
Ġweak er
Ġ25 8
Ġro g
Ġstir red
ĠPort land
Ġacc ession
Ġdus ky
Ġdr um
Ġcredit ors
Ġassured ly
ro id
Ġcas ual
ur ia
Ġsym met
Ġmanufacture rs
Ġhost s
Ġsu its
hy d
Ġsurg ical
Ġt J
ĠOri ental
ĠPH YS
ĠChem ical
Ġch ival
Ġsimilar ly
Ġd ine
ĠM aker
Ġsouth ward
Ġimag in
Ġst it
Ġdenomin ated
Ġloud ly
on ent
Ġc ared
ĠF A
Ġdisp ositions
Ġun iting
Ġp ag
Ġgl ac
ĠS I
ĠS ard
Ġhaught y
Ġinsc ribed
ĠR ot
Ġ vern
ĠH umph
ĠApoll o
ĠR en
ĠCar lisle
c ott
Ġan eur
ĠD y
ĠL ot
Ġ187 4
Ġsus pend
le tt
cell aneous
Ġrad ius
? )
her ing
Ġmiss ed
au fe
Ġstock s
Ġqu aint
ĠB h
ĠHar old
: -
ĠLeon ard
Ġrestrict ed
Ġdisapp ro
Ġf og
ĠKent ucky
Ġhence forth
Ġchlor oform
ĠB av
Ġrestra ined
ah r
i im
Ġ24 4
ic ating
Ġventric le
Ġbrig ade
Ġpul p
Ġher d
Ġbul b
Ġsu a
th or
8 1
Ġpot est
Ñ ģ
Ġbr anched
Ġam ply
Ġreven ues
Ġbron ze
ĠM all
R S
L IN
Ġsympath ies
Ġprof ane
ĠPl iny
Ġo aths
ĠEp iscopal
Ġd ix
Ġy onder
Ġinter rog
on na
Ġirresist ible
Ġb ri
Ġ25 1
Ġsusp ension
Ġmanifest ation
iss a
ud o
Ġ25 9
aut ions
Ġincred ible
re am
Ġ26 5
Ġex alt
Ġconfid ently
off ice
EN N
Ġtra versed
IT AL
Ġsec rets
Ġfo i
unt o
ĠMah omet
Ġproject ed
Ġeffic iency
Ġte le
ject ed
pe cially
Ġ24 3
Ġm s
Ġá¼Ĳ Î½
app ily
Ġpart ners
fo ot
Ġtreacher y
Ġex cel
Ġlet ting
0 5
ĠRem arks
Ġ27 5
ĠGene va
Ġjew els
Ġ180 1
ĠAgain st
ĠAdm inist
ĠOr gan
Ġwh i
Ġb ers
Ġpartic le
Ġlig ature
ĠA le
ĠJud ges
Ġad ore
ves sels
ĠBrad ford
ĠR OM
Ġcomp ly
Ġar rog
Ġtyp ical
ll l
Ġf te
ck er
Ġ: "
ript ive
ae us
Ġthreat en
Ġass im
pp ers
. (
ir ies
Ġdisci ple
ĠSw ift
Ġint emper
Ġemb ro
Ġmor row
Ġh n
Ġmed ull
Ġher bs
rupt ed
ĠColon ies
Ġ18 17
Ġaugment ed
ĠF ri
Ġob so
at in
Ġobserv ance
Ġ23 2
othe c
Ġmonst rous
Ġsec und
Ġcou ch
m aid
Ġo ven
am el
ĠSe eds
Ġfortun ately
ĠP un
ac ing
ĠEx change
Ġabsurd ity
V ES
Ġ24 7
Ġde red
Ġpar a
Ġpower fully
ĠMont g
Ġt ension
in cl
ĠCl aud
Ġcharacter ized
ĠChar lest
ĠÎ ²
Ġw ines
ich ard
at ches
ĠH utch
Ġshe wed
Ġun l
9 5
Ġappe aled
Ġhed ge
ur ic
rag m
Ġspe ll
Ġbr icks
ĠCl a
f ish
Ġá½ ģ
occ o
ĠDunc an
Ġnorth ward
Ġob e
Ġaccompl ishment
ul ates
Ġtum ours
Ġchlor ine
Ġv ocal
s ub
ĠHer ald
ut o
Ġwond ered
Ġacce ler
Ġpr ick
hip s
Ġintest inal
Ġav ar
AM E
Ġsh oe
Ġwond rous
ĠMorn ing
Ġw b
Ġto ols
Ġpol ar
Ġregular ity
Ġcryst al
o os
Ġrul er
f ol
Ġdisple asure
Ġpart is
Ġpure st
ign s
Ġsur plus
Ġt j
Ġdam n
Ġvehe ment
s bury
Ġfinan cial
Ġbl ed
ĠM ember
Ġme lt
Ġun i
Ġsepar ating
Ġhor rors
Ġintern ally
Ġcon ceptions
9 6
Ġshe ath
ie ft
Ġindepend ently
Ġcorrespond s
Ġbar rel
Ġext ant
Ġsign ified
ĠAr c
Ġsail or
ĠSecond ly
Ġs ible
ou i
Ġex changed
id is
Ġsurre ndered
ĠCORR ESPOND
Ġsun set
ĠGold en
se en
c ill
Ġir is
ĠL X
Ġearth qu
tt le
ĠEnglish men
Ġan om
LE C
Ġens ure
ĠF AMIL
Ġk a
Ġdif l
Ġmod o
et a
Ġextingu ished
lish ment
ĠB ack
ĠL yn
Ġco als
Ġsuperfl uous
Ġem blem
ro b
ĠMoh ammed
Ġpra c
Ġguar antee
Ġcost ume
Ġintim ated
Ġab er
Ġn em
ĠR ic
ĠMin or
Ġimp ract
Ġsple en
Ġpor ter
V EN
ĠMag ist
ĠSur geons
Ġbroad er
Ġd ung
Ġrejo icing
Ġch il
Ġmonth ly
Ġmis fortunes
Ġ24 2
Ġf ret
ĠE ug
ĠAgricult ural
Ġdel usion
Ġblack ish
ĠS ON
ĠF ow
r if
ĠD in
Ġmourn ful
Ġout wards
nd i
Ġbene fact
AG ES
Ġlament ed
Ġvic ious
Ġi M
ĠBar row
g ers
Ġenthus iastic
Ġmatur ity
Ġgr ate
Ġass id
qu ire
Ġsun ny
ĠP in
ĠSult an
ĠB ri
ent es
Ġreck less
Ġexplos ion
Ġg own
Ġbe au
Ġsp ong
ĠCh am
Ïĥ Î¸
or f
ĠLe ad
Ġ23 6
Ġst ained
Ġop aque
Ġden otes
Ġk ins
Ġ29 0
Ġi y
Ġstam ens
ĠInt ell
pent ine
bo x
ĠN erv
Ġpl aus
ĠB RO
Ġsepar ates
ĠDe fe
Ġn ought
Ġexpl icit
Ġpra ised
Ġple x
8 4
Ġ18 11
ĠB d
ot on
Ġkiss ed
ĠP as
Ġoblig e
Ġpen alties
Ġemploy ers
Ġdisgu ise
Ġh ired
ĠBright on
rop he
ĠSer ies
Ġdec orated
ort ment
Ġ25 2
ĠMil itary
w ald
ĠB ald
ap le
il h
ant ing
Ġgrant ing
Ġmass ive
n en
8 3
hes is
ĠTex as
ĠK N
Ġcut s
Ġgod dess
Ġout l
Ġex ce
ĠAs iatic
Ġn ons
Ġsympat hetic
Ġante ced
ol is
Ġ32 0
Ġdil ute
Ġpe ll
m ill
Ġtum or
ĠT be
r ings
Ġco co
Ġf d
Ã¨ s
ĠSt em
ĠCo al
h urst
Ġ24 6
I LE
Ġ? '
Ġcalm ly
Ġ^ *
Ġun inte
ĠH ub
Ġdec ent
Ġcrit ics
u U
ĠHere ford
ĠM ale
G od
ĠT yr
ĠSe ed
Ġmembran ous
Ġpries thood
Ġquot ations
Ġplum age
Ġre ft
Ġvener ation
Ġn ie
ĠV it
Ġdilat ation
) :
l O
Ġab omin
m ith
Ġcolour less
Ġassoci ate
L ond
ol ome
Ġstorm y
Ġv r
ĠS it
Ġfact ory
th o
ĠâĢľ âĢĺ
ĠB IR
Ġpar iet
Ġwrong s
Ġsh rie
Ġpa used
Ġs izes
ĠHe nd
se ts
Ġep ile
Ġt is
Ġdesce nds
ino is
ĠSy m
Ġgar ment
Ġsubsc ription
Ġret ains
ET ER
ile t
Ġn isi
Ġ31 0
ĠT et
ĠP yr
H i
Ġnost rils
Ġth ief
Ġske leton
ct er
Ġspring ing
Ġworsh ipped
ĠW EST
d ie
ject s
ĠW omen
Ġbl az
Ġsovereign s
v ill
Ġst ayed
Ġnow here
Ġ25 3
Ġsupp ression
Ġel bow
Ġresent ment
rep resent
Ġevap oration
qu in
iv o
Ġun al
Ġge omet
v it
b od
Ġbloss om
Ġind ict
ĠVic ar
ĠTo o
Ġd ome
Ã ¢
Ġdifferent ly
Ġindic ating
P E
Ġn ails
Ġv or
Ġmin ers
ĠF let
c ro
Ġgrie vous
Ġv in
Ġlic ent
Ġhead ed
Ġexagger ated
ĠT n
m ade
Ġ180 3
Ġp he
an as
ĠMar l
ĠK i
ĠPro c
Ġdam ages
Ġa er
Ġaffect s
Ġperce iving
ord ered
Ġ^ .
Ġstud ying
Ġpar l
Ġn ing
Ġferv ent
Ġexcom mun
ĠComp are
Ġmamm a
Ġl ists
AK E
ĠG y
ow e
ĠJ ude
Ġpublic ations
ith met
el ia
Ġsuperst itious
Ġv ene
ĠProp het
qu est
Ġt ack
Ġ25 7
. !
Ġl U
á ı
Ġadopt ing
Ġbr om
Ġse w
ab leness
ĠâĢĺ âĢľ
ĠSen ator
Ġne que
Ġphysi ological
Ġrejo iced
ĠSEC TION
Ġstra it
Ġrevol t
F UL
Ã© r
ĠHe at
Ġdist ressed
Ġgovern ors
Ġd ensity
Ġgen ial
Ġjud g
Ġunder neath
i ors
ĠBuch anan
Ġt ous
ĠAtt orney
Ġer al
Ġcompr ising
Ġenm ity
ĠH es
ĠPat ri
Ġdep re
Ġv ant
ĠNew port
Ġaggrav ated
Ġterm inating
Ġclass ification
se ed
ar v
Ġdry ing
R e
W h
Ġch ances
ce a
Ð ½
Ġse cts
Ġn ihil
h ma
st ones
Ġpe at
Ġam used
Ġmagnific ence
Ġpo ol
Ġh omin
Ġg ress
Ġ25 6
ĠM ant
ĠE ur
Ġg ames
ĠF ever
ĠLad ies
ĠChar acter
Ġ26 1
Ġtranqu il
Ġat ion
on ne
str ong
j ah
Ġ25 4
ĠÐ °
Ġc ine
Ġappro xim
Ġterm inates
Ġab used
ĠSant a
Ġind istinct
Ġst a
ĠB ond
Ġtri p
Ġatmos pheric
Ġst ub
w an
Ġmem oir
ot i
ĠPract ical
n or
Ġwra pped
ĠC ai
im m
ĠL ap
Will iam
Ġsp ines
Ġden omination
ĠHam pshire
ch y
Ġmus ket
Ġtur f
Ġimp le
M ay
u id
p res
Ġexcept ed
Ġplant ations
ĠD ix
in en
Ġscand al
icult ural
Ġer at
Ġ180 9
ĠQue bec
ĠPh ot
th irds
Ġm ens
Ġrep ay
Ġle ap
Ġpref ent
ĠBro ok
ĠE SS
Ġs arc
ĠLast ly
Ġ28 8
Ġunse en
und y
Ġv ows
Ġgramm ar
nd um
Ġh os
ĠY ea
ĠAg nes
/ ^
9 4
Ġo le
ĠP oss
IN A
lo o
Ġax e
Ġsurg ery
Ġbound less
ual ity
9 7
Ġunav oid
ĠPe el
ĠEX P
IV E
li est
ĠF oster
Ġpaint ings
op tera
Ġglit tering
Ġd ife
Ġmist akes
EM S
ĠBas il
ĠSpe cial
d own
iv i
ĠMus ic
ĠL AND
Ġmis under
Ġoper ating
Ġf oc
Ġbe a
Ġdet est
Ġsh illing
il ies
Ġall otted
Ġtlie y
OW ER
Ġser ous
Ġbe que
Ġex ig
Ġacknowled gment
AN N
ĠEv angel
Ġmerch and
ĠC ust
Ġsupp uration
am on
U GH
Ġche ers
( ^
t b
Ġclim ates
av ian
ĠT ib
8 2
ĠThe ss
ĠB p
Ġat h
ĠL AD
Ġdiss im
Ġve t
ĠPer th
li x
ĠUn it
Ġcoun sell
Ġendeav or
ul ence
Ġbound aries
Ġdil uted
Ġru pt
Ġfif teenth
Ġgard ener
ĠT ER
Ġmicro scop
ra pe
Ġs ce
Ġcontin uation
ĠSh ow
Ġp any
IT ED
Ġre pt
He ar
Ġann als
Ġs que
Ġany body
Ġdesir ing
ĠSpe cies
Ġam pl
Ġapprehens ions
at ig
Ġhard ened
Ġinvol ves
Ġxx v
ĠPo ems
Ġpop ul
ĠO mn
ffect ed
uc ing
Ġsen ior
Ġrem un
ĠP to
Ġw oo
Ġtrun ks
em e
Ġhim felf
app ing
il ight
Ġ ils
Ġomn ia
Ġshr ink
ĠCarol ine
Ġpatri ot
Ġal ph
Ġascertain ing
ĠF ord
Ġv as
ative ly
Ġg au
if ax
Ġmen stru
n am
ĠAlb any
Ġb ib
Ġtemper ament
Ġin herent
Ġ26 6
ĠBo hem
Ġcolon ial
Ġpl en
Ġun acc
Ġ26 4
IAN S
Ġun law
Î¹ Î½
O F
it at
Ġforg iven
Ġdivers ity
Ġdist ended
ĠDr um
ĠIsrael ites
Ġf als
Ġuns atis
f n
Ġn m
ĠGen us
Ġj ail
). âĢĶ
Ġ26 3
Ġmed al
Ġsh aped
Ġ26 8
Ġ3 11
Ġli ad
ĠT art
ĠP ag
ass y
Ġbag gage
Ġgr im
ess ions
Ġp igs
Ġto ils
Ġwh ites
ĠIns pect
ĠE h
Ġfore most
Ġo th
\ '
Ġhe i
ĠÎ±á½Ĳ ÏĦ
Ġmis chie
me re
Ġl ots
Ġdev ils
ĠHung ary
C K
Ġhe e
ov ate
Ġinject ion
Ġnucle us
Ġmanifest ly
u ating
Ġexcl usion
Ġdep utation
Ġmort ar
Ġbab y
Ġnob ler
Ġingred ients
il ib
Ġcl av
Ġbrid ges
pi pe
ĠD aw
ĠCan al
Ġmin i
Ġsolemn ity
Ġdegr aded
Ġu e
} ^
Ġhar p
Ġca fe
ann es
Ġneed les
M M
V e
Ġuniform ity
Ġeleph ant
cell ed
Ġdw arf
Ġlow ing
Ġwh ic
IS ON
Ġwith hold
Ġele ctions
Ġscul pture
de acon
ĠJ i
iti ated
ĠPR AC
Ġtreat ies
Ġpoet ic
ĠT on
Ġov ary
Ġachie ved
Ġaim ed
ĠSurg ery
iv als
AM B
S y
ĠM ull
Ġl arynx
ĠK in
Ġow es
ĠDev onshire
Ġgaz ing
ru g
ĠPri vy
A A
pe ll
ĠB uff
Ġ27 3
Ġacc ent
Ġin wards
ĠT op
ĠSouth ampton
Ġtw isted
ĠCons ul
Ġte e
ĠXV II
ĠPr ison
ĠSpe aker
L ER
Ġre ctor
E s
ĠMinist ry
Ġor ient
ur able
G e
ĠG h
ce ly
Ġimpat ience
Ġfav ours
Ġunquestion ably
Ġpast oral
yn ge
Ġday light
Ġpet itions
Ġfo ols
Ġt ice
ters hire
Ġloc om
Ġdep uty
Ġrul ing
ĠU ie
Ġiss uing
Ġtres pass
Ġsitu ate
ĠParliament ary
ĠSER MON
Ġsp ar
Ġstrange ly
Ġ26 7
Ġban ner
Ġcree ping
ĠInf irm
Ġf ou
Ġtr ading
air y
Ġ7 00
! )
ĠColumb ia
Ġexpect ing
v d
ĠO ly
Ġhard ness
Ġst arch
Ġhapp ier
Ġsyph ilis
Ġcorro bor
Ġmort ification
w orm
Ġe te
Ġj et
ĠP ale
Ġbus hes
Ġ( /
Ġid ols
Ġhop ing
ĠDe b
Ġwis er
Ġsc reen
Ġtrans m
ĠMo on
ĠF i
Ġn ap
Ġm ons
ĠM ai
Ġch at
Â« .
Ġdar ling
Ġwho ever
Ġof the
ĠTh ink
ĠCo ast
Ġ27 4
Ġw rist
Ġth res
Ġ26 9
Ġm aker
Ġsol ar
Ġmead ow
Ġcond es
Ġdown ward
alend ar
if hed
Ġhe els
y g
ĠRe ason
j an
Ġp are
N T
Ġs ibi
Ġn l
Ġblasp hem
Ġcoll ar
Ġpat ch
Ġty m
Ġtreat s
Ġbo on
ol ve
Ġaccident ally
ĠAndrew s
Ġweak ened
Ġlic ence
Ġard our
w are
Ġprec autions
Ġincorpor ated
Ġ28 1
Ġa orta
Ġin ability
Ġdecl ining
Ġmel ody
Ġphr ases
Ġbare ly
ab e
Ġnurs ery
Ġabrupt ly
Ġdes olation
alth y
Ġfel icity
Ġspl it
Ġsoft ly
Ġsignific ant
Ġninet een
ĠLa ud
ĠJon athan
ĠM ain
iz ens
ĠSu cc
ĠRuss ians
ĠS s
ett a
Ġmeas uring
Ġal m
ĠHar vey
Ġapp are
ĠNor way
per ors
ĠBe e
ĠE R
gu ard
ro e
Ġde me
ĠCl er
Ġmead ows
ĠC uv
Ġfootst eps
Ġke ys
ĠC D
Ġanticip ate
Ġst ove
-- -
ĠT our
Ġ180 7
Ġdis ast
rib ution
Ġembra cing
ĠMar ie
ITI ES
Ġ180 8
Ġquid em
Ġvolunt arily
ĠDep uty
ĠReg ist
Ġcan st
Ġagree ably
Ġre ared
W hy
ag inous
ĠRobert son
Ġm c
Ġpow dered
Ġro ds
ĠPorts mouth
Ġund ist
Ġflatter ing
ÎµÎ¹ Î½
Ġant ip
im t
Ġliqu ors
A m
Ġopen ings
Ġterr ors
ĠEll is
re th
m aking
Ġl ull
I Z
ĠC li
ĠGo v
k l
Ġaw aken
Ġconv ictions
ĠAss y
Ġw t
ĠS kin
Ġmar ching
erm ost
ĠProb ably
ĠHow e
8 7
Ġpal ate
ĠO tt
ĠLib erty
j d
Ġcomprom ise
Ġn ail
Ġwh ip
he a
Ġpist ol
ĠArab ic
ĠDan ish
ĠUnt il
c ry
ĠS lavery
Ġpers piration
Ġune asy
ĠS ession
Ġreflect ing
Ġ, .
9 3
Ġinm ates
Ġstat istics
Ġordin arily
ĠK a
Ġlia ve
ĠAr gy
Ġsent ed
Ġer y
Ġp ud
Ġimp ose
/ .,
Ġbes et
ĠNOR TH
ĠFl ower
Ġarg ue
ĠIn hab
Ġunreason able
Ġa ust
Ġcan e
es is
Ġsc atter
Ġso ph
Ġdis obed
Ġple ases
Ġdec o
Ġfranc s
Ġmagnes ia
Ġh ints
ĠM oney
Ġper ch
Ġif t
Ġd ining
ĠT rent
ĠAg us
ud a
Ġsupp orts
Ġshe ws
Ġcomp ositions
ĠSP EC
Ġcler ks
Ġar k
av y
Ġb ast
Ġen h
a ed
Ġv t
ĠY EAR
Ġsanction ed
Ġl ane
Ġad hered
Ġb if
Ġlod gings
ill i
er ick
Ġdress es
Ġo intment
Ġreceipt s
Ġexceed s
Ġexperiment al
9 2
IC T
p os
Ġá¼Ģ ÏĢ
Ġm ason
un ce
Ġunsuccess ful
Ġbel t
Ġs ar
pt oms
OR K
Ġ28 5
sequ ently
Ġmean while
b ant
x ts
Ġ30 5
Ġab ounds
Ġsent enced
ri i
Ġf iction
Ġfe veral
Ġ33 0
ro ph
Ġcorrect ness
Ġ27 2
Ġste pped
ĠH us
Ġher ds
ĠPal estine
et he
Ġrecomme nds
Ġt icular
Ġ. ^
Ġiv ory
om ery
ĠFr ont
Ġrest oring
Ġ27 7
Ġsh ines
Ġ26 2
Ġ27 1
Ġfors ake
Ġdo ck
Ġviscer a
ĠM ID
Ġhead ache
Ġcalc areous
Ġpassion ate
Ġrob bed
B r
Ġarri ves
arn ed
ĠEven ing
Ġnat ures
Ġ27 8
Ġstart led
x imate
Ġen ric
Ġwh or
Ġasse mble
Ġwhere fore
Ġd irt
and i
Ġse rene
ell ed
ĠE ust
Ġbl aze
Ġl ang
Ġ30 1
Ġw al
Ġinval id
four th
Ġ36 0
r ub
Ġ179 3
Ġe ine
Ġdas hed
Ġinf in
fel ves
Ġjoy ous
ĠR ut
B l
oph agus
Ġsher iff
Ġ29 5
Ġmut ton
Ġ180 6
IT ER
ĠReg iment
Ġt es
Ġfol ks
Îµ Î¯
ĠD ictionary
ĠVar ious
Ġnomin ated
OM Y
os um
ĠN am
Ġenjo ined
Ġre wards
Ġwh oso
Ġ^ -
ĠC f
Ġvan ished
Ġth t
ĠP t
Ġla wn
se m
Ġro lls
mod ic
ĠMission ary
Ġ- ,
Ġo mission
Ġfr ater
Ġscro ful
ĠLe o
ĠEp hes
Ġprofess ions
ĠM eth
ĠS ig
ant a
Ġ27 6
Ġapp la
Ġe um
Ġb ite
Ġvol atile
Ġtend on
Ġpal aces
ĠAMERIC A
il iar
9 1
Ġi is
Ġfr ames
Ġanal ys
ie i
Ġhand kerchief
Ġe w
Ġcrow ds
Ġt ins
Ġexhaust ion
ĠO UR
row ing
ĠStr ong
ding ton
sc ribed
Ġburst ing
Ġsett ling
P res
Ġaccus ation
ĠT an
Ġ" "
Ġp ared
Ġdep osition
ĠCat al
ĠN ep
Ġche ering
w right
ven ue
Ġchem ist
Ġl ug
ĠC E
ĠSw iss
Ġace tic
Ġdest ination
Ġsag acity
Ġspir ited
Ġpay ments
3 00
Ġman ager
Ġstates men
Ġrep ug
Ġkind led
j oint
Ġincess ant
Ġfir om
Ġb ard
Ġch ill
Ġpost ed
ol utions
ĠBened ict
Ġe lic
b ons
Ġl em
Ġdeg rad
Ġsupp lement
Ġperpet ually
Ġh anged
Ġsc rup
M ed
Ġh r
ĠRes olved
Ġsu i
ĠY an
Ġ28 7
ĠV a
Ļ ¦
Ġcolon ists
ĠS ciences
Ġdev ise
ast on
Ġcalam ities
ĠM ind
ra e
ĠH og
4 00
Ġperil ous
ii u
ĠAthen ians
Ġconj unct
Ġfe udal
Ġsund ry
ĠIm mediately
ĠRog ers
ac o
Ġber ries
ĠF ul
ĠM aine
Ġsh ipping
Ġsubject ion
ĠT el
lim ited
N ING
ĠG ir
Ġtion al
Ġlaw yers
if ed
Ġst ag
Ġcruc ified
Ġ28 4
Ġco vet
ĠB id
LE D
Ġunanim ous
Ġsh apes
ĠLe y
Ġrot ation
ĠX en
Ġded uct
ĠW ight
ver ing
m ay
Ġhost ilities
Ġr ated
Ġhy ster
Ġheret ics
ra ges
Ġ28 9
Ġtou ches
Ġtr unc
Ġu pp
Ġan f
Ġthere upon
Ġt bo
Ġst ress
Ġst ature
Ġnob is
ic on
Ġa per
Ġc ording
Ġgal van
fe it
ĠJul ius
S h
ĠOv id
Ġbre v
c ap
ĠT iber
P TION
Ġt artar
Ġp uff
ĠHen ri
Ġdesp otism
ĠJ oy
ĠB OO
Ġcher ish
Ġcons on
Ġpred isp
Ġcomm ended
Ġcompl iance
Ġc us
ĠB ob
Ġindign ant
C RI
iver ing
U ES
Ġinfall ible
ĠM amm
ĠBon aparte
Ġpan ic
Ġdisc oura
Ġobserv able
b red
Ġbru ised
Ġcor pore
ĠDire ctor
Ġt ips
ĠPrincip al
ant ile
Ġdo omed
Ġsc ap
ĠDE P
Ġanx iously
Ġbag s
st ed
in ci
Ġprop oses
Ġtion ed
Ġfragr ant
Ġassemb lies
H ow
Ġchallen ge
ĠHal ifax
Ġthread s
Ġswe at
ĠSo cieties
ĠW id
Ġxx vi
Ġconsist ency
ĠBur ton
Ġcan oe
Ġdru g
RI D
Ġmod els
ĠW als
Ġr ar
ĠN ine
Ġru f
Ġw ither
Ġfas cia
id us
Ġcat arr
Ġa k
ang ular
ĠRep orts
D o
a ur
Ġm ask
ĠB le
Ġdece ase
Ġb ows
Ġper i
Ġclear ness
Ġm ai
ĠG or
Ġt ance
ĠGriff ith
Ġ28 3
ke ep
á¾ ¶
c as
Ġembry o
ĠHe ll
h ard
ent ia
Ġchar ac
" -
Ġle e
Ġstra ins
Ġphil anthrop
in ue
enz ie
Ġobso lete
Ġsh rew
Ġflo at
G r
Ġhusband s
Ġconquer or
in cing
ĠBr us
ĠGreen wich
Ġag on
Ġiod ide
Ġdisadvant age
ib e
ĠPhilosop h
Ġs j
ĠF ish
Ġdec isions
Ġe ul
Ġrepe ating
Ġpreval ence
Ġc ort
ĠSt rat
Ġagain ft
ĠP ars
P l
og ene
Ġhymn s
Ġ27 9
Ġwand ered
ab ling
Ġvit ality
ore n
m ine
ĠColumb us
w ent
ĠAr men
ĠB ig
Ġ* ,
Ġab o
ĠSher iff
ĠU m
Ġdec ayed
Ġintol erable
ist a
Ġsurv ived
Ġinf ected
Ġ29 1
ĠReg ister
Ġsto le
Ġfair y
Ġbr ute
bu ild
ĠC ert
Ġflour ish
ur ial
he ls
ĠGu ards
ĠC n
isher s
Ġab n
ĠCh amp
Ġpro xim
Ġb ids
Ġmaj estic
Ġr anged
ph in
Ġinc ulc
Ġsub ter
Ġsil ently
OO O
Ġh ort
> ,
in ally
Ġax illary
Ġm alt
ren s
Ġte red
ĠFran c
ĠÂ ¥
Ġpap a
Ġfl ash
Ġft r
Ġunp re
Ġm v
an or
Ġ( "
Ġsevent eenth
Ġ0 5
aw ay
Ġlev ied
Ġli ar
Ġden ial
ĠComm un
ĠQu i
umb led
ĠApp lic
Ġdisreg ard
Ġbe ans
ĠU P
Ġspir al
ou e
Ġshr ine
Ġwed ding
Ġgra pes
Ġu d
Ġbas al
it atem
Ġdrink s
Ġp m
oc rat
ĠBe ck
ĠFlet cher
Ġsu o
Ġ180 5
Ġac ut
Ġtomb s
ĠExam ination
ĠK ens
Ġ29 9
x ious
Ġsal mon
á¿Ĩ ÏĤ
nold s
ĠT roy
Ġb c
e al
ĠMaur ice
Ġ28 2
qu i
re hens
ĠLy ons
io i
or ax
ru its
ĠP owers
ĠTow ards
Ġn unc
ĠF act
Ġapp les
Ġug ly
ĠBapt ism
Ġdisast rous
Ġarter ial
ĠSuper intend
Ġbe i
u z
Ġcoff in
ĠSid ney
ĠPhys ician
sh ot
ĠX IX
Ġmart ial
6 00
Ġi le
Ġthought ful
Ġcal omel
Ġstrugg les
ĠHy mn
ĠS od
l age
Ġt ine
Ġle ver
Ġh alt
ĠE ternal
ier y
Ġanecd ote
und ered
Ġflour ished
op y
is ance
Ġdit ch
Ġbold ness
Ġnut rition
Ġa uct
Ġd ined
Ġsurpass ed
ĠLe x
Ġra pt
och ial
Ġre ferences
ĠD if
Ġpre text
Ġham mer
ĠPre m
Ġsa e
ou st
ĠHigh land
Ġcombust ion
k now
ot o
Ġmin ority
Ġred ress
Ġstam ps
Ġc aste
Ġcontend ing
Ġa fore
ĠAb bot
Ġthank ed
ĠNEW S
ĠSum mer
il o
ĠN athan
ĠBr uns
Ġengra ving
Ġex er
Ġ34 0
ĠC I
ĠDud ley
Ġgro ves
out s
Ġusur p
sch ool
Ġlog ic
OT H
Ġf ent
Ġas under
Ġt ense
Ġtw ilight
inn ed
I ER
ĠM ET
co at
ĠNav al
ĠPhys icians
Ġre versed
Ġdissol ves
est e
Ġsuspic ions
ill o
ĠCh atham
Ġinf usion
Ġsubs ided
Ġ( .
Ġap ople
ĠPro s
Ġp hthisis
ĠJ ove
ĠW ake
Ġs ate
Ġcorrupt ed
Ġat om
Ġ180 4
Ġch airs
Ġeffect ing
Ġdisinte rested
Ġ30 3
AM M
st ra
Ġprodig ious
t c
Ġen e
Ġwing ed
Ġfet ch
Ġadvers ary
ĠProv ince
Ġmot to
Ġ; âĢĶ
Ġrec re
Ġtab ern
Ġspot ted
ĠQ UE
b ach
Ġcontrib ution
Ġá¼Ģ Î½
Ġ28 6
Ġcat aract
Ġh ir
Ġi k
Ġden ounced
Ġble nded
Ġsty les
ĠP on
Ġgran ular
Ġh ip
Ġhem orrhage
Ġelect rical
Ġd d
Ġha ps
' ;
o ci
ĠE zek
ĠCl ose
Ġumb il
ĠIn v
Ġimposs ibility
Ġobser vers
Ġreconcil iation
Ġfore f
Ġtriang le
Ġconve ying
Ġfear less
Ġro sy
ild a
Ġpost pon
Ġsuspic ious
G en
Ïħ Î½
Ġimpart ed
ol ical
Ġconcur rence
Ġquot ation
Ġl act
ĠF at
Ġstri pped
ĠPhar ise
Ġman u
Ġf au
ĠR ICH
A b
Ġbe ak
ĠJer ome
Ġta vern
Ġfl ung
ĠSY ST
ĠFem ale
Ġtransport ed
o U
Ġimpract icable
Ġ29 4
ĠArt icle
Ġsupp ress
ĠConf ed
Ġbew ild
Ġsl o
s quare
L ord
Ġback s
ĠP ERS
Ġast ring
O ST
Ġlum inous
C he
Ġext en
Ġimp uted
ĠK em
ur geon
ac ic
Ġadul ter
Ġt ary
ĠIll inois
Ġch or
ĠEng ra
bb ing
Ġ29 3
id an
ĠCh ancery
pow der
ult iv
Ġeffic acious
A pp
ĠBelg ium
Ġpath ological
ĠHook er
Ġcolle ges
Ġvill ain
Ġprerog ative
ĠLib eral
ug al
g ic
Ġchap lain
ang le
it ates
Ġob j
Ġ30 7
ĠMad am
Ġten or
Ġshel tered
Ġr het
Ġpresent ation
Ġble w
Ġmurde rer
Ġs na
Ġ29 7
Ġaw hile
ĠCl ergy
Î· ÏĤ
Ġcapt ains
Ġcommand ments
Ġsm oking
ard on
Ġdem ol
Ġconstit uting
Ġnegot iation
ad m
am orph
Ġ' ,
ĠAm id
ĠD C
ru nd
Ġ29 8
aunt ed
ĠJul ia
ĠB I
OL E
Ġve nd
Ġinsc riptions
ĠL ance
ĠREL IG
Ã ´
ĠCly de
Ġvar iance
Ġm ills
ĠL ed
Ġcompre he
ra i
Ġfulfil ment
Ġforce ps
Ġher nia
Ġmay be
Ġal ms
Ġmin imum
ii j
ĠK at
ye llow
< >
ĠR an
Ġdiv ines
ĠCHR ONIC
Ġinvol ving
Ġstrict ure
Ġprost rate
L et
ĠW ash
ĠH amm
all ow
Ġscr ut
Ġv ia
ĠPrin ces
Ġform ally
Ġsimpl est
ĠIsab ella
Ġnom ination
Ã ®
ĠSen ior
Ġbitter ly
Ġreli ance
Ġlam bs
Ġtremb led
Ġcompre hended
Ġpur ified
ĠCommission er
ĠH UM
ĠRem ember
the m
OT T
Ġsess ions
Ġwh irl
Ġdimin ishing
c rs
Ġtr ou
ĠH ig
Ġf ancies
Ġph ant
if lor
Ġred ness
Ġwonder fully
Ġc icat
ane e
Ġviol ated
Ġo pe
N ES
ĠG n
Ġresemb led
ir ie
at ra
ĠPUB LIC
ĠV E
Ġ29 2
Ġp ige
Ġdis k
Ġr ang
Ġplan ets
Ġ30 4
ex am
i H
ĠPR INC
ĠBarth olome
ĠE E
ĠSoc rates
ĠIntrodu ction
Ġass ailed
oon er
Ġpave ment
ĠJere m
; ^
ĠM l
Ġdoub led
Ġdu ce
ĠPeters burg
Ġurg ing
ĠL un
Ġarist ocracy
Ġmarit ime
ri et
Ġdiscuss ions
f irst
ĠSuper ior
r ise
Ġreg ist
Ġadvers aries
Ġacqu iring
ĠM oll
Ġtriumph s
v or
Ġd um
Ġap olog
Ġg astric
Ġbar ra
Ġmun icipal
Ġimport s
Ġrein force
P s
ĠMit chell
at ia
Ġsurmount ed
ĠR ox
N ew
urn ed
Ġeru pt
Ġaf ar
Ġtuberc le
at ous
Ġwith al
Ġmischie vous
Ġun inter
ĠSch ol
ĠChr ift
id em
ĠSim pson
Ġcirc ulated
Ġe ae
Ġcl aws
Ġneighb ors
ĠP it
Ġting ed
Ġdegrad ation
renn ial
st ance
Ġm ation
ĠWall ace
ĠFor bes
Ġhum ane
Ġn c
Ġinc umbent
Ġservice able
Ġtreasure r
il er
Ã© es
Ġdiscont ent
it atis
N ER
Ġtra vers
Ġcurt ain
ĠS ound
Ġ32 5
Ġded uced
Ġco g
Ġplant ation
ought on
ac ons
Ġexpl aining
Ġbe m
ĠAl g
en h
Ġ187 5
ĠAns wer
ĠO E
ĠA j
ĠS ib
Ġimp uls
of s
Ġ31 5
Ġem erg
Ġfl ax
b oy
Ġw rest
ĠImpro ve
Ġmis eries
Ġre i
p ill
Ġglob ules
Ġpack ed
Ġex e
v able
Ġt d
Ġwol f
Ġtra p
Ġag gress
ae a
ĠSwan sea
Ġmag is
ĠV erm
oun ces
Ġun pr
Ġinev itably
Ġburd ens
Ġorgan ism
Ġwe ars
Ġprov oked
Ġspark ling
iz z
b ius
ĠMe chan
Ġ! âĢĿ
ĠNAT URE
ĠCap it
Ġs d
Ġwe b
ĠP orter
Ġgo ose
Ġr ite
Ġ30 8
Ġnot h
v ar
ĠRe ading
Ġnom inal
ii o
Ġdwell s
h om
ĠTe a
Ġcord s
Ġuncle an
u ft
as hed
Ġam e
Ġtemper ance
Ġre now
ĠR id
ĠGentle man
Ġto re
ĠAg ent
ĠWh om
ĠRom ish
ur bs
ĠL ine
ĠS OUTH
ĠMod ern
Ġre ap
Ġear ned
ĠBel fast
ĠEd en
ĠHy de
Ġtym pan
Ġjust ices
Ġple te
Ġpled ged
ĠWat ts
ĠS ou
Ġapost olic
rit es
Ġl umb
ĠPl ates
Ġdistinct ive
Ġcommand ment
Ġcar nal
Ġv ines
x e
ĠÏĦ Î¿á¿¦
id ia
ian cy
de f
Ġmed ian
st all
Ġund ue
ĠInfirm ary
' )
ĠM and
ĠMethod ist
ic ke
ĠT usc
ĠST ATE
Ġric her
Ġcontag ion
Ġrecoll ected
ĠM ist
Ġin h
end om
Ġlengthen ed
ĠTreat y
Ġocc ip
Ġdisc ourses
ÏĦ Î±Î¹
Ġpub escent
Ġs ous
Ġc ures
Ġtest s
Ġinade quate
mun ition
^ *
ib les
Ġtrif le
af s
Ġd ing
0 6
C ON
ol us
Ġparliament ary
Ġha llow
Ġavo iding
et or
ET S
ĠTR ANS
Ġsubsc ribers
Ġstr at
Ġpack et
Ġplac enta
Ġle a
GH T
Ġs illy
ĠA aron
ĠSC I
w oman
Ġcath olic
rape ut
w ind
Ġsh al
Ġno ct
Ġenric hed
Ġo ch
be it
Ġ29 6
ĠCan aan
ĠJul ian
Ġpatient ly
Ġcar pet
Ġcur sed
Ġ33 5
Ġmer idian
ĠS yl
Ġconsist ence
Ġt at
st an
ĠF anny
ig ated
Ġsign ature
Ġclass ed
Ġ45 0
Ġ180 2
Ġfacil itate
Ġge ographical
ĠG rod
Ġspread s
ĠF oll
Ġte as
Ġindirect ly
ĠG ill
Ġt arn
cl ed
Ġn ach
Ġalk ali
Ġrespir atory
f ar
k r
Ġpreced ent
Ġrep airs
Ġl ass
Ġ30 6
Ã© d
ĠK nox
Ġtri vial
he e
ĠL en
UL L
Ġres pon
ĠO m
Ġins ure
Ġarchitect ural
J l
Ġinject ed
Ġcorn ers
Ġar du
ĠMount ain
Ġproced ure
k ers
Ġmart yrs
o ons
Ġs b
ĠWe ek
Ġwr ink
ĠAnton io
ĠN ar
Ġhigh way
Ġsuff ers
Ġche aper
UC T
M EN
ĠS now
ke ys
Ġsuff erer
Ġg ifted
Ġwh ale
Ġfe rent
or ating
ĠW are
ĠW ATER
ĠEm ily
ĠD ew
ĠST OCK
ĠHug hes
Ġla ft
Ġmultip ly
Ġfount ains
o vers
Ġun limited
Ġcut aneous
ĠCong reg
ain es
ĠKe ep
ĠD IV
Ġpau per
Ġi in
Ġinv aded
Ġpain ters
ot id
Ġqu in
Ġr H
ĠO st
Ġste ward
s erv
Ġcontriv ance
ĠR ound
Ġhonest ly
Ġfig ur
Ġb aff
Ġcl iffs
Ġtra ins
Ġoppon ent
Ġmix ing
Ġthe olog
Ġelev enth
ĠAR CH
Ġhide ous
u pt
the ir
Ġrepl ies
ĠA FF
osa ic
amm ation
ĠE c
ĠÎ¿ á¼
ch al
ip ed
Ġanten n
w re
M l
ĠS au
Ġen n
Ġar oused
ĠC aps
ĠCanad ian
ĠT ax
ĠCh ambers
Ġaw oke
Ġdo ve
h ot
ay e
ĠBenn ett
Ġsur ve
d ling
ĠFAMIL Y
Ġcut t
ĠJ n
Ġep iscop
ĠR ams
Ġbar rier
Ġsw ore
il io
Ġrem orse
Ġdiffe red
Î¼ ÎµÎ½
Ġsharp ly
I nd
c ision
ĠLoc ke
Ġstret ching
Ġstri p
ĠPresby tery
ke ley
ĠOper a
Ġsink s
h ist
Ġthick er
Ġv os
Ġincl ine
Ġderange ment
Ġhy per
Ġar ched
Ġstim ulating
Ġcompr ised
Ġso j
Ġan k
st s
v ith
Ġg ulf
ro lled
om m
Ġnegot iations
f ection
Ġappoint ments
inal d
Ġmaint ains
Ġcan v
ĠY ours
bo ats
Ġ179 8
Ġto ast
Ġmo at
Ġtown ship
ĠCar r
EL AND
Ġfrig ate
s uch
Ġinter cept
Ġin act
Ġz one
ra ch
Ġen f
Ġce ed
Ġecc entric
Ġga ol
Î ĳ
Ġpars on
Ġsand stone
Ġgro ove
ator ies
Ïī ÏĤ
Ġr anges
Ġc ui
ath ic
Ġsh un
Ġannounce ment
ĠT EM
Ġfe a
Ġinval uable
ĠPhil ipp
Ġfr ust
Ġinsignific ant
Ġav ow
ern al
ĠSte ph
Ġfat ty
ĠJ as
Ġadvent ures
ĠNo ble
ĠB UR
ĠColl ect
c ers
Ġst icks
ĠBut ter
Ġelect ro
Ġbreast s
ĠO BS
Ġanat omical
Ġcr ush
y ards
ĠO ss
Ġdiam ond
Ġgro an
ĠIn se
Î¿ Î»
Ġte rest
Ġart istic
Ġ30 2
ĠSeb ast
Ġs oup
ĠArab ia
ĠHebrew s
Ġthreat s
OL L
Ġgrie ved
ĠMontg omery
ĠCh au
Ġdes pond
ĠCL ASS
red it
Ġprotect ing
ĠI de
Ġpriv ately
ĠâĢĺ *
Ġcont iguous
Ġc able
Ġ30 9
Ġrem ission
Ġs land
Ġcord ially
Ġv ouch
ĠF ortun
Ġexcurs ion
ne w
ĠGeor g
ri o
Ġsh aded
Ġint ro
Ġha e
Ġcons ciences
Ġ31 2
Ġsam ples
ĠCree k
Ġrecom p
Ġencamp ed
Ġan us
Ġhear th
Ġecon omical
Ġa ie
Ġmon y
Ġhang s
ĠJ t
Ġfour teenth
Ġasc ribe
Ġ31 3
Ġ4 10
Ġ' âĢ¢
Ġ0 7
n b
iss im
Ġpil ot
G L
Ġhon ors
! !
as hing
ĠC ate
Ġwork man
Ġprof usion
ĠT rib
ĠF landers
ĠCal v
ield s
ĠG ros
Ġ31 4
Ġhe p
Ġdispl ays
Ġfor cible
ĠAs ylum
Ġph y
Ġwhere with
ĠHer cules
er ly
Ġref inement
ĠH ed
Ġfurn ishing
Ġash ore
Ġpropag ated
il k
Ġch ape
Ġant ique
ĠBene ath
on ius
Ġl itt
ut en
Ġd orm
Ġup hold
ĠEx pl
ĠWal pole
Ġpregn ant
Ġe ty
ĠAC T
Ġact or
Ġimpress ive
ĠSerm on
Ġre nown
ĠChrist endom
Ġw ires
Ġdi ag
Ġch art
ĠTR AV
Ġpropos als
Ġp ane
Ġmathem atical
x a
ĠAd vert
Ġb ony
ĠDon ald
W E
Ġref rain
ĠMag n
Ġn iece
ĠWhe never
Ġt ig
Ġle fs
Ġw ick
Ġlong ed
or ig
Ġv oting
S O
als am
Ġens ue
ĠSh rew
Ġcommod ities
Ġvow el
Ġsucceed s
Ġshout ed
st it
N O
Ġrev ive
Ġi pse
ĠK ate
Ġpar aly
ĠBo x
ĠH ier
ra ged
ĠCHE M
Ġbra ins
ĠJu an
ĠGu ild
Ġt ints
ad ies
Ġam munition
Ġsanct ified
ĠLECT URE
Ġdiscover ing
ĠBe yond
ĠH ath
ĠPro du
ĠRepresent atives
ĠILL USTR
Ġcomp ression
Ġsp ire
Ġcle aring
ĠB ird
Ġdi at
Ġpersec uted
ad ier
Ġembra ces
Ġ178 9
Ã¼ r
ĠH OW
ĠVe get
Ġpeas ants
TI VE
Ġban quet
Ġbr im
Ġfruit less
p rit
ĠB ott
ĠTim othy
Ġfow ls
Ġbl ot
ut er
Ġdev ice
Ġdisc om
Ġintim ation
Ġdri ver
Ġdem ocratic
Ġd v
Ġoppress ive
Ġw its
Ġexcell ency
Ġfe eds
Ġpill ow
l id
m is
Ġab bey
Ġhe el
ĠRey nolds
ĠNe gro
ar th
ro phy
Ġreal ize
hen es
Ġfav ourably
ĠSim ilar
Ġst uck
le igh
Ġsat urated
ld e
ĠHist orical
Ġveh icle
Ġeager ness
Ġtib i
op oly
Ġco ve
Ġc d
im d
Ġsal ine
ĠRepublic an
ĠT is
Ġimp ure
Ġambassad ors
ĠJ V
Ġem bell
ĠHe y
Ġqual ification
Ġsh irt
ĠIn g
Ġinte nding
s k
Ġpriv y
ĠMed al
ĠM n
ĠFer gus
Ġdemonst rate
Ġf ern
Ġmed io
Ġ& .
Ġen chant
ĠK ew
ĠO RI
ĠI li
ĠK ansas
OLOG ICAL
Ġfur row
AT A
ov a
Ġ179 0
Ġdischar ges
Ġilleg al
ou ched
Ġtrans act
Ġel ucid
Ġchar iot
ĠPr inted
ĠEx od
Ġrenow ned
Ġob nox
ĠXV III
Ġrelax ation
if s
Ġperf on
Ġwo ollen
Ġan ts
um in
Îº Î±
an ne
Ġtr ump
Ġlow ered
ir r
Ġcompl ied
io e
Ġcontr asted
ur ous
her ical
ĠC UR
Ġsubsc ribed
Ġble ed
Ġs ist
ic r
Ġe go
ĠTh ine
Ġirregular ly
Ġa version
Ġfe re
Ġdrops y
ul as
ĠCy cl
ĠV AL
Ġirrit ability
ĠMor al
Ġpop ulous
Ġb n
s in
Ġc ili
ĠD ent
A ct
Ġvent ilation
ĠPro gress
Ġun it
Ġrespond ed
Ġm im
Ġunbel ief
Ġsac ri
ĠÏĦ á¿¶Î½
ĠÃ ¼
ĠFreder ic
ĠO L
Ġrelax ed
0 7
Ġf ied
Ġit em
Ġcerv ical
ĠT ue
ie b
OGRAPH Y
Ġc is
Ġ179 2
ĠS aw
ĠP au
ĠR ED
Ġeng ross
Ġst ab
t able
er unt
ĠV ul
Ġbut cher
Ġab b
er oy
Ġli ability
ĠSl ave
Ġk en
Ġprin ter
ĠH ann
Ġcott ages
Ġswe eping
Ġa ims
ĠO X
il itic
Ġinflu ential
Ġinterp osed
Ġrevol utions
v m
ĠB un
ĠStam ens
Ġw aving
Ġsy rup
ic n
Ġu a
ĠCh annel
ĠH ills
field s
Ġr att
Ġwarrant ed
cul a
Ġt ac
Ġtrib ut
ĠT I
am ount
ENC ES
Ġrefres hing
Ġburn s
i eth
Ġdisc ount
Ġl owed
ĠDel aware
ĠCor olla
Ġge ological
Ġcon ft
Ġamuse ments
ĠPre p
Ġquad r
Ġá½ ħ
Ġev olution
Ġnarrow er
Ġprophet ic
ĠBrus sels
Ġv ass
v ia
ĠKens ington
or as
Ġnas al
u ii
sp read
Ġre verend
i ia
Ġfow l
Ġcompr ises
Ġreb uke
ĠD ark
N ot
Ġco e
Ġdif fi
Ġb our
ĠFlor ida
Ġ< ^
Ġresc ued
th us
Ġce iling
ĠSP E
S he
Ġdec reed
Ġpol ic
Ġins pir
Ġheav ier
Ġvolunt eers
ĠO g
Ġwate red
Ġvict ories
ĠL angu
Ġse als
uss i
Ġselfish ness
Ġr im
Ġpres umpt
t m
ĠWil ts
ĠChar ter
ĠCORRESPOND ENCE
Ġrad iant
Ġemig rants
ĠB orough
ĠV irt
Ġ0 4
ĠS cy
á İ
Ġvar ieg
Ġdis par
Ġpe ars
Ġsimult aneously
Ġb ir
ĠT aking
ĠS AT
Ġconstru ct
TING S
Ġprint s
Ġrav ages
Ġincor rect
ri ber
od en
ĠTh orn
Ġappreci ation
ĠA w
r imony
Ġc ake
Ġg amb
ĠElect ric
ach t
ĠC elt
Ġon r
ĠG d
ro ll
HE D
att a
Ġconstit utions
Ġfe aring
Ġquart z
ro ken
Ġi E
Ġgood ly
Ġnons ense
| |
C o
Ġmechan ism
Ġfr on
Ġpar adise
ĠS oul
Ġdra per
Ġincons iderable
Ġirrit able
im et
ĠL ac
ĠGe off
Ġpull ing
ab ad
Ġquo que
ĠPri or
Ġt ains
i K
ĠEp ist
ĠL av
ort ing
ĠFrench man
ĠAustral ian
w ark
Ġrecover ing
- "
Ġthe oret
ĠC ull
Ġimple ments
ĠConstant ine
Ġ33 3
Ġ179 9
Ġcat ast
Ġ36 5
em ia
Ġcl ad
Ġ32 4
ĠDa ily
be ck
Ġder ives
ĠT ub
Ġadult s
ĠGlad stone
and ed
Ġdirect s
âĢ¢ âĢ¢
Ġav ailed
Ġscru ple
Ġsol ved
Å¿ t
Ġren ounce
Ġlif ting
Ġsome body
ĠF urn
ĠR ule
Ġ31 8
Ġper cent
Ġpo ckets
ul ity
ĠSh ah
ĠW ick
bour g
Ġinfirm ities
J an
Ġmedic inal
Ġdis hes
Ġresist ing
Ġk il
Ġpurch aser
Ġb ly
Ġrob bery
ĠM ills
Ġ32 1
Ġdilig ently
ĠAdminist ration
Ġpr one
Ġass ess
Ġless en
av an
as a
Ġinquir ing
Ġinterfe red
ĠH amp
Ġconst rained
ĠÎ ł
ÏĦ Î¿ÏĤ
ĠN AV
ra p
Ġ< <
Ġse iz
ĠAR T
Ġincons ist
Ġt k
Ġs lic
Ġt us
ĠR ac
ĠK it
ATION AL
Ġroof s
Ġvain ly
Â» .
Ġgorge ous
Ġnot able
Ġst ing
Ġcoll ision
Ġbra ce
Ġs urn
Ġconvenient ly
Ġconst able
ach ments
ĠCal ed
Ġmort gage
urs ed
Ġshrew d
ĠF lo
ĠHon our
Ġsu g
Ġad hering
Ġmanifest ations
Ġresour ce
w ort
Ġlo ins
ĠSp ir
Ġregener ation
Ġcl inical
Ġsimilar ity
isc hen
Ġtick et
Ġexerc ising
ĠRe ce
Ġintr usted
Ġsubd ue
Ġsurv ive
Ġc em
Ġcommon wealth
Ġdisd ain
ult ure
Ġcomb ining
Ġaneur ism
ĠVern on
ĠVal ent
U a
ĠV ER
ene e
Ġpenet rating
ow ay
Ġl int
atch ing
Ġch orus
ann on
ĠSP IR
Ġthie ves
ĠCar ter
Ġesc aping
to ld
ri el
ĠBrown e
Ġqu ence
Ġalph abet
Ġuter i
Ġbus hels
Ġt ors
Ġf aded
Ġcomr ades
Ġ31 7
Ġtyran n
l ace
Ġneat ly
Ġn ests
Ġphys ic
ot omy
ĠE cc
Ġdep ress
ĠBe g
Ġfug itive
ig ence
ĠBe h
Ġplat inum
ĠCam den
g ood
en c
Ġadherent s
Ġinterpret ed
ĠS or
ĠCOUN T
Ġtur pentine
Ġsc ent
ĠWOR K
Ġsw arm
Ġadj ourn
Ġrel ish
ĠL ent
ĠW ent
Ġcolle agues
Ġd n
Ġr otten
á¿ ·
ĠD est
u ir
Ġgener ated
Ġb im
Ġchem ists
Ġimm ersed
am h
Y L
Ġha lls
iss ible
Ġbesie ged
ĠA ub
: ^
d h
Ġl ain
Ġra ging
Ġsubs erv
Ġling ering
ĠRob in
P R
Ġp iles
ad i
Ġd ot
ĠTRE AT
Ġlo am
Ġden ying
im p
Ġdep osed
Ġrelie ving
ĠA yr
ĠSacr ament
Ġdep uties
á½º ÏĤ
Ġar re
le fs
Ġextrem es
ĠV on
ie ct
Y ork
Col onel
ĠD og
ĠGl ass
Ġinterv ention
ĠAnge l
Ġl ished
Ġaccess ible
ex cept
ST ON
um bers
U r
Ġvarious ly
ĠAl most
ĠD ol
Ġdrach m
mond s
os se
Ġâ Ļ¦
D EN
ĠG OOD
Ġpoison ing
Ġend uring
Ġmar riages
Ġrem nant
Ġ33 7
Ġsec re
Ġlow ly
ĠHon ourable
Ġmis represent
Ġferment ation
Ġthir teenth
ft on
Ġfin ite
Ġn es
, ;
Ġsecret ions
Ġpal er
Ġcomp osing
Ġar omatic
Ġvar n
Ġobl iv
Ġ31 9
ipp ers
Ġtend encies
m ot
Ġact ors
Ġtrans ient
Ġindis cr
en us
Ġbar ons
Ġwit ch
Ġcomm iss
ant on
Ġju ft
Ġrejo ined
Ġmin us
ing ed
Ġem ac
if ix
ĠI k
Ġfed eral
t or
T a
ĠQue ens
Ġimper t
V III
Ġbeg gar
Ġinc ense
Ġsanct ity
Ġtrust ing
iss ima
er us
Ġ34 5
Ġhard er
ject ion
ĠMalt a
Ġhum b
Ġcre pt
Ġsam ple
F e
Ġty me
TIC S
Ġsp an
Ġ32 3
Ġgrat uit
on is
ĠSYST EM
Ġtail or
writ ing
Ġadj usted
ĠHe w
ĠCor ps
Ġtit hes
Ġdestro ys
ile m
be aring
Ġhe aps
ĠB and
ĠCol ony
Ġcur v
á½¸ Î½
Î¬ Î½
I K
Ġmin ing
Ġton ic
E K
est a
Ġcommun ities
Ġglor ified
le a
ation e
Ġmiss ing
ĠC RO
Ġfull est
Ġesc apes
ist on
ĠIn tern
Ġcan ons
ĠL td
E X
Ġ' -
Ġabst ain
Ġbefore hand
ĠB udd
Ġst ored
ĠR oses
Ġwill s
Ġm ute
Ġstr ings
Ġover se
Ġl us
ĠG on
Ġdeform ity
Ġpap al
ĠPers ians
Ġ31 6
Ġmanuscript s
Ġhon ored
Ġfert ility
Ġqu otes
Ġpers ist
Ġhabit ually
anc er
ĠFif th
Ġcond ensed
Ġinhabit ant
ĠÎ ļ
LE T
ĠSe al
Ġpress ion
Ġmoment ary
ĠPh ara
Ġverb al
Ġn id
og a
ĠB arr
ĠB attle
Ġfe at
Ġscript ures
Ġb alm
Ġpar ce
ĠCo ff
Ġfra il
o ot
ĠO e
Ġshout s
Ġ178 0
Ġin no
Ġdism al
Ġf able
Ġpl ur
Ġreform ed
Ġincom plete
ĠInd ex
ĠTal bot
Ġbra very
Ġdo ings
ĠQu int
Î¿Ïħ ÏĤ
ul ae
ins ic
Ġcess ation
ĠN az
Ġexp orted
Ġexper i
Ġobjection able
Ġp om
Ġlim itation
Ġof i
Ġsu llen
ĠCh art
Ġpar cel
Ġendeav ored
ĠIllust rations
Ġdispl ace
ĠS elf
ĠQuarter ly
Ġt as
Ġcon cess
Ġ179 4
te e
Ġhum or
Ġpro w
ce ph
Ġf ont
Ġs ition
Ġp agan
Ġfra g
ĠA ne
Ġsuper v
Ġ37 0
Ġv nto
ĠM AY
Ġharmon ious
Ġexp ulsion
Ġra ils
Ġrail ways
Ġjo ins
Ġver ge
ĠS out
Ġimplic it
Ġfre ight
Ġgra pe
Ġs owing
itt ance
ivers ary
Ġven ous
Ġo g
Ï Ī
in ae
Ġle y
ĠClare ndon
ĠPlut arch
Ð »
Ġd ash
Ġequ ilib
ĠBruns wick
Ġf ic
Ġdeliber ately
ĠPol itical
Ġsl ay
Ġelect ors
Ġintim acy
| )
q n
ĠWh igs
ĠCON F
Ġrenew al
Ġhes itated
ĠDev il
ĠWAS H
ul ata
ĠLe ave
ĠR AIL
und a
ĠAN TI
Ġlib r
urn al
Ġsequ ence
Ġwork ers
Ġ179 7
ĠFrancis co
âĢ İ
ĠSac red
Ġsigh s
com be
Ġ33 4
ĠA unt
ĠM EN
ĠOr ch
Ġexp orts
AT HER
w m
Ġo cul
ĠBib li
ĠL ig
âĢĻ ,
Ġlig aments
Ġe arthen
Ġpr un
ĠH ood
ĠColon ial
Ġcontempor aries
O UT
Ġab bot
Ġ38 0
ĠM EE
Ġvan qu
g ot
ĠRe vel
an se
ĠB ah
Ġrem ot
Ġperson age
z ar
Ġdear ly
ĠMar tha
f id
ĠPHIL OS
l aid
Ġpr ism
Ġscar city
Ġy er
ĠS utton
el i
Ġcast s
Ġant imony
ep hal
Ġpref ixed
ug s
ĠDe o
Ġ177 6
The se
ul ously
Ġt ough
Ġsupp orters
Ġtra v
ĠUn less
Ġun ites
ap a
Ġlat ent
Ġwh ieh
ab el
ĠJohn ston
Ġine ffect
FOR M
ĠNo va
Ġalt ars
Ġar y
Ġper d
Ġad ver
Ġsp onge
Ġpart ition
Ġbrut al
n an
Ġbath ing
ĠJerem iah
Ġc b
Ġsad ness
Ġtyph us
ĠIND IA
Ġdesp ite
he ir
AR E
Ġft ate
Ġcalcul ations
Ġrestrict ions
Ġexp osing
Ġliber ally
Ġin im
Ġsolic itude
Ġfl int
Ġbright est
I i
Ġill e
Ġg ums
Ġinf amous
Ġphosph ate
ĠG le
ĠO UT
ĠSC ENE
ĠDise ase
Ġass ur
Ġa od
Ġhaem orrhage
Ġam ate
Ġcat he
Ġdr ift
in j
ĠS olic
os it
ĠM iles
Ġprompt ed
Ġting e
Ġchamp ion
Ġ33 1
ĠWH ITE
Ġpneum onia
ĠRe id
Ġpart i
Ġcreat ing
ĠB att
Ġfaint ly
Ġcur s
Ġgrands on
\ .
ĠM ISC
Ġden ies
Ġg ust
Ġearth y
Ġocc af
p ut
Ġ4 11
ĠSund ays
Ġinterven ing
s ays
Ġevangel ical
Ġvigil ance
EN CH
ĠE ye
at ious
B ook
p d
, !
Ġlo co
ĠVol ta
pher ds
Ġfors aken
ĠHY MN
Ġcontag ious
Ġs itt
Sax on
Ġcar p
Ġair y
Ġo es
Ġse izing
ĠSt irling
Ġgle am
ĠD OC
Ġwit hered
Ġsteam ers
Ġpath ology
ĠÂ« .
ĠE use
ĠAdd ison
Ġm ittee
Ġj oke
Ġd l
Ġun fe
Ġop hthalm
Ġcold ness
ĠD OM
Ġattain ment
ĠÎ ¸
Ġw aking
ĠSt range
ĠBol ton
ĠH ut
Ġhun ter
ĠCom pl
Ġl ore
Ġmo i
Ġto othed
er ance
Ġret ro
oc ate
ĠEx ped
Ġpear l
ĠL ime
ĠE ffect
ian us
ĠS f
if iable
ĠV ine
und ers
Ġ0 9
w ould
Ġth s
am i
Ġce ive
Ġimp en
ĠM d
Ġsch ism
ĠInd ust
Ġconsult ation
ĠCharlest on
Ġim itated
Ġpers isted
Ġbroad ly
ĠDem ocratic
bri le
app ed
Ġassist ing
Ġ 000
Ġexperien ces
ĠB ud
Ġed ited
ĠAld erman
Ġto ll
ĠH ou
ĠChrist i
Ġ32 2
ĠAthen ian
Ġcomm itting
Ġdef er
Ġcand les
Ġcal um
Ġscept re
is ements
Ġgriev ances
Ġpater nal
ĠAnim al
Ġentertain ing
Ġpenit ent
Ġc ater
ĠBot any
ĠLiter ature
ous ness
LE X
Ġsem ic
Ġ0 8
ĠAm ph
Ġshow ers
Ġoper ator
Ġpro gen
ier ra
ĠK ey
ĠBeaut y
ĠK or
Ġunb roken
Ġsqu ares
T hen
Ġtrans mit
Ġcap ill
Ġc s
r ift
Ġphysi ology
ĠBurg undy
ĠMag dal
Ġannoy ance
Ġcu ps
" *
Ġ4 20
Ġk i
ĠExt ract
G AN
Ġat tends
Ġa head
ĠM ul
Ġ32 7
Ġ32 8
ĠB ron
ĠPto le
ag s
ĠProceed ings
Ġp ust
Ġh ounds
Ġground ed
ĠR ect
Ġengine ers
ĠE con
Ġproject ion
ISH OP
ĠAd j
Ġsin ned
Ġvirt ually
Ġret ina
ĠTh ought
Ġo ptic
Ġle uc
Ġnecess aries
ic ia
Ġxx viii
Ġf ins
Ġprov ides
Ġo ils
pp y
- ;
Ġforfe ited
AL OG
Ġexplan ations
Ġuninter rupted
Ġdom ain
ĠE z
Ġdur able
Ġinc arn
om i
Ġinc ont
ĠE ff
ĠAr k
Ġ33 9
ĠB rew
Ġbrill iancy
Ġchance llor
A c
Ġalle vi
Ġspecul ative
se ller
Ġf used
Ġwis est
ĠROB ERT
ĠNo ah
ĠST ATES
Ġprohib ition
Ġ33 8
Ġox al
Ġben ign
Ġde void
ĠS d
Ġe orum
Ġsweet ly
Ġc ig
aff old
ĠBartholome w
Ġprepar atory
urg y
ĠSk et
Ġcutt ings
ĠGall ery
8 00
ĠT itus
Ġra ll
ĠCHAR AC
d ist
ĠLis bon
as ures
ĠTH IR
Ġrevolution ary
H en
um ble
ĠPO EMS
Ġc ance
Ġval iant
agon al
ĠUnivers al
ĠH are
Ġgo v
Ġmess engers
Ġwear ied
Ġsuper b
Ġsound ing
ĠI D
am ine
ĠPRO P
Ġgovern ing
A F
s hed
Ġband age
Ġstra ined
Ġwater ing
Ġal ia
ĠBe ar
Ġeight eenth
Ġvar i
Ġreluct ance
Ġg oss
ĠAntio ch
ral tar
Ġsyn od
ĠGramm ar
Ġepit het
Ġl er
V ERS
Ġcons ume
he rence
O l
Ġm aps
ĠArab ian
ĠT ree
ĠColl ins
Ġfort itude
ĠSu pper
Ġ32 6
ĠInst it
Ġshaft s
ĠH ans
Ġcongreg ations
Ġcr ue
Ġstri pes
Ġde ity
Ġde lla
Ġequ ator
Ġconstitu ent
Ġso ever
v ic
) -
Ġardu ous
Ġreg ulating
ĠG iles
ĠTh u
ĠCOUR T
Ġe os
Ġcr ude
Ñ ĥ
at ius
for ward
ĠWhen ce
Ġp ills
Ġme als
Ġdis ordered
if le
Ġc ars
plic ation
che l
Ġcontinent al
f T
Ġa ye
ĠMetropol itan
ort e
l ich
Ġsoft ening
ĠNorth ampton
ĠTw elve
ae e
ie ux
ĠW ILL
s pe
od em
Ġexc ites
ĠL ob
Ġ32 9
ĠCommer ce
Ġprel ates
Ġ2 000
ĠÎ¿ á½
Ġt utor
Ġpe ers
ĠCraw ford
Ġst agn
Ġc et
Ġadj ud
ĠAm ster
ĠPri ze
Ġsut ure
Ġemancip ation
Ġen abling
t us
Ġimp unity
p u
ĠBl ake
ĠCh im
Ġdec id
ĠRoc hester
ĠHerod otus
P r
Ġspect ator
Ġdis aster
Ġg ly
Ġlo os
p as
Ġsubs ist
i J
Ġtlie m
Ġconduct or
Ġgall eries
Ġsubstant ially
pl ate
Ġmort als
Ġqu asi
Ġimp ass
ĠReg inald
Ġd iction
ĠT J
Ġimport ation
iv ocal
ĠMarl borough
ĠRo om
Ġswell ed
Ġsu ite
ĠDiss ent
Ġmed itation
ver ness
Ġf j
hor se
Ġhumili ation
Ġl onge
ĠF reed
Ġ40 1
Ġsignific ance
Ġcell ar
ĠM ut
Ġacc use
ĠC uba
Ġembod ied
ĠM au
ĠC ul
Ġassist ants
Ġthorn s
Ġm ains
Ġmar row
Ġfan atic
wn y
a ia
ĠV iol
Ġdoub ly
ĠCo pper
ĠC ENT
Ġrepl ace
Ġtrache a
Ġcatch ing
ĠG ay
ĠD AV
Ġbund le
Ġdro oping
Ġtin ued
ĠWal ton
Ġ34 1
Ġde velope
Ġdru gs
ol f
Ġp ork
ĠV AR
ĠW li
Ġxx vii
Ġstation ary
Ġod or
Ġt asted
Ġit e
Ġstart ling
Ġsuff erers
Ġsurv iving
Ġlangu id
in am
Ġte xts
Ġsket ches
Ġforfe it
Ġluxur iant
ĠHend erson
ĠB read
keep ers
Ġpublish ing
Ġcon cession
Ġmax ims
cl iffe
Ġenqu iry
ĠB RE
Ġoffer ings
Ġfo il
Ġch am
Ġinstrument al
ĠS K
Ġ33 6
Ġn is
Ġsparing ly
hum an
Ġmagn ified
Ġ35 5
Ġpe ared
ĠEngine er
Ġco b
Ġpredecess or
ENT AL
Ġsu icide
Ġd ame
Ġins urg
ĠBer keley
ĠS iber
ĠA ges
Ġlan tern
Ġreal ised
Ġreve rent
Ġun gr
ĠVol unt
Ġper c
ĠH ib
Ġrub bing
ig ate
Ġtb at
Ġprophe cies
go ons
Ġstair case
Ġre vers
Ġdo z
bl ack
Ġeven ings
ĠEd win
Ġobnox ious
Ġter rest
cra ft
IV ERS
br is
it ter
Ġcr us
Ġtrad ers
ĠH OSP
Ġspe ci
Ġlie ve
ĠNort on
Ġlight ing
ĠPsal ms
i pe
ĠMont real
ic ula
Ġpast ures
Ġassemb lage
um mer
res pect
Ġfo etus
Ġdef ault
Ġwin ning
Ġqu ired
ag ogue
Ġ179 6
Ġhy pert
Ġpress es
cl er
Ġdirect or
ĠS ugar
ht on
ii is
Ġdense ly
Ġthe v
Ġprof lig
ĠB ret
ingu ished
Ġspont aneously
ĠBe aum
Ġcertific ates
Ġcr adle
.' ^
Ġbus hel
Ġd ura
Ġto ol
in as
Ġis le
ĠMe ad
ah s
Ġpoison ed
Ġprov ident
ogene ous
Ġprosec uted
Ġre afon
Ġadvoc ated
Ġauthor ised
Ġce eded
F ACE
Ġtib ia
Ġacet ate
Ġrelations hip
ĠJapan ese
ĠNe arly
Ġmel od
ĠP u
ĠFare well
re as
ĠTra vels
Ġo nd
E n
Ġl ated
at he
id en
ĠSe ym
Ġatt est
Ġin an
Ġgall on
Ġclaim ing
ĠMISC ELL
Ġcla uses
EM BER
ch amber
Ġdist in
ĠPro pri
Ġcl iff
Ġclust ers
ĠChes hire
Ġm r
Ġeyel ids
ĠP ills
Ġc in
Ġcap illary
p age
Ġair s
N ow
Ġde ference
ĠAll an
Ġl t
ĠA ction
ĠO nt
Ġdry ness
Ġcomp ress
ĠSwed ish
ĠH ack
Ġwood y
Ġ34 3
Ġgland ular
Ġri es
io o
Ġh ogs
col our
ĠD au
Ġle eches
Ġconscient ious
ĠLes lie
ĠE the
Ġrep ud
ĠDor set
Ġinvestig ate
Ġp ence
io le
ĠSU PP
Ġstig ma
Ġext irp
Ġ0 2
Ġfe brile
U K
Ġperform ances
Ġdef ray
Ġdisse ction
ĠLy d
Ġside red
ĠDe ad
Ġdoll ar
Ġpunish ments
ĠTerrit ory
Ġeng aging
Ġep iscopal
ĠMR S
rit is
Ġelastic ity
Ġd s
Ġ34 7
c ow
fl ower
Ġdeal er
Ġhut s
ĠC oc
l ove
Ġclergy men
Ġtri es
ĠQu od
Ġdesert s
Ġph arm
Ġkne eling
Ġpers istent
G Y
Ð ´
it Ã©
et ric
Ġwelc omed
Ġc inn
Ġver ily
Ġseem ingly
Ġstro ve
on o
Ġd ess
if era
iv ol
Ġ37 5
Ġ ),
ĠMon k
iv ities
Ġcon val
Ġper ils
Ġattract ions
ĠD ock
ĠF ont
ĠSy st
N D
b ish
Ġnob ly
qual ified
Ġam ended
ĠD ro
mark et
b d
or ld
I l
ĠWOR LD
Ġem etic
Ġall udes
ath a
Ġd ens
ĠInspect or
Ġdefe nding
c v
Ġped est
Ġawa ited
ĠH ors
Ġ Ø
ĠCol er
Ġ/ /
Ġleaf lets
Ġin aug
AT OR
Ġpal pable
Ġlong itude
ut ations
ĠCant on
Ġpier cing
l ass
Ġless ened
Ġfil thy
Ġindict ment
Ġincl osed
ĠH undred
ĠHort icultural
ĠGib raltar
Ġg or
ien ced
Ġinvestig ated
b ig
Ġthe i
Ġ34 9
Ġwould n
cl ay
Ġ178 3
Ġclose t
Ġdisappe ars
ĠB ills
Ġ34 8
M B
Ġpra e
Ġd or
ĠAgricult ure
Ġofficial s
Ġwatch ful
bro ok
ĠA x
Ġam en
Ġmin erals
Ġref ract
Ġsle w
b ank
Ġpe a
Ġe z
ĠK ar
ĠF est
Ġ33 2
Ġout set
Ġpo isons
Ġgo ats
Ġreject ion
Ġcle arer
Ġg ru
Ġavar ice
Ġord ination
Ġru pe
Ġtrans formed
lance olate
Ġcap ric
ĠQu in
Ġsn uff
og h
Ġdyn asty
ing le
Ġt ides
ol or
Ġq f
Ġinqu est
Ġ34 4
Ġdiaph ragm
ĠH UN
Ġmut ually
Ġfil th
Ġg ib
ĠP erc
es see
Ġcl oses
s upp
arr ant
á¿ĸ ÏĤ
Ġpopul ace
Ġch ord
Ġrespect ful
Ġleg ally
Ġb d
Ġcomp os
ĠTh ur
Ġpro gn
Ġmention ing
Ġ179 5
Ġorder ly
ĠS aund
C t
Ġst ant
Ġflood s
Ġexped iency
Ġexception al
ĠH O
Ġdra ined
Ġdelib eration
Ġdrach ms
Ġtub ular
Ġattack ing
Ġthem felves
Ġdeclar ations
f rey
> -
Ġterr ified
Ġfaire st
b ys
ĠJes uit
Ġing ly
Ġassert ions
Ġconced ed
Ġrecomme nding
Ġsp ike
ĠPre par
A ug
Ġb ract
Ġst ability
i ots
Ġsuperintend ence
Ġtemper atures
Ġl ire
Ġblind ness
mar ried
Ġvacc ination
Ġconf isc
Ġcro oked
Ġexc used
Ġinconven ient
GR ESS
ĠPhara oh
ĠJud as
ĠCAS E
B T
it ant
at im
Ġunbel ie
Ġra bb
Ġtrans mission
ĠKing ston
ĠSax ony
ĠNorm andy
N A
AS TER
ĠT il
Ġadapt ation
ĠG ould
Ġwork manship
UT E
ĠEliz a
Ġcorpus cles
Ġtyph oid
Ġglim pse
te ll
ud y
Ġenc ore
Ġsk irm
Ġdec oration
ors ed
Ġar ithmet
Ġm ules
ĠBar ley
Ġw en
Ġ? âĢĶ
Ġbl uish
if ol
Ġsc affold
Ġ38 5
Ġsubsc riptions
M IN
Ġs perm
Ġat he
Ġpre late
Ġves icles
Ġsl ack
Lond on
Ġcom edy
Ġsh y
ĠCr ime
ou x
P AR
Ġoccur rences
c reat
ib al
ot ive
Ġh ich
Ġmerc antile
ĠAg ents
Ġnause a
Ġun changed
es ley
ĠEx cept
ĠHIST OR
Ġdisgrace ful
ĠM atter
Ġm ah
Ġsw amp
ĠW oman
ĠArch ibald
Ġbay on
Ġcree k
Ġp aces
Ġst all
Ġbid ding
Ġp ia
Ġdict ates
ĠSerm ons
Ġanther s
Ġaccept ing
Ġh ides
Ġgang lion
w ord
ĠO D
Ġstri ving
Ġemph atically
Ġpe ut
OUN G
ĠM oss
ĠL ITER
cl usion
Ġgr ade
H t
Ġcomm ittees
Ġpe cc
Ġconst ancy
Ġ178 7
Ġb ility
Ġfoc us
Ġbo ot
Ġbe arer
Ġar ra
Ġbo asted
Ġbar rels
Ġcast les
Ġorgan isation
ĠComm od
Ġtender ly
Ġalcoh olic
Ġung od
Ġmem ories
Ġi V
Ġliqu ids
e u
cul us
Ġrecollect ions
f li
ĠCa uses
ig es
Ġp av
ri ly
ĠUn cle
ĠQu estion
Ġming le
Ġemerg ency
T s
ing es
Ġsc ab
Ġperf orated
ann i
W ELL
Ġin i
Ġinvent ions
Ġqu em
Ġru inous
Ġphosph orus
Ġare as
Ġoverwhel med
ĠNether lands
qu ainted
ib ed
Ġaff ixed
ĠPo le
Ġcompl ains
ĠGl ory
Ġglad ness
ĠB oul
á½² Î½
Ġfav ored
ĠAmster dam
in ities
ab ar
ĠGib son
Ġrev ised
ĠS ull
Ġsweet est
Ġdro pping
Ġac rid
Ġbeh aved
ion ers
ĠE ns
Ġpr ote
ĠV V
ĠBra h
al er
Ġpure r
Ġsn ake
Ġper ip
Ġr ouse
ĠT ou
j c
ĠGu inea
Ġtrans pl
ĠSuperintend ent
Ġst alks
Ġsil very
Ġconsult ing
ĠHer r
erv a
Ġindust rial
ĠBarn es
ĠS ick
Ġed itors
Ġchild ish
ĠOcc asion
f ie
Ġb ald
Ġestim ates
ic l
ĠB orne
ue re
ĠDion ys
Ġthere with
AL ES
val ier
ĠPr ices
Ġid leness
ad or
Ġfe rence
ĠHutch inson
Ġsh ire
ĠT V
Ġemig ration
ĠWis dom
p ub
Ġret ard
ft ing
i ator
Ġmerc urial
Ġ40 5
Ġp ly
Ġin verted
Ġemploy ments
Ġfort ifications
Ġbow l
Ġshr oud
ĠPract ice
Ġ; âĢĿ
Ġb og
op l
Ġam al
ĠH appy
Ġvent ral
ĠDIS C
ĠK ill
Ġcomp art
ĠStafford shire
Ġclass ic
Ġ34 6
c rit
ĠA A
ER IES
ĠAn nal
Ġlit ter
Ġwo es
Ġ35 3
Ġconc rete
ĠTW O
Ġman ual
ĠC ause
ĠGu ide
Ġps ych
Ġarchitect s
ĠM m
Ġdef ine
yl er
Ġmountain ous
ĠSeym our
Ġe is
: '
Ġ. \
Ġplun ge
Ġsc ur
Ġdisc ourage
ud ation
Ġsens ual
Ġsp ikes
Ġles ion
Ġmet amorph
ĠP ine
ac i
ĠV IS
Ġappend ages
Ġsulph uret
Ġunsatis factory
Ġpo orer
Ġretreat ed
ĠPHILOS OPH
ure rs
Ġinv iting
ĠF I
Ġport ant
ĠL em
ist e
Ġthigh s
en o
Ġg ai
em por
ĠCOR N
Ġanat om
Ġrans om
ĠS IL
ĠB AT
Ġde le
o pp
at am
Ġpilgrim age
ĠC row
Ġp ate
Ġundist urbed
ich te
ĠSh arp
ĠGro ve
ops is
ĠT ry
n ie
i A
Ġres in
Ġ34 2
Ġunhe althy
im ens
Ġo k
Ġcur ves
Ġmanif old
Ġadhes ion
Ġenjoy ments
Ġpestil ence
Ġtrans form
Ġartic ulation
me al
Ġnois y
Ġcor al
Ġplaus ible
Ġconqu ests
ĠE ras
ĠG ER
Ġmarg inal
Ġanticip ation
un ctions
ĠAr d
ĠL iqu
Ġel im
ĠBer ks
Ġby e
Ġfra ction
ĠCh ir
Ġev olved
Ġro oted
Ġcustom ers
Ġinvolunt ary
Ġor ation
Ġse u
i pper
Ġunf air
ĠHind oo
Ġneglig ence
Ġinf lex
Ġminister ial
Ġaccommod ate
um que
ĠCl inton
ĠP alm
ĠAmb assad
r ams
Ġst ops
ĠCommon wealth
ĠG et
H er
Ġsear ched
ris y
Ġ177 5
Ġman i
ĠDund ee
ĠOF F
Ġdepre ci
et ers
Ġcatast rophe
Ġsim il
ĠJ ava
Ġoffe nder
Ġsymb ols
Ġe ases
ĠW AT
ĠD art
ĠAl t
Ġspec ie
Ġhand ful
Ġcongen ial
Ġch ieft
Ġdi ately
.* '
pl ing
with out
ograph ic
Ġen rich
Ġcollect or
it ives
Ġsum pt
Ġl ard
ĠL as
Ġpurs u
Ġfond ly
Ġvolcan ic
Ġstriking ly
Ġ35 1
ĠHol mes
ĠHunt ing
Ġy s
AM S
v l
Ġirrit ated
Ġcirc ulating
Ġclim b
Ġdeco ction
oc ations
Ġmoon light
nd ish
ĠJ ar
at l
Ġwar mer
ĠWood s
Ġgrie ve
r ator
Ġsex ual
ĠMo ors
Ġ35 7
Ġdis eng
ĠR ig
fe ld
ore rs
Ġ39 0
s aid
Ġcate ch
Ġstr ay
Ġriv als
Ġen veloped
Ġbloom ing
Ġun kind
n f
Ġg ems
ĠCom par
Ġ179 1
ce m
qu ent
A TIC
Ġw ig
um a
ĠG am
ĠFellow s
Ġsl ide
ID ENT
Ġsolic ited
Ġspas modic
Ġsin us
Ġper icard
Ġn icht
b in
ĠS UN
ĠD ed
Ġtin y
, :
Ġpur ulent
Ġvisit ation
ĠG ate
ĠPrin ciples
ĠB EL
Ġevap orated
Ġexcess ively
Ġst itution
ĠSqu ire
Ġoft ener
Ġhorse men
- âĢĶ
ĠCle ve
Ġhapp iest
Ġcaut iously
Ġmo or
ĠSM ITH
Ġmuse um
Ġadv an
Ġconst rict
Ġoverwhel ming
ĠExt ra
Ġswim ming
ĠDan es
ad en
Ġexper t
Ġlar va
ĠMon thly
v ir
ĠLouis iana
as ers
Ġ35 4
Ġaven ue
Ġ35 9
ĠS ter
id ium
Ġli er
Ġclean liness
ĠD ame
Ġwho fe
Ġro s
Ġequilib rium
_ _
M ar
Ġprem ium
Ġe red
ĠP ant
Ġbec aufe
Ġcan vas
Ġconv incing
Ġearthqu ake
ĠRe ed
Ġd icit
Ġfem inine
ĠMiddle ton
Ġf usion
ĠT all
ĠCo oke
ĠShort ly
Ġtl u
Ġw m
Ġmon opoly
ĠAb el
Ġgu age
ĠH ospit
ĠArm strong
Ġimp utation
Ġfil ter
Ġover h
Ġpen insula
ĠB ast
ĠVenet ian
Ġmiss ions
ĠW ine
Ġhel m
Ġcelebr ate
Ġel igible
Ġb ic
ĠS ame
Ġps alm
Ġ36 3
Ġra ises
Ġcon sec
ĠPy th
Ġch rom
Ġwith held
ĠPho en
ĠPro phe
l orn
Ġcount ing
Ġdi vert
ĠSe lect
ĠWater loo
Ġaffl ictions
ĠP agan
ĠM ine
el er
ĠC hest
l ab
ĠChap man
f us
is que
Ġtri ple
Ġgent ry
AT URE
SH IRE
ĠFort une
Ġillust rative
ay ette
Ġmagn anim
reng th
Ġsupers eded
Ġmot or
es cope
Ġforbear ance
Ġl ish
Ġ4 14
Ġround ish
pend ing
ĠLE G
Ġh ues
ĠT s
be nd
it r
ĠTh irty
Ġind em
Ġcu jus
Ġang ust
ĠSub sc
Ġpit ched
Ġexp res
h aw
Ġf ines
ĠBa iley
Ġh iding
enti eth
Ġc ask
Ġextravag ance
ign y
Ġwond ering
Ġe pic
Ġro y
gg ing
Ġh in
z t
Ġdesc riptive
Ġb oughs
Ġdisp ensed
ĠI C
ĠR at
Ġsal ute
Ġam ph
ons on
Ġvill a
th am
br ough
nat ured
ĠBer wick
W N
Ġvir g
Ġan on
Ġprov oke
Ġstimul ants
ĠDe ep
ĠAl ph
Ġj ob
ĠLib er
ch ild
cl oth
Ġhist ories
ĠTrust ees
ĠLordship s
OR N
of l
Ġno xious
Ġdark ened
Ġattain ments
Ġx lv
Ġ35 2
Ġfer o
Ġassert ing
ĠAc ad
Ġo F
Ġpast ors
u ar
Ġ42 5
ĠAng lic
ĠHard y
ĠS ue
ĠAnt ony
ut ant
Ġsprink led
Ġsing ly
Ġchance l
Ġdict ated
Ġlength s
VER N
Ġdist illation
Ġ36 6
ight ly
Ġillum inated
m h
uch ar
Ġprofess ing
Ġunlaw ful
ĠTH B
Ġaspect s
ĠD oubt
Ġ36 4
est im
Ġpear ls
ĠLe ague
Ġspo iled
ĠED WARD
Ġfe cond
ĠIN TER
az a
le v
Â« ,
Ġbronch ial
Ġdisp ense
Ġact uated
id as
Ġcy an
Ġrob bers
Ġprev ention
Ġwid ows
Ġmet eor
Ġdebt or
cond uct
Ġemph asis
Ġ35 8
Ġd ii
ĠEp iscop
U I
Ġconf ound
Ġk ick
ay ne
Ġso ci
cont inued
Ġcho osing
ĠÏĦ á½´Î½
ĠHe av
Ġpo ore
Ġt ude
Ġr ou
Ġpen ance
ĠCo ch
E B
ĠM ap
ĠPhysi ology
Ġvex ed
ĠEm ma
Ġinj unction
ĠINF L
cul um
Ġpartial ity
Ġcount less
Ġextra ction
Ġstool s
Ġb nt
Ġs is
Ġ188 8
Ġpilgr ims
Ġh ats
Ġindic ative
Ġsque e
ĠOrig inal
li hood
Ġpass enger
ĠRe e
Ġintense ly
Ġav ait
ĠT um
Ġvan ish
Ġput rid
ĠBL ACK
abb age
Ġt art
Ġring ing
Ġquar rels
Ġvap ours
Ġhar bor
ĠV el
Ġbe ad
Ġfit ness
Ġdrunken ness
ĠN ab
Ġem perors
Ġdev ices
ow a
ĠSus an
Ġcompl aining
Ġbull et
iz a
llow s
ĠLouis a
Ġre ed
ĠDry den
Ġcelebr ity
Ġecon om
Ġfast ing
ĠInt erest
Ġpropag ation
Ġent re
Ġin ert
Ġexpl o
zz a
Ġserv itude
Ġgar b
Ġimp ious
Ġw ad
Ġcapt ives
Ġinte nds
Ġcourte ous
ĠLoud on
Ġrem inds
n in
Ġal imentary
ĠUn fortun
re pid
ĠW OOD
EE K
Ġinf ra
Ġgrave ly
ĠPet ition
Ġwell s
Ġ36 1
Ġtime ly
Ġorder ing
Ġcan oes
ĠT inct
ct ory
Ġfol k
Ġdes k
ĠSav oy
Ġso fter
zz le
Ġpunct ured
P OOL
ĠT artar
Ġtabern acle
ĠF u
qu a
Ġacqu ires
ar re
quis ition
Ġrequest ing
Ġ37 3
L IS
Ġgrey ish
Ġmild er
ĠA ri
ott is
Ġdiff use
w al
Ġin und
ous ing
Ġfol iis
g room
Ġrep uted
ĠTenn essee
Ġha ven
ĠF lem
ĠCar m
Ġcler ical
bo oks
Ġw ii
ey ed
X T
Ġabn ormal
Ġ ive
ĠDiv inity
Ġsat ire
ĠL IST
Ġval idity
^ ;
Î· Ïĥ
Ġ" *
Ġa ii
ing o
ah l
i un
ak a
Ġsy l
ĠI G
Ġv ix
Ġguar ante
Ġdisturb ances
Ġfrequ ented
Ġpl oyed
p ices
Ġspo ils
Lie ut
Ġrecur rence
Ġhe ns
ĠR ector
ig on
Ġcom pe
ĠCl oud
Ġcau fe
Ġsuff i
we ar
rag on
Ġhaunt s
Ġab rid
Ġinher ited
Ġdam aged
ĠH annah
air n
Ġfr anch
C TION
Ġwhere upon
Ġcl os
Ġprop hes
Ġw s
ĠM ix
Ġ ried
orth y
Ġt p
Ġm ule
Ġsc rib
Ġb omb
Ġsl opes
Ġesc ort
Ġdra ft
Ġprom ulg
ies e
Ġpat rons
Ġcolle ague
Ġc ush
Ġ4 15
ĠPl ay
Ġrust ic
Ġdys entery
ĠY OUNG
er ated
Ġ. "
Ġhou fe
AL Y
Ġl ivid
it on
Ġmy ri
Ġimm inent
Ġhand led
a ic
sh aw
ĠCy pri
ĠCommer cial
ĠM ER
Ġconquer ors
V IL
F IELD
Ġdys pe
p ents
Ġro aring
RI A
Ġs v
Ġemploy s
ĠChel sea
Ġcorrespond ents
ĠSat urn
ĠC t
Ġobt ains
Ġsens ibly
Ġr m
ent ation
Ġpeace able
Ġsick ly
Ġreli able
ĠB ax
A pr
ĠInn oc
Ġpre tt
ANE OUS
Ġinter d
ĠXX I
Ġinterpre ter
Ġw aved
Ġdeliver ing
Ġa et
ĠPap al
ĠEss ays
Ġ; *
A h
ht y
Ġper j
Ġve iy
ĠD ale
iv ided
Ġturn ips
Ġm ise
Ġcons id
ĠQu ant
Ġcathe ter
Ġbe ads
Ġhemisp here
ic rous
Ġ35 6
ul ary
Ġ188 5
head s
Ġ178 2
Ġtra cing
Ġe S
ĠE rie
Ġwar med
Ġfull er
ĠBr un
Ġperitone um
Ġp its
Ġus ages
Ġblo oms
Ġt ails
Ġsh am
Ġw ie
ĠPharise es
ĠW ag
Ġau ction
Ġshe wing
Ġsk illed
Ġex asper
Ġhal ted
Ġhe ter
Ġcar penter
ĠPart s
Ġhel ps
P h
H ist
st airs
et ery
ob long
S f
Ġirregular ity
ĠProvin ces
Ġra pture
Ġfr ivol
ĠD ial
ĠMack enzie
ĠA me
Ġ189 2
Ġe an
Ġt ene
he it
Ġindef atig
ĠON E
Ġch aste
Ġl x
od ed
ĠSt re
Ġt ren
Che ers
Ġdev our
ĠLO VE
Ġbonn et
Ġsh ift
ĠB ess
Ġenc ir
Ġcanv ass
ace ut
ac ion
a ient
cel ain
Ġappare l
Ġyouth s
Ġ38 1
Ġre ins
ĠEd ited
ESS ION
Ġm akers
ĠP erm
Ġsem per
Ġ43 0
Ð ķ
Ġ0 6
T AIN
Ġer ys
ff ed
Ġb ened
Ġparl our
Ġá¼Ĳ Îº
Ġentreat ed
ĠS OL
ĠAp oc
ĠWASH INGTON
Ġwli o
Ġsep als
Ġrece iver
Ġcum stances
tt led
Ġtr uce
Ġorph an
Ġdown y
Ġrelig ions
Ġbatt alion
ĠH ark
if li
Ġinf idelity
Ġdism ay
Ġpleas antly
Ġbas i
ĠSer geant
Ġevac uation
Ġleaf y
Ġtr out
O t
Ġengra vings
à ¥
ĠIs les
AL TH
oc o
Ġ178 8
Ġpard oned
Ġsumm its
Ch rist
e ven
am er
Ġatt aining
IS TER
ĠD IST
ĠD ys
ĠSurg ical
Ġrag ged
Ġf itt
Ġforget ting
Ġ37 1
ĠFull er
Ġtreacher ous
Ġcelebr ation
Ġcivil isation
Ġ36 9
Ġste ed
Ġtemp ore
Ġen ed
ĠMAR KET
rib ly
Îµ Î»
Ġmis app
ĠP OP
Ġs ings
Ġ188 6
Ġchape ls
ĠC ash
Ġgent leness
ĠOBS ERV
Ġthres hold
ĠChar ity
Ġinqu is
Ġsolic itor
fif th
Ġcharacter ised
Ġnurs es
w if
G OW
Ġm au
il ius
Ġdre amed
Ġh inted
ĠT II
Ġal ias
Ġdiam onds
Ġne b
ĠTe acher
Ġ37 4
Ġl ump
Ġ19 00
Ġ36 7
B OOK
om ing
ĠR ud
Ġinvent or
Ġpoult ry
Ġdepl orable
w v
Ġm j
Ġcam el
Ġle urs
Ġtra its
ĠChau cer
Ġs iderable
ĠIn qu
ĠTh ank
Ġlet t
Ġg arn
Ġb s
ĠL ys
Ġ189 0
ĠBo oth
Ġperplex ed
J e
Ġcloud y
Ġincess antly
Ġhol iday
O ct
Ġgo at
Ġinter sp
ĠP ie
Ġflo ated
im h
st en
Ġha c
ĠW OM
Ġrain y
Ġc age
ho pe
ĠBar ry
Ġnom ine
L OR
ho e
Ġg ast
ĠB ass
Ġ38 7
Ġh ib
Ġcit adel
ĠGre ene
Ġmechan ics
ĠR ET
Ġmar vel
ĠFor ce
Ġsch ooner
B o
Ġph al
Ġdiscuss ing
ĠBur r
Ġbur then
ĠEccles iastical
Ġex it
ĠD ouble
Ãª me
ĠS pect
ĠN est
Ġal iis
Ġtaper ing
Ġde arer
Ġcap ac
Ġrelative ly
Ġdisobed ience
Ġth ia
ĠFel ix
Ġ44 0
Ġconv ict
Ġcand our
Ġcoinc idence
Ġc akes
Ġsplend or
Ġten ure
) '
ĠBU ILD
c p
ĠF oss
Ġpar ochial
ĠNot ice
rop ortion
ĠXX II
ĠChic ago
ĠAb dom
ĠS A
ĠStra w
ĠBib l
Ġdiff usion
al ions
all a
Ġpro blems
ĠMon mouth
d el
ri ac
ant i
Ġcran ium
yl ums
Ġs r
ĠPra ise
Ġthought less
Ġgloss y
Ġfo on
Ġs ot
Ġ36 8
Ġpeasant ry
Ġri ous
ĠPh osph
ĠS ONG
Ġex s
u ates
Ġsl ough
Ġgrad uated
ate au
hold er
ĠV ie
Ġrob ber
ch urch
Ġa vert
ĠR ain
Ġp od
Ġfac ing
: "
ĠB ew
Ġnot with
Ġpres iding
; -
Ġacqu itted
Ġaw l
ĠH ON
ĠJ oe
Ġrespon se
an za
Ġsacr aments
Ġbre eds
Ġpl undered
Ġpolit icians
ĠT ables
ci pl
Ġspect rum
ĠK l
ĠDix on
Ġcaus a
âĢĶ "
Ġparoxys m
Ġenjoy s
ĠBOO KS
u ities
pl aces
ĠR ol
be e
Ġ38 4
Ġaffirm ative
ĠB is
Ġr asc
Ġfom etimes
Ġwreat h
ĠAr n
Ġs ord
ĠJ ess
ern ing
Ġpro fic
ĠMas ters
Ġpar ap
Ġbl ister
Ġcommand ers
Ġtant um
cell s
ĠD ied
Ġconst ip
Ġ188 3
ĠS ow
t was
Ġsh ady
az ed
Ġdepra vity
Ġra ck
LE CT
Ġ40 7
id it
ĠNew man
Ġy r
Ġ40 4
ĠS KET
Ġexec utors
Ġ4 12
ition al
Ġaux iliary
ill us
Ġorigin ate
Ġpo res
ĠL ith
Ġgracious ly
AR S
B O
ĠN ero
ĠSpe ak
to o
Ġp ug
Ġso othing
Ġrebell ious
Ġglob ular
ro ve
Ġlad der
Ġcheer fulness
Ġh an
Ġmak eth
ED S
al ys
ĠCovent ry
if es
ĠOF FIC
Ġsol ve
ĠGra ves
Ġstead fast
Ġsh attered
Ð ³
ĠC ell
Ġweight y
ount ed
Ïģ Î¯
W est
et ed
ces tershire
Ġsign ifying
Ġnarrow ly
Ġdef y
Ġdev ast
Ġ40 8
Ġ188 4
Ġanteced ent
ĠBran ches
ĠM AC
Ġ36 2
ĠCap ital
) ^
ĠH az
ĠL AB
ĠPhys ical
ĠEngine ers
Ġ37 7
Ġillust rating
Ġuns peak
af l
ĠLe ft
Ġgr inding
Ġnot or
ĠItal ians
Ġequ alled
ĠV iv
ĠGen oa
Ġpersever ing
Ġt ir
Ġ189 1
ĠP ack
Ġterr ific
Ġf ost
Ġbut ton
/ *
e il
Ġcont ention
Ġdest in
ĠV ent
col m
af ure
co very
n ame
c st
ĠMat th
ad j
o ides
Ġmark ing
ĠE b
Ġneighbor ing
Ġsyph ilitic
n st
Ġcompl iments
Ġres ides
Ġter race
ĠH ither
ĠD ieu
m u
Ġund ers
Ġmanufacture r
ĠT ABLE
W ho
Ġret ort
Ġloc ated
Ġsp y
ĠWhite hall
Ġchar ging
ĠP p
ĠNurs ery
Ġo om
Ġ38 8
ĠFreed om
Ġbeg ging
Ġdeal ings
ĠTREAT MENT
Ġc ite
Ġcred itor
ĠHam let
Ġprotect or
Ġco oking
c ri
Ġtra it
I d
ĠEu ph
ĠTHE IR
Ġuf ed
ĠPharm ac
Ġreal ms
Ġapople xy
Ġutter ing
ĠAst ron
Ġsp asm
ĠAust in
ĠCl ara
ĠPhilosoph ical
Ġstamp ed
erv ation
Ġbeg g
ĠPop ulation
ĠSax ons
oc he
Ġtransverse ly
uv ian
Ġdet ain
Ġ ions
IV ER
io res
Ġbul bs
ĠMOD ERN
Ġhard ships
S r
Ġlo vel
Ġtr om
ĠF ut
Ġling er
Ġparticip ation
ĠDe us
Ġf anc
ĠD EL
ord inate
E t
M a
ĠC ame
ĠP is
ĠSom ething
m akers
H is
li p
Ġclim bing
ĠR uth
ol ite
Ġpe cu
Ġpro pe
ro ot
fe c
Ġver ified
ocr ats
Ġlud icrous
ĠSPIR IT
Ġpossess or
Ġ188 7
Ġad oration
ĠMem orial
et erm
Ġforef athers
RO P
Ġfoll ies
ĠA us
and ing
IC ES
Ġp ushing
ĠSh ar
Ġunivers ities
Ġab ounding
I AS
Ġrefresh ment
et i
Ġwas ting
mas ters
ĠESS AY
Ġpr isons
Ġhar b
Ġ40 3
ĠCOM MON
Ġspeak ers
Ġli kes
ĠVoy age
U EL
Ġ37 9
Ġpos i
ROW N
Ġde e
ĠJ L
Ġpreserv es
Ġcerv ix
Ġsew age
Ġw ou
Ġstimul ant
Ġsu fl
Ġ; -
Ġspe nding
AR K
Ġn ymph
ĠS g
ĠOT HER
Ġtend ons
ha el
orr hoea
at y
Ġ37 8
Ġmass acre
nt s
Ġple ading
Ġdet ection
ce le
Ġte en
am bo
ĠPer ry
Ġt iles
ĠG RO
ĠNO V
ic u
ĠM B
Ġt rench
Ġpar able
Ġm ined
Ġcomp uls
ĠPRINC IP
at en
Ġdischar ging
ert ation
Ġext inction
Ġstand ards
ĠKnow ledge
s im
Ġl Ãł
il ium
int ing
Ġpar ade
Ġcal ves
Ġincomp atible
ĠÏĦ á½°
as ions
ĠPier re
Ġout break
ĠGos pels
Ġ38 3
Ġfragr ance
Ġpresby ter
ĠO H
id ad
Ġl ag
Ġfore see
Ġsli pped
Ġh s
ĠC ay
Ġinfirm ity
Ġwe ed
ĠCOL ON
Ġ177 8
Ġform ations
Ġact ively
en za
ĠI on
ER A
ir g
Ġa ussi
ĠP he
ĠA H
ĠEstab lishment
Ġ37 2
Ġh art
Ġdev iation
Ġ37 6
Ġmathem atics
ĠS ul
Ġsequ el
ĠPoet ry
Ġa or
th r
Ġcontro lled
ĠIllust rated
enn is
Ġqu os
Ġcrim inals
Ġb its
av i
Ġte aring
Ġmartyr dom
Ġfamiliar ity
Ġaff irms
ĠOr th
Ġunac quainted
Ġ4 17
Ġy a
Ġwh iche
Ġsubst itution
ĠSud den
Ġsal aries
ĠLamb ert
Ġobliv ion
Ġdi pped
Ġex ch
ĠLI VER
Ġ4 18
Ġprosec ute
S l
Ġh j
Ġqu inine
Ġax es
Ġil ia
Ġfor amen
Ġil iac
ĠR on
Ġpatri ots
ĠIn cre
Ġout let
ĠL af
Ġsubsc ribe
ĠC AMP
ĠNich ol
ĠD oc
Ġgrowth s
Ġbew are
Ġlymph atic
ĠLAD Y
th ought
Ġinf idel
Ġju ven
Ġfl ut
Ġfaint ing
av our
Ġvict or
C A
ps ia
ati ou
ĠC X
ĠI xx
,' *
ĠF OUR
Ġtel escope
) âĢĶ
Ġra cter
\ -
f ire
ĠR ese
Ġconfident ial
Ġantagon ist
Ġrel a
ĠJ r
Ġnoun s
Ġtr icks
ĠOff ices
Ġscript ural
Ġprop osing
Ġject s
ĠShrew sbury
Ġb unch
qu ence
s n
oise lle
Ġperson ages
ĠPem broke
Ġmotion less
Ġ178 4
Ġá½ ĥ
Ġ4 19
ĠDav y
p ose
ĠP ASS
Ġfore told
ĠA Y
b ath
Ġcommission ed
Ġman agers
com m
ĠP AL
Ġla un
oth orax
Ġprot ested
Ġâ ĸ
ĠS yr
ĠPet als
ĠP our
ĠAnge lo
erm is
Ġer ud
ĠPRE FACE
E IGN
p ires
Ġun be
S W
au b
ĠÏĢÏģ Î¿
R ev
Ġinterm ittent
R ES
Ġdiv orce
ĠE tr
Ġ39 5
ĠCow per
ĠB EN
ĠN i
OW N
VI EW
ĠM are
ĠScot ia
ou re
ĠE UR
Ġcould n
v ine
pl i
ick et
Ġp se
ĠJ UL
Ġstru ction
Ġ48 0
Ġhe a
et on
Ġdig ging
ĠPop ery
Ġfast en
Ġn ity
b ie
ĠPot ter
Ġimped iment
ret ions
AND ER
Ġterrest rial
Ġvic iss
Ġj a
Ġcount s
iss ime
Ġdem ocracy
Ġconvers ed
Ġexcess es
Ġerys ipel
Ġsuper ven
Ġdivide nd
Ġpostpon ed
Ġge ography
Ġrich ness
Ġbarbar ians
s ided
Ġstern um
Ġd otted
Ġw old
ĠC ere
Ġreckon ing
Ġstra gg
il ine
Ġst ony
ous se
Ġsecret ed
Ġgro ans
Ġinsult ed
t in
ILL S
ĠBuild ing
ĠH ALL
Ġst ump
Ġeduc ational
ĠRoc he
ĠTown s
Ġec st
Ġintrig ues
ros is
Ġdistingu ishes
ĠTheod ore
Ġcl ar
ĠLe ith
Ġball ad
T was
ĠTh ro
Ġpartic u
ĠRICH ARD
Ġth rive
Ġrheum atic
vo ir
ĠH ale
ĠJ ur
ĠSk r
AM IN
d ly
Ġend urance
Ġed ifices
Ġro pes
ĠHyd ro
W here
AS GOW
f il
Ġn ae
J uly
Ġhed ges
t ie
ĠB olog
og any
Ġdet riment
ĠAnn als
ĠPtole my
o cy
Ġimp ot
ĠAs k
Ġbaron et
Ġemploy er
M rs
Ġwat ches
Ġd m
Ġrecess es
ĠB om
Ġdesign ate
Ġ42 9
ĠStep hens
oph on
erm en
Ġadjust ment
ĠB IB
Ġsoft en
Ġinse parable
ĠVolta ire
ĠArt illery
ĠP ic
ĠBe lle
Ġ177 4
ĠM AL
ĠH ail
mark ed
Ġlecture r
Ġ4 16
ĠSal em
Ġc uring
ĠM ARY
Ġc oup
Ġsu ed
ific ate
Ġ! )
ĠAfter wards
rim on
Ġbeque athed
M O
Ġclust er
Ġaccompan ies
ess ors
e rent
ar ii
Ġmove able
Ġbear ings
Ġn aught
ĠMem oir
Ġobstin acy
ĠSu nder
Ġenlight en
Ġhypoc risy
Ġl ir
ĠL ux
ĠT oul
Ġdef erred
Ġpor ch
Ġed ged
Ġ4 13
Ġtest ified
Ġda res
ĠPompe y
ĠN ation
ĠE ST
je ant
Ġhe ath
or bit
ĠTh anks
ĠS aid
ag re
Ġpet iol
Ġtars i
f ering
UC K
ĠLe igh
ĠOrig in
Ġman uf
ĠColer idge
ĠBuild ings
ĠJ UN
Ġhope ful
Ġincl inations
Ġcontempt ible
Ġapprent ices
Ġret ention
Ġpe rennial
ĠÎ ¤
Ġ177 7
Ġaus pices
Ġbe in
Ġfo am
Ġplan es
Ġattent ions
Pres ident
ĠT rees
Ġinform ing
ĠCav al
Ġconsecr ation
Ġcogn iz
Ġsn are
Ġg arr
Ġw ield
ON ES
ll an
ĠP ure
ĠK ind
Ġo ars
Ġp ied
Ġc ession
Ġstub born
ah n
Ġ190 7
ĠNAT URAL
ĠB orn
ĠCo ke
ĠFar mer
com b
ud er
Ġsome how
ham pton
Ġ38 6
Ġlif etime
ĠPow ell
ĠUnfortun ately
ĠS ave
ĠH ector
Ġdissol ving
Ġ40 2
Ġint repid
ĠCOMP ANY
ĠAm y
ĠCate ch
ĠCust oms
Ġfresh ness
Ġadmire rs
Ġap ice
Ġexhib itions
Ġdist racted
ĠHer b
Ġrepe aled
Ġfisher men
Ġhun ters
ĠThe oph
J t
Ġto me
Ġ40 9
ĠGer ald
Ġmerchand ise
Ġam iss
Ġhabit ations
r ators
Ġ^ "
ĠC inc
ixt ures
ĠM AD
Ġm l
ĠAr sen
ĠShe ep
A p
od on
ĠRAIL WAY
,* *
b ird
Ġdu cts
Ġfront iers
Ġ39 1
Ġappe nded
wer p
ĠMer chant
ĠOp en
L a
Ġre he
iac al
Ġpuzz led
Î» Î±
Ġdimin ishes
ĠBrit ons
Ġpred icted
Ġpar ad
ĠMe et
ĠStand ard
Ġ38 9
Ġw ir
c os
UR DAY
ĠWhere as
ĠBart on
ens on
Ġc ren
SH IP
ĠW M
Ġerupt ions
Ġsp ray
ĠFR ANCE
Ġp ints
Ġever more
ĠÑ ģ
Ġ188 9
ian i
Ġaff ec
ĠPe ar
Ġbi ographer
st able
Ġgot ten
Ġv u
Ġpas se
Ġ188 0
Ġball ot
Ġra is
Ġpur ging
ĠN ations
ĠD up
be en
ge al
ĠDes p
er ver
at os
Ġcapit als
Ġs ii
Ġl s
Ġintr insic
Ġtok ens
ic est
Ġn ent
Ġpyram id
r ified
ĠCh and
Ġcur iously
Ġrepair ing
Ġfe in
T n
Ġb ait
Ġdep rec
Ġm ull
Ġref uses
Ġbab e
Ġin acc
Ġmor occo
Ġb racts
uch y
Ġobliter ated
Ġpe rem
Ġinf ring
Ġsc ribed
k m
Ġl ava
ĠC unning
Ġwil ful
Ġjump ed
Ġlo af
Ġp als
ain st
ang ers
Ġsus cept
ĠD uck
Ġne ural
ou m
'' '
j en
ĠSt a
ĠG ates
Ġun ique
ple nd
ĠD il
er os
ot is
Ġhold ers
RE W
ĠL aced
ll is
Ġinter cession
Ġadvert isement
Ġlabor atory
Ġl ite
ĠB ET
^ "
Ġlib el
ĠAT T
Ġde als
Ġr ider
Ġse ren
Ġf ade
ĠD iod
Ġer rand
an ter
Ġcongrat ulate
Ġvigor ously
Ġt aining
ore a
ĠHam pton
Ġtheoret ical
Ġrecept acle
ĠLect ure
Ġit is
ĠN em
Ġmars hes
in to
ĠD iana
Ġm int
ĠW IN
ĠBr itt
Ġfu per
Ġconj ug
ĠPR IN
oug li
ĠCount ies
Ġhay e
Ġlust s
ĠKenn edy
b ott
x it
ab y
ĠCyr us
Ġacc ents
as us
os ures
Ġrecomp ense
ĠC C
Ġembarrass ment
f et
ĠP ig
7 00
ce nding
Ġcater pill
Ġdra ins
ĠBrother s
Ġt ens
u us
Ġhu jus
Ġpen is
Ġprince ly
ial is
Ġdiscl osed
ĠB ury
Ġmal icious
ĠPS ALM
Ġdisturb ing
ĠSher idan
ĠL d
Ġvind icate
ĠEn cy
aunt on
om o
Ġab ated
ĠHel ena
y o
Ġto a
Ġm att
Ġsub urbs
ĠORI GIN
Ġper verted
Ġ189 3
rie nd
bl ood
Ġine ff
.... ..
ĠPil gr
Ġr ushes
f is
ĠP UR
Ġen ch
Â ¥
ĠW et
Ġj elly
Ġen velope
Ġc ious
iss ance
Ġthe ft
.' ]
Ġproportion ed
in el
l oc
Ġ178 1
Ġt ue
Ġloose ly
Ġ188 1
ĠR un
Ġmod ify
Ġ39 3
ĠRh ode
Ġsever ally
ĠED UC
pl ish
ÎŃ Ïģ
Ġwarm est
ĠT ong
ĠCuv ier
Ġcard iac
ĠSc and
ÏĥÎ¹ Î½
f ri
Ġsp urious
Ġscru ples
ĠSaund ers
Ġfl ushed
Ġhar ness
Ġdemand ing
ĠB irth
ĠCAT ALOG
Ġpl es
ĠMar ine
Ġveter an
Ġ( )
Ġgl anced
Ġci ples
ĠCh as
ia a
Ġfront al
ĠBl air
Ġerect ing
Ġindefatig able
Ġdis a
Ġdeal ers
orm s
Ġm h
Ġu b
Ġir r
Ġinvari able
Ġ40 6
ab a
li an
Ġfor so
ÏĦ ÏīÎ½
Î® Ïĥ
Ġshe pherds
ĠE ither
Ġastring ent
ou a
ĠN atur
Ġmater nal
ash a
ai u
Ġign o
Ġvene real
ĠAm az
ipot ent
ĠT ory
Ġoblig ing
Ġempt ied
Ġwh ist
ĠM am
iss on
Ġun ce
ĠBurn et
de ll
it ants
S j
Ġt ier
Ġgu inea
Ġagree ing
Ġra gs
Ġchar med
UR Y
ĠCai ro
I ATION
Ġshort est
ĠO i
Ġ38 2
ĠTH IS
ge nd
. /
Ġde ft
Ġimpuls es
ĠGO VERN
ot te
iv an
ĠBot an
Ġv if
Ġgl are
ĠUN ITED
ĠCard iff
Ġfiss ure
Ġelev ate
Ġproxim ity
IC S
ĠCla ude
Ġch ick
ĠOR DER
Ġb ug
Ġa ids
Ġm oun
Ġfor lorn
Ġflat tered
Ġu u
Ġpet i
st own
it ous
ĠOx on
Ġunavoid able
ĠC ato
a ith
ĠMe nd
Ġunb ounded
ĠBer ry
Ġconf irms
le ad
ĠEm press
O I
ran e
Ġdial ogue
ost e
Ġind ucing
Ġtrans cend
ĠL Y
IN ARY
Ġ39 7
t it
Ġimper ative
Ġi w
ĠApp le
ĠJude a
Ġent ries
f aced
Ġu v
he w
ch air
ĠRe al
ĠO w
ĠY ORK
Ġport ed
Ġc ated
Ġj unct
OT HER
ĠS AM
ip pe
ĠR aw
Ġpedun cles
il ised
Ġr on
Ġthere from
ft ion
cut s
ĠJ ury
Ġsy s
Ġobject ive
ĠP OR
XX X
Ġman ip
ĠPort rait
Ġab yss
Ġdesign ation
. _
ĠK id
ĠGr ass
Ġlovel iness
urd y
Ġem ol
ĠW er
Ġcl ubs
ĠL ives
Ġgun powder
Ġconf ided
ien ne
ĠSt ri
Ġpron unciation
Ġbu oy
Ġcan n
OS ITION
Ġfrank ly
s ized
Ġden oting
Ġfond ness
ĠL AST
Ġconnect ions
Ġely tra
Ġrub bish
ĠK ee
Ġfoss ils
Ġpurg ative
Ġliber ated
Ġo sc
oug hed
á¿ ³
Ġvac ancy
Ġm und
Ġscal p
ra b
Ġform a
Ġdef c
Ġcam els
ĠPed ro
Ġb ales
Ġty rants
ĠCorn elius
ĠAr ctic
ĠQUE EN
ĠCan ning
ĠDem ost
it ius
ĠG arr
ĠR um
Ġplex us
ĠT b
Ġirrit ating
ub b
Ġ190 6
Ġch al
ĠV ene
ĠGRE EN
* )
Ġamp utation
Ġany one
ĠBr ough
Ġli k
Ġsleep s
Ġall usions
Ġfi at
om bo
Ġthanks giving
Ġhigh ness
Ġsust aining
Îµá¿ĸ Î½
Ġcon text
Ġw agon
Ġexempl ified
at if
Ġbr oth
Ġfl ux
ĠW ald
Ġmut tered
ĠSo cial
Ġ43 5
Ġess ays
Ġlumb ar
Ġ; )
Ġthor acic
Ġhospit able
ĠP ater
ĠSo ft
Ġ188 2
qu el
Ġdet erior
m ad
Ġtra verse
ĠK el
Ġverd ure
Ġab l
c ct
Ġrough ly
ĠHOSP ITAL
Ġpat hetic
C HE
Ġp ected
Ġfact or
Ġproportion ate
j y
Ġann iversary
Ġcontract ing
Ġmas cul
ĠA a
AR R
ĠJ oint
p ret
Ġtax ed
Ġobstru cted
Ġsemic irc
Ġencl ose
ĠSER V
Ġperf ected
Ġindol ent
ĠRE AD
ret ur
Ġincident al
Ġfor k
ĠEstab lished
ĠEd gar
h d
Ġprom ont
. }
Ġnu isance
Ġstr atum
Ġlament able
Ġprop ensity
Ġid em
Ġl oth
Ġcalcul ate
en ance
Ġh l
Ġgu er
Ġgl en
Ġing rat
Ġatt ire
ĠDra w
Ġlad s
ĠBu on
m ong
Ġf ict
Ġad ieu
ĠL ost
Ġunexpected ly
Ġcor k
ĠSar ac
Ġb rows
ĠFR ENCH
ĠCh olera
v at
Ġsuperintend ent
Ġbu ying
ĠM ann
o ed
Ġt ect
Ġwin ch
er b
ĠCA US
c op
Ġde ception
Ġha iled
Ġforeign er
as hes
Ġe en
qu ently
Ġreserv oir
art ic
Ġunderstand s
CH AP
ĠGood s
ĠFlore nt
ĠT ract
ĠA ure
ĠH IGH
ac li
Ġbig ot
ĠCelt ic
C N
Ġcontradict ory
ĠIR ELAND
ĠAnt werp
ĠBet ter
Ġf ren
per al
ĠV id
Ġal o
Â» ,
ĠPL ATE
Ġdra gon
yl us
ick le
Ġb anners
ri en
Ġlux urious
Ġcomplain ant
Ġch aff
Ġgre ate
omb re
ĠF ast
Ġ39 9
Ġ187 8
f ashion
ĠDr s
Ġweak en
ĠIce land
Ġpre pond
Ġes set
Ġund es
Ġft ill
Ġm one
Ġles ions
Ġpurch asing
Ġavo ir
Ġs ighed
ĠCra ig
ĠBohem ia
ĠR ale
Ġunder going
11 0
Ġthe j
Ch ar
ĠPer iod
Ġnot icing
ii er
ĠUe ber
Ã© rie
Ġhelp ing
Ġstrugg led
Ġf aster
od o
Ġbuild er
Ġur inary
E P
ĠRo ot
Ġtransport ation
ĠDecl aration
t te
igen ous
Ġfr i
Ġadmir ing
Ġsurv iv
Ġra ven
im an
Ġroyal ty
Ġ189 8
Ġman gan
se us
LE G
onn ected
ht her
erv ing
Ġreign ing
Ġimp or
Ġins ight
Ġaff id
ĠAG AIN
Ġqu ent
Ġins urance
ĠMal colm
ĠCleve land
Ġann ouncing
ne as
Î¯ Î½
ĠApp ly
Ġ44 5
v oy
R ED
ung s
Ġco ars
Ġill s
Ġund one
Ġschool master
Ġinve ter
Ġed ict
ĠTe legraph
Ġclean se
ĠF resh
Ġpolit eness
Se pt
Ġrevol ving
Ġcree p
ĠCHARAC TER
c up
el ior
ĠCON D
on ly
ic er
Ġspoon ful
Ġgener ic
Ġho oks
ĠAff airs
Ġ187 6
Ġflo ors
ure n
Ġimp osition
Ġwol ves
estab lished
J une
Ġt ank
ric s
Ġban ish
Ġit i
Ġca pe
Ġanim ation
res c
ĠTra ve
Ġconceal ment
Ġassign s
ph i
ĠQu id
st al
ĠC es
Ġme nded
ĠAl ong
L i
Ġd f
ĠF ill
Ġpl ung
Ġdisreg arded
Ġconf ider
Ġtoler ation
Ġcur ate
Ġvill e
Ġj ub
ru gin
Ġfi om
Ġa wn
Ġsw ine
ĠLa ura
Ġcommend ation
ens ities
fl ies
Ġfever ish
AN GE
Ġm am
Ġburg h
Ġsorrow ful
ĠHert ford
Ġinject ions
ĠV ert
Ġqu itting
Ġabomin able
Ġple ura
m ast
ĠLiter ary
Ġdie m
ĠLamb eth
ĠSt ory
ĠREP ORT
in ion
m em
am ations
Ġche ered
J J
Ġun sc
Ġun lo
Ġadject ive
Ġbenef ited
che on
Ġflatter y
al ty
o ves
est on
mo ft
Ġstim ulated
Ġus que
Ġgang rene
Ġc ially
Ġ43 1
cip ient
ĠM ult
c ss
ĠI ps
ĠIns urance
- :
Ġso res
Ġinterp osition
Ġe om
Ġconf ines
H O
ĠWil kinson
ĠThe fe
ĠD ante
ed a
Ġl ence
.' "
Ġamend ments
eth yl
Ġarray ed
o ct
Ġrhy me
ĠA vere
ad ia
Ġdesp atches
; âĢĿ
Ġcam phor
Ġpred ict
p oss
F T
Ġv ocation
ĠW atch
ĠR ip
Ġwork house
ĠDisp ens
Ġch ant
ĠN ash
Ġserv ile
im al
ĠBav aria
Ġin ac
Ġgeneral ity
ĠD w
ĠDar win
ĠL oth
ĠM ight
Ġ42 1
Ġproportion al
Ġdisp atch
ĠMer cy
Ġstrengthen ing
ific a
Ġstro kes
Ġmonarch s
Ġn ets
Ġenqu ire
Ġfar ming
ĠMax well
ĠJo an
ĠR ue
ĠS ag
Ġg es
Ġchival ry
ĠF alls
Ġten ets
Ïģ Î¿
ÏĦÎµ ÏĤ
m ur
Ġf iled
Ġmur iatic
ĠOft en
Ġprecip ice
p ath
Ġlast s
Ġhum bled
Ġdegener ation
Ġpur ify
Ġdenomin ations
Ġdiscoura ged
e xt
Ġgro cer
Ġperfect ions
Ġex emption
Ġinf ernal
law s
Ġinstinct s
Ġj r
Ġdepart ing
ac ia
K i
appe ar
Ġre pel
Ġab ort
Ġ39 2
Ġa verse
it re
Ġt iger
r ude
inal is
man uel
Ġinspect or
BUR Y
ff ion
iss ent
on ica
Ġ190 5
ĠASS OC
l ib
Ġl ach
Ġbe an
ĠG ur
P LE
ĠPe arson
ĠM ord
Ġexped itions
Ġproud ly
me aning
Ġrout ine
Ġflag s
l obed
M n
Ġn ate
ĠSpe ech
Ġcl over
m ens
ig i
VER Y
IF IC
ĠÎ¼ Îµ
Ġfil iform
ĠCAS ES
ĠRelig ious
Ġtor ch
Ġbund les
Th omas
Ġforb ids
a L
Ġad herence
Ġlo v
Ġaffl ict
ant hem
Ġj t
Ġwood ed
Ġamaz ing
Ġd ers
Ġt ention
ĠS le
Ġsqu ire
Ġnarrow ed
Ġcle ft
ĠIN C
Ġmor ally
ĠLand s
U d
; )
ĠV eter
ET T
Ġkn ives
Ġarr anging
nut s
Ġequ itable
ĠPr ime
ĠW ife
Ġmer ited
Ġcomfort ed
Ġho ary
Ch ap
Ġfr uct
ĠF ir
ĠSc he
Ġperf ons
Ġen amel
U ARY
ĠPl ain
Ġb ary
Ġindu ction
Ġ190 8
Ġb acon
P I
' ]
ult s
ĠCorrespond ence
ĠJoseph us
ĠWhere ver
ĠR ing
ĠWol f
Ġcapill aries
Ġ39 6
Ġ46 0
ATI NG
Ġoffend ers
Ġ190 9
ĠLy on
ost om
ĠJud gment
p ra
Ġ43 8
if ter
Ġbr ink
ĠPAP ERS
ĠAl c
ĠPRO V
Ġancest or
Ġexp re
ĠAnge ls
Ġperem pt
Ġh od
Ġneut r
Ġimp air
Ġexplo its
Ġtrans it
on c
Ġto d
Ġbe ats
Ġsl ugg
Ġdiscont inued
y an
r ion
ĠF ancy
Ġpot ato
ĠSte el
ĠPre face
Ġt ical
Ġso fa
ĠLincoln shire
Ġcap rice
Ġfin ishing
Ġ187 9
Ġcond i
Ġsepulch re
Ġl ucky
Ġpal pit
Ġdisple ased
w ig
ĠAr ound
ĠB ail
i ates
Ġpreced e
l us
Ġdispl aced
ĠP ee
Ġgallant ry
( '
Ġdr ill
Ġlaud able
ill ie
Ġkn it
Ġn ary
Ġ189 7
Ġwhoso ever
is ch
Ġineffect ual
ĠLe op
Ġfant astic
ĠA rund
Ġinsol ent
ĠB ush
Ġsec urities
ĠMel bourne
Ġomn ium
ĠP and
Ġv p
O ne
Ġar b
^ )
Ġwholes ale
Ġembarrass ed
Ġmer itor
Ġnatural ist
ĠWe bb
ĠI F
Ġequ als
Ġattent ively
ĠBour bon
Ġsp herical
Ġmar quis
Ġho e
Ġbus i
Ġco cc
ache lor
B LE
ĠMid land
ĠQu art
Ġe af
ĠC ir
Ġinit ial
ruct ure
Ġstay ing
Ġjun ior
ĠHigh lands
ĠKnight s
Ġri ve
ĠB ang
Ġl n
ĠAU TH
right eous
Ïħ Î¼
Ġpartis ans
Ġindol ence
ĠDe aths
Ġpe nding
ĠC d
Ġch ased
Ġ189 9
Ġalt itude
Ġput re
ĠH OME
occ up
Ġflex ible
Ġgrasp ed
p enny
ĠRes ident
ĠTIM ES
Ġmeas les
Ġcal cium
ran eous
Ġconc ord
Ġpe ep
ĠEx erc
t op
ĠAd el
Ġcool ed
ĠHaw kins
id ays
ĠSiber ia
P o
ĠS IM
Ġbr ittle
Ġp iano
es bury
Ġbarra cks
J E
ind le
Ġdef ensive
ĠHar bour
ian th
Ġsat ir
ow l
ĠO ats
Ġun gu
char ge
at ement
ĠHer o
Ġmedi ately
ĠW ES
Ġ39 4
ĠC yn
Ġtem ps
Ġsp heres
u all
Ġfalse ly
ĠC aste
Ġra nd
Ġdig ested
Ġnut s
Ġor ch
Ġ19 10
Ġinsurg ents
g reat
." '
Ġbirth s
am ble
ĠÐ ¾
Ġco i
ĠRh od
Ġtheat res
Ġinsol ence
ge m
yr inth
Ġpar ch
aint ing
ĠFRI END
Ġcred itable
Ġtick ets
Ġaz ure
Ġungr ateful
Ġd rows
Ġlet s
Ġfil tered
io c
Ġ190 4
is che
S ch
K e
Ġfi ir
Ġpar amount
Ġuna ffected
ĠJ ay
pend ous
ĠR ivers
ĠHonor ary
Ġintemper ance
Ġst ables
ĠP od
ie y
Ġpor celain
ĠHod g
ĠCH IL
Ġped ic
ĠDrum mond
G EN
Ġpres ide
Ġperm itting
Ġprec arious
Ġmould ed
Ġcruc ifix
Ġbrave ly
Ġii j
Ġmount ing
w orn
ĠM ow
Ġpe e
ĠRegist rar
Ġhistor ic
ff i
Ġpl anned
Ġb um
Ġwith stand
ĠF ell
Ġis a
Ġal oft
ern ation
olog ie
ĠL ich
Ġdis o
Ġspect acles
ĠO o
ĠA way
aj or
Ġcurv ature
om ac
Ġ... ........
ĠD im
Ġmyst ic
Ġhallow ed
ati ents
Ġclot he
Ġdepra ved
ut um
Ġtest ator
Ġmel ts
ĠG ust
Ġxx ix
Ġdu ck
Ġnutrit ive
Ġsp h
Ġtransl ations
ĠConf ession
Ġstill ness
Ġemb assy
Ġm ound
ĠEle anor
Ġ39 8
Ġdent al
Ġclean ed
Ġw T
ĠColl e
ub arb
ĠV est
Ġbrid le
ĠMan or
ĠAR M
Ġcurt ains
P er
ast ly
Ġart is
ĠD ou
Ġartic ular
Ġantiqu ities
Ġd agger
Ġconvuls ive
Ġpig ment
Ġdexter ity
Ġde ities
AIN S
ĠM ang
Ġsuperv ision
n ii
Ġign omin
Ġ43 3
Ġult ra
Ġkn elt
ĠBark er
Ġmin st
Ġneck s
Ġrupe es
Ġconvers ing
ĠLab our
Ġungod ly
Ġatt ested
ĠB og
Ġim pending
ĠSpirit ual
Ġ178 6
Ġoutl ines
ĠSix th
Ġ42 8
ĠS UM
Ġknow eth
Ġpurs uance
Ġmal adies
ĠP OT
AL D
Ġsh ipped
ĠM og
Ġgr am
gram me
ĠÏĦ Î±
er ant
en ched
: ;
Ġacknowled ging
Ġp is
cl ing
Ġar ight
Ġdev oured
ĠJ j
Ïģ Îµ
Ġscroful ous
pr om
Ġcloth s
ll us
ĠDam asc
Ġse wer
pect ing
ri ves
Ġdeb ates
Ġtestimon ies
Ġhe x
Ġtrust s
Ġtransgress ion
Ġmind ed
Ġs ages
U ed
ran ch
Ġinter red
ĠSCOT LAND
U F
ĠBre thren
ĠBeaum ont
Ġfe en
Ġind igo
ĠEll iot
Ġcrue lly
ĠCinc inn
Ġvertebra e
it age
ĠO wing
ĠAnim als
ĠR he
Ġl inks
well ing
ĠCar penter
Ġrestrict ion
Ġexhort ation
ĠR ush
Ġmol est
Ġrebu ilt
ĠAb yss
EN ING
Ġhe ark
Ġcapac ities
Ġon o
ide a
Ġrepuls ed
Ġreg al
ĠJ UD
g ie
l ob
Ġh og
art y
Ġim pelled
Ġindivid ually
ĠThe ory
Ġcomm is
Ġill us
Ġfero cious
Ġcompuls ory
Ġsurvey or
Ġora cle
ĠExped ition
Ġexec uting
Ġpain fully
Ġmon astic
Ġclasp ed
Ġste er
ĠVal er
Ġinv ig
ĠStra bo
Ġinoc ulation
Ġrep aid
ĠGer ard
Ġbatt alions
Ġsnow y
at c
Ġhe y
Ġabst raction
ĠDomin i
ĠE FF
J O
l il
ad onna
Ġex pel
Ġsen seless
Ġsubserv ient
c ame
Ġtempt ing
Ġcourt iers
Ġpist on
Ġo ce
Ġ45 5
ĠSunder land
cr t
Ġcoron er
Ġbl amed
Ġ189 4
Ġdisp atched
Ġfil m
ĠEd ith
ĠCr us
ĠIntern ational
Ġdec ency
Ġhep atic
ĠS ECT
- )
Ġunse ttled
ce nded
ĠBax ter
n p
Ġuncom fort
ĠCath arine
A y
rupt ion
ĠConst ance
Ġconver ting
Ġamaz ement
Ġappoint ing
ĠÏĦ Îµ
Ġnatural ists
Ġqu an
ĠThird ly
n re
Ġaccord ed
Ġvarieg ated
ĠRevel ation
Ġal ba
Ġoverlo ok
Ġmean est
Ġencl osing
Ġmini ature
Ġinc is
Ġ42 3
ĠV et
Ġdep ortment
L S
Ġla ity
Ġexh al
asc ar
ĠAU G
Ġgran ules
ĠB UT
Ġbr istles
ĠAt he
Ġleg ion
Ġpresc ribe
aceut ical
Ġmetaphys ical
Ġdazz ling
Ġmeasure ment
res se
ĠN iag
h art
Ġg ree
Ġe ag
Ġ43 2
Ġpl ank
ĠSee ing
p ound
Ã §
Ġhe en
Ġde ll
Ġprom inence
ĠComm union
Ġstock ings
Ġillum ination
Ġassur ances
Ġc ory
ab ilis
Ġret ail
Ġmar ches
ĠMan ual
Ġag encies
Ġfil ial
ach a
Ġw her
ĠCam eron
a illes
Ġfest ivals
Ġunacc ount
ĠSAT URDAY
te i
ute ous
Ġ42 4
ot er
anth us
ĠFle ming
Ġmurm ured
Ġu o
ĠN ice
Ġth air
ic d
ĠWest on
ĠM uss
ins i
Ġph leg
Ġv ation
Ġá½ĳ ÏĢ
Ġh ove
ur c
ii it
Ġas per
Ġcost a
Ġam elior
ai k
ĠS IX
ĠPA UL
> '
ĠÏĢ Î¿
ĠNew found
em oiselle
l ng
Ġw u
Ġencl osure
ĠS ut
ĠXX IV
ĠProv ost
or ie
Ġingrat itude
Ġi L
Ġunpro f
Ġunlike ly
n ar
Ġunjust ly
ĠR ib
e el
Ġt ke
Ġsp urs
Ġhei ress
l og
Ġdri ves
Ġtur bid
Ġcons igned
Ġquart o
Ġcom ic
Ġc ore
ĠGold smith
e ly
ĠL ater
rugin ous
ĠV io
ĠBr ide
Ġp ins
Ġ177 0
Ġun married
Ġpurpose ly
OM S
ĠP EN
Ġorgan ised
ĠC LE
Ġ] \
ĠCarth ag
BER T
Ġbust le
Ġis n
i ig
ĠE LI
A rt
Ġint ricate
ĠA verage
ĠCh i
Ġrit ual
Ġendow ments
Ġman ia
Ġj ung
Ġs g
.... .
Ġlic ensed
b uch
.) ;
Ġopp o
z el
Ġawait ing
ir ons
Ġr ue
) )
Ġ44 9
ĠC b
ĠDan ube
Ġde h
v ard
Ð ²
ĠCarth age
ĠJ ES
ĠNe ed
L A
Ġ43 4
Ġje well
g ive
af es
Ġmetropol itan
Ġ187 7
Ġvanqu ished
Ġconf ed
ĠÏĢ Î±
Ġ ert
Ġb f
oss al
ĠRE F
Ġshr ill
Ġc aves
Ġxxx ii
Ġannoy ed
Ġlady ship
ĠExper iment
S P
Ġn ia
Ġim a
/ -
Ġd ots
Ġb ias
Ġvoy ages
im ed
Ġint ra
c ke
Ġt ep
v ie
ĠE pic
iar um
ĠJ J
Ġast ray
Ġdeb au
O i
k k
ĠChar lem
Ġemph atic
Ġha a
Ġpro g
Ġ ×
Ġtrans f
Ġ42 7
Ġâ Ħ¢
ĠEthe l
ĠE rs
Ġv ases
Ġsy st
Ġunim portant
ri ol
Ġleg ions
iss imus
Ġunal tered
augh an
ĠD ob
K T
Ġgrand mother
Ġunh appily
ĠCommod ore
ens ible
ch ap
Î Ĳ
Ġrequis ition
Ġan o
Ġfo et
ĠCy pr
Ġst ale
ĠB onn
b read
ĠFor th
Ġperf ume
Ġit ems
ĠAd ela
Ġsyll ables
Ġqu ire
Ġj ou
Ġdef ile
Ġ42 2
Ġcou pled
Ġentit le
Ġcom et
Ġ44 1
Ġdissim ilar
f ion
om uch
U m
ĠEnt om
Ġ44 4
Ġev ince
Ġsecure ly
B OR
ĠÃ ¡
Ġremember ing
Ġ178 5
Ġai id
its ch
Ġm oth
Ġperit on
Ġos se
Ġr ye
Ġfor n
op ular
m all
ett es
Ġsim ul
Ġun ch
Ġcho icest
ine fs
Ġdis fig
ĠFr aser
Ġcomprehens ion
Ġselect ing
Ġrev ision
Ġmeek ness
Ġo ily
Ġcomm issions
Ġcate g
Ġj oc
Ġdissatis fied
RO UGH
aw a
Ġjudic iously
Ġobvi ate
Ġso othe
Ġov a
s r
Ġtreat ises
Ġcartil ages
ass o
ĠI B
Ġp ours
ĠR abb
Ġshock ed
Ġdun geon
m atic
Ġdisgust ing
b ling
u w
ĠC uth
ĠPen insula
ĠDal ton
ĠThor nton
z ig
ad os
ĠC attle
Ġchurch yard
Ġsm ith
ĠWho ever
ĠEUR OPE
ĠPHILOSOPH Y
if on
ĠD ug
Ġdipl omatic
. ^^
ilt ration
Ġ; .
Ġcapt iv
on to
ĠMEDIC INE
c od
i ue
Ð ¹
ĠAl ab
ĠCompan ies
Ġha vo
Ġbow el
Ġnavig able
Ġdr ought
sec ond
um bs
Ġopp ort
Ġon ions
s ur
Ġvolunt eer
H y
Ġcens us
Ġa uc
ĠCal ais
ha ust
Ġh c
Ġv j
Ġg ull
Ġdemonst rations
Ġcl ing
Ġjew el
Ġgive th
Ġle vy
in l
Ġoriginal ity
ĠU R
Ġinst itute
Ġtain ly
) (
v enth
n age
fe et
Ġlaw less
AS ON
Ġdesp otic
ĠPresent ed
oe uv
en ic
Ġexp ence
ĠF ood
ĠR i
Ġsecre cy
Ġpol ish
ent ive
Ġsusp ense
Ġninet eenth
Ġinv ade
ĠGL ASGOW
Ġap othec
ĠJ U
Ġvex ation
ĠO K
ĠW ED
Ġanecd otes
uchar ist
Ġass ures
Ġtorrent s
ĠSc ene
Ġconject ures
r ays
p is
ro st
Ġcomp iled
Ġall uding
Ġdif c
ĠT ot
Ġ19 12
uck le
Ġstim ulate
Ġfuc ce
Ġso it
ĠId em
Ġconfeder acy
h our
se nd
Ġtra itors
to ck
ĠRo oms
x ide
Ġ44 8
Ġcomb ines
Ġc ular
Ġk o
Ġce as
ĠUN IVERS
Ġshock ing
Ġo ed
p al
ĠDE V
Ġqu um
Ġdire c
tw enty
Ġor al
Ġsucc our
ire n
Ġne y
Ġlege nds
Ġrep ute
Ġpred iction
ĠAra ble
ĠK end
Ġá¼ ¢
ĠContinent al
Ġd anced
Ġpre cl
Ġsy ring
ĠPl aut
Ġconcur red
ĠLomb ard
ast om
Ġpeop led
ong s
Ġconvers ant
about s
ab at
Ġqu oth
Ġmed ia
Ġremonst rance
c irc
ro le
Ġtac it
Ġser pents
ĠAd vent
n ge
Ġbl under
Ġexcell ed
Ġsuper iors
ĠRand olph
ĠMac don
Ġhurt ful
ĠDES CRI
ĠA llow
J ames
ĠWords worth
Ġa S
ĠM osaic
Ġnumber less
ĠEp istles
ĠTh ousand
Ġsup ersed
Ġmason ry
f am
Ġenterpr ising
Ġche at
Ġfem ur
r Ã©
it v
ric ated
Ġety m
ĠD ays
ist i
Ġdisgu ised
Ġglor ify
ĠIR ON
ĠN ames
Ġdep red
Ġlab ored
Ġ177 9
Ġa ide
che m
ĠLo oking
ĠO u
w estern
it ized
ĠB ring
ac us
ĠF inding
Ġparoxys ms
Ġact er
ĠMin eral
e as
Ġsl oping
ĠAd rian
Ġviol ate
Ġconce it
id els
Ġatro cious
b ound
ric a
Ġcontract ions
Ġhe aped
Ġ189 6
ĠS ide
Ġse aman
ĠMart yr
A mer
f ir
Ġmicroscop ic
Ġven om
ĠP urch
Ġcommunic ates
iar ies
Ġr v
ĠB ard
ĠBalt ic
Ġpir ates
et l
ĠB A
re v
Ġcl ung
Ġperplex ity
it l
Ġdam ned
TIT UTION
Ġv ita
Ġke el
t v
Ïĥ Î±
j un
ĠE ton
Ġat one
Ġneglect ing
Ġlou der
s il
ĠU nto
ĠC Y
ou che
Ġrot und
ĠMad ison
Ġcl es
ĠGod frey
Ġbil ious
b eth
iz en
Ġdeb il
Ġsk im
Ġpier ce
pie ces
Ġeul og
Ġt age
ID ENCE
Ġro asted
Ġsuccess es
Ġunc ont
Ġ43 7
Ġs abbath
om at
erv es
Ġh v
Ð Ĳ
Ġb ane
wif ery
I OR
ich rist
t ii
Ġemp owered
Ġabhor rence
ot ers
Ġp ung
Ġcoco a
ĠGe ological
Ġimp eded
ĠÎ Ŀ
f ree
ĠTH AT
ĠR oth
Ġdoub ting
ĠSolic itor
ĠMar se
k ine
ĠCr im
Ġorient al
mort em
Ġp aved
ĠB ISHOP
Ġre iter
ud der
K ER
i ott
ĠL oren
iv orous
Ġbeg otten
ĠÎ¼ á½²Î½
ĠB ER
not iced
Ġep istles
Ġship wre
Ġmonaster ies
b em
ĠMar riage
Ġimp ropri
Ġbreat hes
ĠObs erve
at ers
ok er
Ġb ower
ĠS ure
Ġme e
Ġ42 6
Ġquestion able
Ġbride groom
Ġvast ly
ĠC ale
Ġperse vere
ĠP ied
Ġuninte ll
AS E
Ġstu pendous
ĠT Y
ĠClare nce
Ġt ution
ĠRec ords
ĠD ios
ĠPub lished
Ġtrans formation
Ġs able
Ġvib rations
Ġscrup ulous
Ġox id
Ġc ither
Ġcrit er
or p
Ġ9 00
Ġtest ing
ĠAN IM
Ġconflict ing
f ia
ĠF UN
Ġgl aring
Ġt ba
ĠCHRONIC LE
ed o
ĠProf ession
Ġfr inged
Ġadminister ing
u ie
ĠC ustom
Ġapp ertain
Ġfore noon
ĠS ik
ĠAch illes
th m
fe e
ĠClif ford
ĠC rest
Ġk no
Ġappend ix
ĠM EL
Ġcatarr h
Ġnice ly
< '
Ġbe ft
n ent
ĠD ia
[...]
