{
  "version": "1.0",
  "truncation": null,
  "padding": null,
  "added_tokens": [
    {
      "id": 0,
      "content": "<s>",
      "single_word": false,
      "lstrip": false,
      "rstrip": false,
      "normalized": false,
      "special": true
    },
    {
      "id": 1,
      "content": "</s>",
      "single_word": false,
      "lstrip": false,
      "rstrip": false,
      "normalized": false,
      "special": true
    },
    {
      "id": 2,
      "content": "<unk>",
      "single_word": false,
      "lstrip": false,
      "rstrip": false,
      "normalized": false,
      "special": true
    },
    {
      "id": 3,
      "content": "<pad>",
      "single_word": false,
      "lstrip": false,
      "rstrip": false,
      "normalized": false,
      "special": true
    },
    {
      "id": 4,
      "content": "<|year|>",
      "single_word": false,
      "lstrip": false,
      "rstrip": false,
      "normalized": false,
      "special": true
    },
    {
      "id": 5,
      "content": "<|title|>",
      "single_word": false,
      "lstrip": false,
      "rstrip": false,
      "normalized": false,
      "special": true
    }
  ],
  "normalizer": null,
  "pre_tokenizer": {
    "type": "ByteLevel",
    "add_prefix_space": false,
    "trim_offsets": true,
    "use_regex": true
  },
  "post_processor": {
    "type": "ByteLevel",
    "add_prefix_space": true,
    "trim_offsets": false,
    "use_regex": true
  },
  "decoder": {
    "type": "ByteLevel",
    "add_prefix_space": true,
    "trim_offsets": true,
    "use_regex": true
  },
  "model": {
    "type": "BPE",
    "dropout": null,
    "unk_token": null,
    "continuing_subword_prefix": null,
    "end_of_word_suffix": null,
    "fuse_unk": false,
    "byte_fallback": false,
    "ignore_merges": false,
    "vocab": {
      "<s>": 0,
      "</s>": 1,
      "<unk>": 2,
      "<pad>": 3,
      "<|year|>": 4,
      "<|title|>": 5,
      "!": 6,
      "\"": 7,
      "#": 8,
      "$": 9,
      "%": 10,
      "&": 11,
      "'": 12,
      "(": 13,
      ")": 14,
      "*": 15,
      "+": 16,
      ",": 17,
      "-": 18,
      ".": 19,
      "/": 20,
      "0": 21,
      "1": 22,
      "2": 23,
      "3": 24,
      "4": 25,
      "5": 26,
      "6": 27,
      "7": 28,
      "8": 29,
      "9": 30,
      ":": 31,
      ";": 32,
      "<": 33,
      "=": 34,
      ">": 35,
      "?": 36,
      "@": 37,
      "A": 38,
      "B": 39,
      "C": 40,
      "D": 41,
      "E": 42,
      "F": 43,
      "G": 44,
      "H": 45,
      "I": 46,
      "J": 47,
      "K": 48,
      "L": 49,
      "M": 50,
      "N": 51,
      "O": 52,
      "P": 53,
      "Q": 54,
      "R": 55,
      "S": 56,
      "T": 57,
      "U": 58,
      "V": 59,
      "W": 60,
      "X": 61,
      "Y": 62,
      "Z": 63,
      "[": 64,
      "\\": 65,
      "]": 66,
      "^": 67,
      "_": 68,
      "`": 69,
      "a": 70,
      "b": 71,
      "c": 72,
      "d": 73,
      "e": 74,
      "f": 75,
      "g": 76,
      "h": 77,
      "i": 78,
      "j": 79,
      "k": 80,
      "l": 81,
      "m": 82,
      "n": 83,
      "o": 84,
      "p": 85,
      "q": 86,
      "r": 87,
      "s": 88,
      "t": 89,
      "u": 90,
      "v": 91,
      "w": 92,
      "x": 93,
      "y": 94,
      "z": 95,
      "{": 96,
      "|": 97,
      "}": 98,
      "~": 99,
      "¡": 100,
      "¢": 101,
      "£": 102,
      "¤": 103,
      "¥": 104,
      "¦": 105,
      "§": 106,
      "¨": 107,
      "©": 108,
      "ª": 109,
      "«": 110,
      "¬": 111,
      "®": 112,
      "¯": 113,
      "°": 114,
      "±": 115,
      "²": 116,
      "³": 117,
      "´": 118,
      "µ": 119,
      "¶": 120,
      "·": 121,
      "¸": 122,
      "¹": 123,
      "º": 124,
      "»": 125,
      "¼": 126,
      "½": 127,
      "¾": 128,
      "¿": 129,
      "À": 130,
      "Á": 131,
      "Â": 132,
      "Ã": 133,
      "Ä": 134,
      "Å": 135,
      "Æ": 136,
      "Ç": 137,
      "È": 138,
      "É": 139,
      "Ê": 140,
      "Ë": 141,
      "Ì": 142,
      "Í": 143,
      "Î": 144,
      "Ï": 145,
      "Ð": 146,
      "Ñ": 147,
      "Ò": 148,
      "Ó": 149,
      "Ô": 150,
      "Õ": 151,
      "Ö": 152,
      "×": 153,
      "Ø": 154,
      "Ù": 155,
      "Ú": 156,
      "Û": 157,
      "Ü": 158,
      "Ý": 159,
      "Þ": 160,
      "ß": 161,
      "à": 162,
      "á": 163,
      "â": 164,
      "ã": 165,
      "ä": 166,
      "å": 167,
      "æ": 168,
      "ç": 169,
      "è": 170,
      "é": 171,
      "ê": 172,
      "ë": 173,
      "ì": 174,
      "í": 175,
      "î": 176,
      "ï": 177,
      "ð": 178,
      "ñ": 179,
      "ò": 180,
      "ó": 181,
      "ô": 182,
      "õ": 183,
      "ö": 184,
      "÷": 185,
      "ø": 186,
      "ù": 187,
      "ú": 188,
      "û": 189,
      "ü": 190,
      "ý": 191,
      "þ": 192,
      "ÿ": 193,
      "Ā": 194,
      "ā": 195,
      "Ă": 196,
      "ă": 197,
      "Ą": 198,
      "ą": 199,
      "Ć": 200,
      "ć": 201,
      "Ĉ": 202,
      "ĉ": 203,
      "Ċ": 204,
      "ċ": 205,
      "Č": 206,
      "č": 207,
      "Ď": 208,
      "ď": 209,
      "Đ": 210,
      "đ": 211,
      "Ē": 212,
      "ē": 213,
      "Ĕ": 214,
      "ĕ": 215,
      "Ė": 216,
      "ė": 217,
      "Ę": 218,
      "ę": 219,
      "Ě": 220,
      "ě": 221,
      "Ĝ": 222,
      "ĝ": 223,
      "Ğ": 224,
      "ğ": 225,
      "Ġ": 226,
      "ġ": 227,
      "Ģ": 228,
      "ģ": 229,
      "Ĥ": 230,
      "ĥ": 231,
      "Ħ": 232,
      "ħ": 233,
      "Ĩ": 234,
      "ĩ": 235,
      "Ī": 236,
      "ī": 237,
      "Ĭ": 238,
      "ĭ": 239,
      "Į": 240,
      "į": 241,
      "İ": 242,
      "ı": 243,
      "Ĳ": 244,
      "ĳ": 245,
      "Ĵ": 246,
      "ĵ": 247,
      "Ķ": 248,
      "ķ": 249,
      "ĸ": 250,
      "Ĺ": 251,
      "ĺ": 252,
      "Ļ": 253,
      "ļ": 254,
      "Ľ": 255,
      "ľ": 256,
      "Ŀ": 257,
      "ŀ": 258,
      "Ł": 259,
      "ł": 260,
      "Ń": 261,
      "Ġt": 262,
      "he": 263,
      "Ġa": 264,
      "Ġthe": 265,
      "in": 266,
      "Ġo": 267,
      "re": 268,
      "Ġs": 269,
      "Ġw": 270,
      "er": 271,
      "nd": 272,
      "Ġof": 273,
      "on": 274,
      "at": 275,
      "is": 276,
      "Ġb": 277,
      "en": 278,
      "it": 279,
      "Ġc": 280,
      "ed": 281,
      "Ġf": 282,
      "Ġp": 283,
      "es": 284,
      "Ġm": 285,
      "or": 286,
      "ou": 287,
      "Ġh": 288,
      "Ġand": 289,
      "Ġin": 290,
      "ar": 291,
      "Ġto": 292,
      "an": 293,
      "Ġd": 294,
      "Ġth": 295,
      "ing": 296,
      "ll": 297,
      "as": 298,
      "ic": 299,
      "Ġl": 300,
      "Ġn": 301,
      "om": 302,
      "ion": 303,
      "Ġe": 304,
      "al": 305,
      "Ġbe": 306,
      "ent": 307,
      "le": 308,
      "ĠT": 309,
      "Ġre": 310,
      "st": 311,
      "ĠI": 312,
      "Ġg": 313,
      "ot": 314,
      "ve": 315,
      "ce": 316,
      "Ġwh": 317,
      "se": 318,
      "ut": 319,
      "ly": 320,
      "ct": 321,
      "Ġhe": 322,
      "im": 323,
      "ro": 324,
      "ir": 325,
      "ur": 326,
      "ad": 327,
      "ĠA": 328,
      "ĠS": 329,
      "Ġis": 330,
      "id": 331,
      "Ġthat": 332,
      "Ġu": 333,
      "Ġit": 334,
      "ĠC": 335,
      "ow": 336,
      "et": 337,
      "ver": 338,
      "Ġon": 339,
      "ith": 340,
      "Ġfor": 341,
      "ig": 342,
      "ld": 343,
      "Ġas": 344,
      "ĠM": 345,
      "ch": 346,
      "ay": 347,
      "Ġwith": 348,
      "Ġ1": 349,
      "am": 350,
      "Ġan": 351,
      "Ġwe": 352,
      "ĠThe": 353,
      "Ġwas": 354,
      "ich": 355,
      "Ġ;": 356,
      "ĠB": 357,
      "âĢ": 358,
      "Ġby": 359,
      "il": 360,
      "ĠH": 361,
      "Ġcon": 362,
      "ter": 363,
      "her": 364,
      "Ġha": 365,
      "Ġsu": 366,
      "ra": 367,
      "Ġhis": 368,
      "ation": 369,
      "if": 370,
      "Ġor": 371,
      "Ġwhich": 372,
      "Ġst": 373,
      "ul": 374,
      "Ġat": 375,
      "Ġy": 376,
      "ĠP": 377,
      "Ġnot": 378,
      "Ġde": 379,
      "ill": 380,
      "all": 381,
      "us": 382,
      "Ġfr": 383,
      "od": 384,
      "Ġv": 385,
      "qu": 386,
      "ain": 387,
      "pe": 388,
      "Ġex": 389,
      "ess": 390,
      "ol": 391,
      "ĠW": 392,
      "ht": 393,
      "Ġse": 394,
      "ĠL": 395,
      "ri": 396,
      "um": 397,
      "th": 398,
      "res": 399,
      "ge": 400,
      "ĠG": 401,
      "our": 402,
      "ore": 403,
      "est": 404,
      "Ġfrom": 405,
      "ie": 406,
      "os": 407,
      "Ġsh": 408,
      "em": 409,
      "ab": 410,
      "red": 411,
      "ĠE": 412,
      "Ġare": 413,
      "ĠD": 414,
      "ist": 415,
      "ate": 416,
      "Ġr": 417,
      "ould": 418,
      "Ġpro": 419,
      "Ġthis": 420,
      "ĠF": 421,
      "nt": 422,
      "ant": 423,
      "Ġhave": 424,
      "ers": 425,
      "Ġcom": 426,
      "ous": 427,
      "ĠO": 428,
      "ĠâĢ": 429,
      "and": 430,
      "ac": 431,
      "ke": 432,
      "pp": 433,
      "Ġ\"": 434,
      "ight": 435,
      "art": 436,
      "Ġall": 437,
      "Ġ2": 438,
      "Ġne": 439,
      "Ġbut": 440,
      "Ġso": 441,
      "iv": 442,
      "ĠR": 443,
      "ard": 444,
      "Ġch": 445,
      "ĠJ": 446,
      "Ġhad": 447,
      "ect": 448,
      "Ġtheir": 449,
      "ity": 450,
      "ĠN": 451,
      "Ġal": 452,
      "pt": 453,
      "Ġme": 454,
      "Ġthey": 455,
      "Ġwho": 456,
      "ies": 457,
      "Ġ(": 458,
      "ort": 459,
      "ive": 460,
      "Ġwhe": 461,
      "oug": 462,
      "te": 463,
      "ure": 464,
      "ord": 465,
      "Ġwere": 466,
      "un": 467,
      "Ġk": 468,
      "ust": 469,
      "Ġman": 470,
      "Ġhim": 471,
      "cc": 472,
      "el": 473,
      "ther": 474,
      "ome": 475,
      "ĠâĢĶ": 476,
      "very": 477,
      "ong": 478,
      "Ġthem": 479,
      "ast": 480,
      "ost": 481,
      "Ġup": 482,
      "ment": 483,
      "ff": 484,
      "ci": 485,
      "Ġab": 486,
      "Ġbeen": 487,
      "reat": 488,
      "Ġyou": 489,
      "ound": 490,
      "Ġad": 491,
      "Ġpl": 492,
      "'s": 493,
      "Ġle": 494,
      "ine": 495,
      "Ġone": 496,
      "op": 497,
      "ame": 498,
      "Ġar": 499,
      "ence": 500,
      "Ġj": 501,
      "Ġ3": 502,
      "Ġno": 503,
      "per": 504,
      "Ġwill": 505,
      "ak": 506,
      "av": 507,
      "ind": 508,
      "ose": 509,
      "Ġun": 510,
      "ĠTh": 511,
      "ance": 512,
      "Ġqu": 513,
      "ib": 514,
      "Ġdis": 515,
      "Ġfe": 516,
      "ud": 517,
      "Ġ.": 518,
      "Ġim": 519,
      "ond": 520,
      "Ġpr": 521,
      "ions": 522,
      "to": 523,
      "Ġher": 524,
      "able": 525,
      "ood": 526,
      "Ġper": 527,
      "ish": 528,
      "Ġhas": 529,
      "Ġthere": 530,
      "ag": 531,
      "Ġdo": 532,
      "Ġmy": 533,
      "Ġother": 534,
      "out": 535,
      "ry": 536,
      "ough": 537,
      "Ġi": 538,
      "ary": 539,
      "sel": 540,
      "ated": 541,
      "Ġpart": 542,
      "ap": 543,
      "Ġ:": 544,
      "Ġits": 545,
      "Ġmore": 546,
      "Ġ4": 547,
      "Ġtr": 548,
      "ass": 549,
      "Ġen": 550,
      "ĠIn": 551,
      "ice": 552,
      "pl": 553,
      "ĠCh": 554,
      "ire": 555,
      "Ġsa": 556,
      "ount": 557,
      "Ġpre": 558,
      "ally": 559,
      "ans": 560,
      "wn": 561,
      "Ġob": 562,
      "ĠIt": 563,
      "Ġwould": 564,
      "Ġmay": 565,
      "Ġsp": 566,
      "Ġour": 567,
      "ia": 568,
      "Ġwhen": 569,
      "Ġag": 570,
      "ide": 571,
      "Ġany": 572,
      "ue": 573,
      "one": 574,
      "Ġwor": 575,
      "Ġ'": 576,
      "ĠHe": 577,
      "ace": 578,
      "ert": 579,
      "au": 580,
      "Ġam": 581,
      "ree": 582,
      "ĠV": 583,
      "Ġlo": 584,
      "Ġus": 585,
      "Ġsome": 586,
      "Ġtw": 587,
      "hed": 588,
      "Ġtim": 589,
      "Ġcan": 590,
      "Ġthan": 591,
      "are": 592,
      "Ġcont": 593,
      "ĠMr": 594,
      "ck": 595,
      "li": 596,
      "itt": 597,
      "Ġgreat": 598,
      "ars": 599,
      "ress": 600,
      "fe": 601,
      "nder": 602,
      "oll": 603,
      "ne": 604,
      "ok": 605,
      "Ġif": 606,
      "Ġupon": 607,
      "act": 608,
      "Ġinto": 609,
      "Ġev": 610,
      "ious": 611,
      "Ġvery": 612,
      "Ġcl": 613,
      "ach": 614,
      "Ġres": 615,
      "age": 616,
      "ade": 617,
      "fore": 618,
      "ng": 619,
      "ii": 620,
      "cl": 621,
      "ub": 622,
      "ake": 623,
      "Ġye": 624,
      "Ġcomm": 625,
      "fter": 626,
      "Ġbr": 627,
      "ath": 628,
      "ings": 629,
      "Ġli": 630,
      "Ġout": 631,
      "now": 632,
      "Ġ18": 633,
      "ens": 634,
      "ite": 635,
      "ces": 636,
      "Ġdes": 637,
      "Ġcons": 638,
      "erv": 639,
      ".,": 640,
      "ĠSt": 641,
      "we": 642,
      "Ġrem": 643,
      "Ġ5": 644,
      "ition": 645,
      "Ġshe": 646,
      "ĠK": 647,
      "Ġthese": 648,
      "Ġsub": 649,
      "ase": 650,
      "int": 651,
      "Ġacc": 652,
      "Ġtime": 653,
      "Ġpe": 654,
      "Ġform": 655,
      "uch": 656,
      "ical": 657,
      "Ġbl": 658,
      "Ġ-": 659,
      "Ġonly": 660,
      "Ġshould": 661,
      "Ġsuch": 662,
      ".\"": 663,
      "ren": 664,
      "ays": 665,
      "Ġco": 666,
      "ĠAnd": 667,
      "ult": 668,
      "Ġro": 669,
      "ign": 670,
      "Ġfl": 671,
      "ations": 672,
      "Ġap": 673,
      "ft": 674,
      "ons": 675,
      "ise": 676,
      "Ġcomp": 677,
      "Ġpo": 678,
      "Ġapp": 679,
      "self": 680,
      "ru": 681,
      "ep": 682,
      "ber": 683,
      "Ġimp": 684,
      "Ġfir": 685,
      "Ġ6": 686,
      "Ġtwo": 687,
      "ener": 688,
      "ction": 689,
      "so": 690,
      "Ġind": 691,
      "ip": 692,
      "ile": 693,
      "ied": 694,
      "Ġpres": 695,
      "Ġmost": 696,
      "ark": 697,
      "urn": 698,
      "Ġspe": 699,
      "ness": 700,
      "Ġafter": 701,
      "Ġunder": 702,
      "ced": 703,
      "ject": 704,
      "ang": 705,
      "Ġte": 706,
      "oy": 707,
      "âĢĶ": 708,
      "ward": 709,
      "Ġbeing": 710,
      "..": 711,
      "00": 712,
      "Ġthose": 713,
      "Ġsaid": 714,
      "Ġwhat": 715,
      "ian": 716,
      "Ġmade": 717,
      "Ġknow": 718,
      "Ġgo": 719,
      "ful": 720,
      "Ġthen": 721,
      "Ġgr": 722,
      "Ġ!": 723,
      "Ġla": 724,
      "Ġinf": 725,
      "ict": 726,
      "HE": 727,
      "ack": 728,
      "ory": 729,
      "les": 730,
      "ĠU": 731,
      "Ġnow": 732,
      "ull": 733,
      "ents": 734,
      "land": 735,
      "ĠBut": 736,
      "Ġra": 737,
      "Ġfirst": 738,
      "Ġsame": 739,
      "Ġmuch": 740,
      "ife": 741,
      "ved": 742,
      "og": 743,
      "oth": 744,
      "ĠGod": 745,
      "Ġ8": 746,
      "Ġ*": 747,
      "hes": 748,
      "Ġ?": 749,
      "Ġhow": 750,
      "Ġsc": 751,
      "Ġyour": 752,
      "Ġatt": 753,
      "ater": 754,
      "Ġagain": 755,
      "oss": 756,
      "ove": 757,
      "Ġdist": 758,
      "Ġoff": 759,
      "Ġevery": 760,
      "ought": 761,
      "ild": 762,
      "ors": 763,
      "ph": 764,
      "orm": 765,
      "ER": 766,
      "du": 767,
      "other": 768,
      "Ġem": 769,
      "ial": 770,
      "Ġshall": 771,
      "Ġwhere": 772,
      "Ġbefore": 773,
      "Ġmust": 774,
      "Ġcould": 775,
      "Ġbec": 776,
      "ON": 777,
      "ower": 778,
      "ĠY": 779,
      "rit": 780,
      "Ġover": 781,
      "Ġrep": 782,
      "Ġac": 783,
      "iz": 784,
      "Ġbet": 785,
      "Ġent": 786,
      "ather": 787,
      "ick": 788,
      "iss": 789,
      "Ġdif": 790,
      "ular": 791,
      "Ġ7": 792,
      "hen": 793,
      "Ġgood": 794,
      "Ġlong": 795,
      "Ġ^": 796,
      "ix": 797,
      "Ġwell": 798,
      "erm": 799,
      "Ġappe": 800,
      "lie": 801,
      "ty": 802,
      "Ġabout": 803,
      "âĢĻ": 804,
      "ates": 805,
      "ĠThis": 806,
      "Ġthr": 807,
      "Ġmen": 808,
      "led": 809,
      "lic": 810,
      "Ġalso": 811,
      "pect": 812,
      "Ġfound": 813,
      "ily": 814,
      "Ġmany": 815,
      "igh": 816,
      "Ġchar": 817,
      "Ġnat": 818,
      "rib": 819,
      "Ġfa": 820,
      "Ġown": 821,
      "ug": 822,
      "Ġwork": 823,
      "cess": 824,
      "own": 825,
      ",\"": 826,
      "ĠWe": 827,
      "ĠTHE": 828,
      "Ġgener": 829,
      "Ġlike": 830,
      "ĠWh": 831,
      "ving": 832,
      "Ġpass": 833,
      "Ġcount": 834,
      "nds": 835,
      "Ġop": 836,
      "Ġsm": 837,
      "Ġrec": 838,
      "Ġbo": 839,
      "Ġinst": 840,
      "uth": 841,
      "row": 842,
      "orn": 843,
      "Ġinc": 844,
      "ves": 845,
      "Ġreg": 846,
      "Ġexp": 847,
      "ual": 848,
      "Ġho": 849,
      "ĠSe": 850,
      "Ġocc": 851,
      "rist": 852,
      "Ġeven": 853,
      "Ġwithout": 854,
      "Ġsupp": 855,
      "ittle": 856,
      "ink": 857,
      "Ġday": 858,
      "Ġord": 859,
      "ract": 860,
      "Ġ,": 861,
      "ffect": 862,
      "Ġcall": 863,
      "Ġear": 864,
      "ished": 865,
      "ained": 866,
      "ause": 867,
      "Ġpers": 868,
      "atter": 869,
      "Ġsec": 870,
      "Ġpur": 871,
      "Ġgl": 872,
      "Ġgiv": 873,
      "Ġfoll": 874,
      "Ġsee": 875,
      "eth": 876,
      "Ġinte": 877,
      "Ġlittle": 878,
      "Ġext": 879,
      "ave": 880,
      "ible": 881,
      "Ġthrough": 882,
      "Ġret": 883,
      "ES": 884,
      "Ġmight": 885,
      "vers": 886,
      "Ġ17": 887,
      "Ġact": 888,
      "ĠOF": 889,
      "Ġ9": 890,
      "ple": 891,
      "ouse": 892,
      "ever": 893,
      "be": 894,
      "Ġpresent": 895,
      "Ġrel": 896,
      "ited": 897,
      "ĠÂ": 898,
      "ble": 899,
      "Ġfollow": 900,
      "ran": 901,
      "Ġdid": 902,
      "Ġlar": 903,
      "Ġass": 904,
      "ient": 905,
      "ĠChrist": 906,
      "Ġtak": 907,
      "Ġplace": 908,
      "TI": 909,
      "oh": 910,
      "ven": 911,
      "Ġ&": 912,
      "ined": 913,
      "ution": 914,
      ".)": 915,
      "Ġsin": 916,
      "ĠEng": 917,
      "Ġsur": 918,
      "cy": 919,
      "ady": 920,
      "ĠLord": 921,
      "ĠAs": 922,
      "osed": 923,
      "Ġconf": 924,
      "Ġlet": 925,
      "Ġlife": 926,
      "Ġcar": 927,
      "ither": 928,
      "ts": 929,
      "io": 930,
      "Ġlast": 931,
      "und": 932,
      "Ġet": 933,
      "Ġgra": 934,
      "Ġend": 935,
      "Ġ|": 936,
      "AN": 937,
      "me": 938,
      "its": 939,
      "Ġsl": 940,
      "ont": 941,
      "Ġnum": 942,
      "Ġinter": 943,
      "ew": 944,
      "EN": 945,
      "ĠTo": 946,
      "ered": 947,
      "Ġyears": 948,
      "ants": 949,
      "Ġnever": 950,
      "ertain": 951,
      "Ġsy": 952,
      "ale": 953,
      "Ġ10": 954,
      "Ġsay": 955,
      "ures": 956,
      "ret": 957,
      "nded": 958,
      "oc": 959,
      "Ġthree": 960,
      "als": 961,
      "cept": 962,
      "ute": 963,
      "Ġref": 964,
      "ĠRe": 965,
      "Ġstr": 966,
      "Ġword": 967,
      "Ġmake": 968,
      "ider": 969,
      "Ġprop": 970,
      "Ġest": 971,
      "ner": 972,
      "Ġint": 973,
      "ared": 974,
      "Ġpub": 975,
      "ople": 976,
      "Ġcour": 977,
      "IN": 978,
      "Ġeach": 979,
      "Ġhere": 980,
      "Ġcond": 981,
      "ene": 982,
      "ĠAn": 983,
      "AL": 984,
      "Ġhimself": 985,
      "ĠâĢľ": 986,
      "ks": 987,
      "man": 988,
      "oun": 989,
      "Ġpower": 990,
      "ention": 991,
      "),": 992,
      "ys": 993,
      "OR": 994,
      "ail": 995,
      "ĠDe": 996,
      "Ġ0": 997,
      "rent": 998,
      "Ġadd": 999,
      "ins": 1000,
      "wards": 1001,
      "ently": 1002,
      "Ġprin": 1003,
      "Ġposs": 1004,
      "ween": 1005,
      "Ġyet": 1006,
      "Â¬": 1007,
      "urch": 1008,
      "air": 1009,
      "Ġright": 1010,
      "ety": 1011,
      "rest": 1012,
      "Ġadv": 1013,
      "Ġhaving": 1014,
      "Ġfar": 1015,
      "Ġagainst": 1016,
      "AR": 1017,
      "Ġ[": 1018,
      "Ġ16": 1019,
      "Ġdown": 1020,
      "less": 1021,
      "Ġjust": 1022,
      "Ġca": 1023,
      "ton": 1024,
      "ities": 1025,
      "Ġnear": 1026,
      "vern": 1027,
      "Ġnew": 1028,
      "Ġwhole": 1029,
      "Ġseem": 1030,
      "Ġcor": 1031,
      "ments": 1032,
      "Ġbetween": 1033,
      "of": 1034,
      "ating": 1035,
      "ted": 1036,
      "Ġx": 1037,
      "Ġmon": 1038,
      "ases": 1039,
      "ĠCom": 1040,
      "Ġmin": 1041,
      "hing": 1042,
      "ten": 1043,
      "Ġold": 1044,
      "Ġce": 1045,
      "Ġpeople": 1046,
      "Ġway": 1047,
      "Ġaw": 1048,
      "Ġheart": 1049,
      "ters": 1050,
      "ĠThey": 1051,
      "Ġsmall": 1052,
      "get": 1053,
      "Ġcountry": 1054,
      "ific": 1055,
      "Ġwater": 1056,
      "uring": 1057,
      "ĠIf": 1058,
      "ceed": 1059,
      "Ġ15": 1060,
      "irc": 1061,
      "Ġbod": 1062,
      "Ġpar": 1063,
      "mer": 1064,
      "ock": 1065,
      "Ġboth": 1066,
      "Ġed": 1067,
      "ob": 1068,
      "Ġstill": 1069,
      "Ġvar": 1070,
      "âĢĿ": 1071,
      "Ġ12": 1072,
      "Ġobs": 1073,
      "Ġdisc": 1074,
      "Ġins": 1075,
      "ĠAt": 1076,
      "ĠThere": 1077,
      "Ġever": 1078,
      "Ġthough": 1079,
      "Ġsubject": 1080,
      "Ġple": 1081,
      "Ġlarge": 1082,
      "Ġcol": 1083,
      "Ġke": 1084,
      "Ġperf": 1085,
      "ĠAr": 1086,
      "ances": 1087,
      "Ġlaw": 1088,
      "ĠOn": 1089,
      "Ġhowever": 1090,
      "Ġtoo": 1091,
      "ason": 1092,
      "Ġunt": 1093,
      "Ġprodu": 1094,
      "ains": 1095,
      "Ġread": 1096,
      "ohn": 1097,
      "Ġsuff": 1098,
      "Ġwar": 1099,
      "Ġpoint": 1100,
      "Ġes": 1101,
      "ĠFr": 1102,
      "Ġfo": 1103,
      "Ġ11": 1104,
      "Ġless": 1105,
      "Ġset": 1106,
      "ged": 1107,
      "Ġnor": 1108,
      "Ġart": 1109,
      "ired": 1110,
      "Ġcase": 1111,
      "not": 1112,
      "Ġwhile": 1113,
      "ps": 1114,
      "Ġname": 1115,
      "Ġmar": 1116,
      "Ġtra": 1117,
      "Ġconst": 1118,
      "ived": 1119,
      "Ġadm": 1120,
      "ior": 1121,
      "Ġcalled": 1122,
      "Ġhead": 1123,
      "Ġdep": 1124,
      "ised": 1125,
      "ĠBe": 1126,
      "ĠQ": 1127,
      "Ġfew": 1128,
      "Ġtake": 1129,
      "Ġgive": 1130,
      "Ġamong": 1131,
      "ern": 1132,
      "Ġey": 1133,
      "Ġthink": 1134,
      "Ġwr": 1135,
      "Ġele": 1136,
      "Ġarm": 1137,
      "Ġrest": 1138,
      "up": 1139,
      "Ġgiven": 1140,
      "rown": 1141,
      "Ġstate": 1142,
      "Ġkind": 1143,
      "Ġhand": 1144,
      "ĠJohn": 1145,
      "Ġserv": 1146,
      "ier": 1147,
      "Ġmem": 1148,
      "Ġmind": 1149,
      "Ġuse": 1150,
      "Ġfrie": 1151,
      "selves": 1152,
      "Ġconsider": 1153,
      "IS": 1154,
      "ĠNo": 1155,
      "Ġchild": 1156,
      "ĠFor": 1157,
      "Ġcertain": 1158,
      "Ġthought": 1159,
      "Ġcirc": 1160,
      "Ġlook": 1161,
      "Ġph": 1162,
      "Ġsim": 1163,
      "tern": 1164,
      "ĠDr": 1165,
      "Ġanother": 1166,
      "osition": 1167,
      "Ġworld": 1168,
      "ried": 1169,
      "oub": 1170,
      "uc": 1171,
      "Ġcome": 1172,
      "ss": 1173,
      "Ġsent": 1174,
      "Ġinv": 1175,
      "Ġeffect": 1176,
      "sh": 1177,
      "irit": 1178,
      "Ġyear": 1179,
      "xt": 1180,
      "Ġbre": 1181,
      "Ġ19": 1182,
      "outh": 1183,
      "vel": 1184,
      "Ġrequ": 1185,
      "ĠHis": 1186,
      "Ġrece": 1187,
      "ately": 1188,
      "Ġdire": 1189,
      "ĠLe": 1190,
      "alf": 1191,
      "ĠSc": 1192,
      "Ġdiffe": 1193,
      "ines": 1194,
      "Ġfind": 1195,
      "the": 1196,
      "Ġbeg": 1197,
      "Ġwhom": 1198,
      "ense": 1199,
      "Ġnecess": 1200,
      "Ġland": 1201,
      "med": 1202,
      "Ġhum": 1203,
      "Ġopp": 1204,
      "Ġgeneral": 1205,
      "Ġcontin": 1206,
      "Ġgu": 1207,
      "Ġcharact": 1208,
      "lish": 1209,
      "Ġdet": 1210,
      "ĠAl": 1211,
      "Ġing": 1212,
      "Ġpat": 1213,
      "Ġtaken": 1214,
      "iew": 1215,
      "Ġbelie": 1216,
      "ĠSp": 1217,
      "ĠPr": 1218,
      "ened": 1219,
      "Ġauth": 1220,
      "Ġmod": 1221,
      "Ġfour": 1222,
      "ury": 1223,
      "Ġprev": 1224,
      "ative": 1225,
      "Ġput": 1226,
      "ably": 1227,
      "Ġlight": 1228,
      "Ġdi": 1229,
      "Ġprinci": 1230,
      "II": 1231,
      "Ġpri": 1232,
      "Ġfact": 1233,
      "ĠSo": 1234,
      "Ġtem": 1235,
      "Ġthus": 1236,
      "Ġdiv": 1237,
      "ages": 1238,
      "ield": 1239,
      "rence": 1240,
      "aw": 1241,
      "Ġspec": 1242,
      "Ġri": 1243,
      "ric": 1244,
      "Ġ14": 1245,
      "Ġhigh": 1246,
      "Ġabove": 1247,
      "Ġdec": 1248,
      "Ġstre": 1249,
      "Ġdeath": 1250,
      "Ġir": 1251,
      "Ġleft": 1252,
      "ours": 1253,
      "ĠWhen": 1254,
      "Ġproper": 1255,
      "any": 1256,
      "Ġplac": 1257,
      "Ġtherefore": 1258,
      "Ġsom": 1259,
      "Ġappear": 1260,
      "Ġlove": 1261,
      "Ġfull": 1262,
      "Ġaff": 1263,
      "Ġdra": 1264,
      "ĠIs": 1265,
      "ius": 1266,
      "mb": 1267,
      "aug": 1268,
      "ĠX": 1269,
      "Ġ13": 1270,
      "Ġinde": 1271,
      "cted": 1272,
      "Ġequ": 1273,
      "Ġcannot": 1274,
      "ird": 1275,
      "ool": 1276,
      "aint": 1277,
      "ually": 1278,
      "Ġside": 1279,
      "Ġtrans": 1280,
      "ident": 1281,
      "Ġrespect": 1282,
      "Ġothers": 1283,
      "Ġthy": 1284,
      "Ġbody": 1285,
      ").": 1286,
      "que": 1287,
      "ided": 1288,
      "Ġmer": 1289,
      "inal": 1290,
      "ural": 1291,
      "Ġorder": 1292,
      "Ġcent": 1293,
      "ude": 1294,
      "Ġobject": 1295,
      "Ġpublic": 1296,
      "ium": 1297,
      "Ġinfl": 1298,
      "Ġport": 1299,
      "Ã©": 1300,
      "Ġche": 1301,
      "eng": 1302,
      "ison": 1303,
      "veral": 1304,
      "fic": 1305,
      "Ġhouse": 1306,
      "pr": 1307,
      "ĠThat": 1308,
      "Ġfore": 1309,
      "Ġpartic": 1310,
      "ides": 1311,
      "ho": 1312,
      "Ġperson": 1313,
      "ĠSir": 1314,
      "most": 1315,
      "ĠÎ": 1316,
      "arn": 1317,
      "Ġreturn": 1318,
      "aj": 1319,
      "Ġfeel": 1320,
      "ways": 1321,
      "Ġmeans": 1322,
      "ured": 1323,
      "Ġauthor": 1324,
      "Ġfam": 1325,
      "aking": 1326,
      "ax": 1327,
      "Ġmo": 1328,
      "ches": 1329,
      "Ġill": 1330,
      "Ġnature": 1331,
      "Ġking": 1332,
      "ians": 1333,
      "iness": 1334,
      "ah": 1335,
      "ĠInd": 1336,
      "mon": 1337,
      "Ġer": 1338,
      "Ġbest": 1339,
      "ĠMar": 1340,
      "Ġmatter": 1341,
      "oul": 1342,
      "Ġinterest": 1343,
      "oint": 1344,
      "Ġcharacter": 1345,
      "ility": 1346,
      "Ġel": 1347,
      "par": 1348,
      "Ġpa": 1349,
      "Ġnumber": 1350,
      "Ġexam": 1351,
      "ling": 1352,
      "ief": 1353,
      "Ġfre": 1354,
      "Ġprov": 1355,
      "ased": 1356,
      "aps": 1357,
      "ives": 1358,
      "Ġseen": 1359,
      "Ġhon": 1360,
      "cul": 1361,
      "ĠNew": 1362,
      "ĠAN": 1363,
      "Ġvol": 1364,
      "ĠPro": 1365,
      "here": 1366,
      "Ġthings": 1367,
      "Ġbu": 1368,
      "Ġdel": 1369,
      "Ġmil": 1370,
      "Ġcur": 1371,
      "Ġcle": 1372,
      "Ġcommon": 1373,
      "Ġcame": 1374,
      "Ġser": 1375,
      "Ġshow": 1376,
      "Ġobserv": 1377,
      "aut": 1378,
      "ript": 1379,
      "Ġval": 1380,
      "Ġvis": 1381,
      "AT": 1382,
      "ĠUn": 1383,
      "Ġyoung": 1384,
      "Ġbel": 1385,
      "Ġsol": 1386,
      "ued": 1387,
      "men": 1388,
      "ament": 1389,
      "ism": 1390,
      "Ġduring": 1391,
      "Ġwhose": 1392,
      "ery": 1393,
      "Ġthemselves": 1394,
      "ames": 1395,
      "Ġturn": 1396,
      "Ġnothing": 1397,
      "Ġdesc": 1398,
      "itted": 1399,
      "estion": 1400,
      "Ġsecond": 1401,
      "ording": 1402,
      "Ġcare": 1403,
      "ange": 1404,
      "Ġsoon": 1405,
      "Ġalways": 1406,
      ".âĢĶ": 1407,
      "att": 1408,
      "Î½": 1409,
      ".'": 1410,
      "ĠCl": 1411,
      "Ġprom": 1412,
      "Ġoften": 1413,
      "Ġonce": 1414,
      "Ġaccount": 1415,
      "Ġdays": 1416,
      "Ġseveral": 1417,
      "Ġut": 1418,
      "ices": 1419,
      "ination": 1420,
      "iam": 1421,
      "Ġdoes": 1422,
      "ĠCon": 1423,
      "Ġdone": 1424,
      "Ġimport": 1425,
      "Ġback": 1426,
      "sequ": 1427,
      "Ġterm": 1428,
      "IC": 1429,
      "ĠPh": 1430,
      "Ġdoub": 1431,
      "Ġview": 1432,
      "gether": 1433,
      "imes": 1434,
      "Ġcourse": 1435,
      "ec": 1436,
      "ott": 1437,
      "Ġthing": 1438,
      "UR": 1439,
      "Ġve": 1440,
      "Ġhalf": 1441,
      "Ġhapp": 1442,
      "Ġprof": 1443,
      "Ġmed": 1444,
      "Ġmeet": 1445,
      "ists": 1446,
      "Ġjud": 1447,
      "Ġheav": 1448,
      "idence": 1449,
      "Ġ20": 1450,
      "ĠLond": 1451,
      "Ġtre": 1452,
      "ote": 1453,
      "Ġbecause": 1454,
      "Ġspirit": 1455,
      "Ġcases": 1456,
      "ĠâĢĺ": 1457,
      "Ġpurp": 1458,
      "ai": 1459,
      "Ġver": 1460,
      "Ġeither": 1461,
      "Ġsucc": 1462,
      "Ġobt": 1463,
      "Ġdef": 1464,
      "Ġfollowing": 1465,
      "Ġsk": 1466,
      "Ġ...": 1467,
      "ĠShe": 1468,
      "Ġexpress": 1469,
      "ĠEd": 1470,
      "tend": 1471,
      "Ġmet": 1472,
      "Ġtreat": 1473,
      "Ġstand": 1474,
      "br": 1475,
      "Ġaway": 1476,
      "Ġoccas": 1477,
      "ank": 1478,
      "ĠWill": 1479,
      "oman": 1480,
      "ae": 1481,
      "Ġcap": 1482,
      "Ġreason": 1483,
      "Ġsince": 1484,
      "Ġtrue": 1485,
      "Ġstrong": 1486,
      "ane": 1487,
      "ĠPar": 1488,
      "ession": 1489,
      "Ġnight": 1490,
      "ĠSh": 1491,
      "Ġdifferent": 1492,
      "Ġsat": 1493,
      "'d": 1494,
      "une": 1495,
      "Ġpract": 1496,
      "ission": 1497,
      "ues": 1498,
      "Ġcause": 1499,
      "alk": 1500,
      "ĠGo": 1501,
      "vernment": 1502,
      "Ġused": 1503,
      "Ġregard": 1504,
      "alth": 1505,
      "ÏĦ": 1506,
      "Ġopen": 1507,
      "Ġfav": 1508,
      "Ġlab": 1509,
      "ĠEngland": 1510,
      "Ġknown": 1511,
      "Ġshort": 1512,
      "Ġmanner": 1513,
      "ature": 1514,
      "apt": 1515,
      "Ġdise": 1516,
      "Ġconc": 1517,
      "ĠCo": 1518,
      "Ġwithin": 1519,
      "Ġson": 1520,
      "ĠOr": 1521,
      "ung": 1522,
      "Ġsix": 1523,
      "ection": 1524,
      "unt": 1525,
      "000": 1526,
      "ime": 1527,
      "Ġblood": 1528,
      "Ġbrought": 1529,
      "Ġabs": 1530,
      "Ġcr": 1531,
      "Ġwords": 1532,
      "Ġsum": 1533,
      "Ġpol": 1534,
      "Ġfall": 1535,
      "asure": 1536,
      "Ġground": 1537,
      "de": 1538,
      "pend": 1539,
      "ĠBy": 1540,
      "by": 1541,
      "dom": 1542,
      "ley": 1543,
      "den": 1544,
      "Ġremark": 1545,
      "Ġten": 1546,
      "Ġalmost": 1547,
      "amp": 1548,
      "Ġdisp": 1549,
      "llow": 1550,
      "Ġwrit": 1551,
      "ross": 1552,
      "Ġbro": 1553,
      "Ġfree": 1554,
      "bers": 1555,
      "Ġtook": 1556,
      "Ġparts": 1557,
      "son": 1558,
      "Ġfur": 1559,
      "aster": 1560,
      "Ġthou": 1561,
      "use": 1562,
      "Ġcoll": 1563,
      "Ġcircum": 1564,
      "aves": 1565,
      "Ġbetter": 1566,
      "ting": 1567,
      "gg": 1568,
      "rs": 1569,
      "Ġopin": 1570,
      "Ġgent": 1571,
      "ploy": 1572,
      "Ġsing": 1573,
      "Ġrather": 1574,
      "rew": 1575,
      "Ġexper": 1576,
      "iar": 1577,
      "day": 1578,
      "Ġtown": 1579,
      "Ġii": 1580,
      "Ġfeet": 1581,
      "Ġprob": 1582,
      "Ġsal": 1583,
      "ning": 1584,
      "Ġter": 1585,
      "ĠLondon": 1586,
      "iod": 1587,
      "Ġcal": 1588,
      "Ġearth": 1589,
      "olog": 1590,
      "Ġtion": 1591,
      "ĠWhat": 1592,
      "Ġitself": 1593,
      "Ġtill": 1594,
      "ring": 1595,
      "Ġdest": 1596,
      "ĠBrit": 1597,
      "Ġformer": 1598,
      "ĠNor": 1599,
      "uss": 1600,
      "Ġsuper": 1601,
      "Ġlib": 1602,
      "Ġsays": 1603,
      "ience": 1604,
      "ĠAd": 1605,
      "Î±": 1606,
      "Ġfaith": 1607,
      "Ġbeaut": 1608,
      "Î¿": 1609,
      "ets": 1610,
      "OL": 1611,
      "Ġorig": 1612,
      "Ġemploy": 1613,
      "Ġair": 1614,
      "aim": 1615,
      "Ġtimes": 1616,
      "TION": 1617,
      "Ġste": 1618,
      "vo": 1619,
      "ĠWith": 1620,
      "ying": 1621,
      "Ġtruth": 1622,
      "ges": 1623,
      "Ġresult": 1624,
      "ape": 1625,
      "Ġhands": 1626,
      "ality": 1627,
      "empt": 1628,
      "IT": 1629,
      "Ġaffect": 1630,
      "Ġdeg": 1631,
      "Ġexist": 1632,
      "Ġincre": 1633,
      "stem": 1634,
      "owers": 1635,
      "ĠEnglish": 1636,
      "Ġparticular": 1637,
      "ham": 1638,
      "Ġanim": 1639,
      "ron": 1640,
      "ze": 1641,
      "Ġfather": 1642,
      "Ġappro": 1643,
      "Ġmark": 1644,
      "rie": 1645,
      "Ġdoubt": 1646,
      "Ġchurch": 1647,
      "ering": 1648,
      "af": 1649,
      "Ġhard": 1650,
      "Ġrelig": 1651,
      "Ġwhether": 1652,
      "Ġoccasion": 1653,
      "Ġbene": 1654,
      "Ġquestion": 1655,
      "urg": 1656,
      "enty": 1657,
      "Ġans": 1658,
      "Ġ21": 1659,
      "Ġdut": 1660,
      "well": 1661,
      "aring": 1662,
      "ien": 1663,
      "ĠAND": 1664,
      "ĠEx": 1665,
      "Ġcomple": 1666,
      "pit": 1667,
      "ĠAll": 1668,
      "Ġexc": 1669,
      "ĠOf": 1670,
      "LE": 1671,
      "der": 1672,
      "etimes": 1673,
      "ee": 1674,
      "ples": 1675,
      "Ġaccording": 1676,
      "ified": 1677,
      "Ġnecessary": 1678,
      "Ġmis": 1679,
      "Ġsoul": 1680,
      "ĠBr": 1681,
      "ls": 1682,
      "Ġsw": 1683,
      "uit": 1684,
      "medi": 1685,
      "ĠâĢ¢": 1686,
      "ĠGe": 1687,
      "haps": 1688,
      "Ġmonth": 1689,
      "ĠPl": 1690,
      "ĠIN": 1691,
      "Ġsuccess": 1692,
      "Ġann": 1693,
      "Ġ25": 1694,
      "Ġsil": 1695,
      "Ġdu": 1696,
      "Ġproceed": 1697,
      "ĠKing": 1698,
      "Ġru": 1699,
      "icient": 1700,
      "Ġsch": 1701,
      "anc": 1702,
      "Ġnext": 1703,
      "Ġvi": 1704,
      "ister": 1705,
      "Ġund": 1706,
      "resent": 1707,
      "Ġmor": 1708,
      "Ġtogether": 1709,
      "Ġhy": 1710,
      "Ġeas": 1711,
      "Ġdiffic": 1712,
      "ully": 1713,
      "uted": 1714,
      "Ġdecl": 1715,
      "Ġdev": 1716,
      "fl": 1717,
      "Ġeng": 1718,
      "Ġperiod": 1719,
      "ĠChurch": 1720,
      "ciety": 1721,
      "Ġuntil": 1722,
      "Ġsign": 1723,
      "Ġleg": 1724,
      "Ġhor": 1725,
      "Ġsystem": 1726,
      "Ġwent": 1727,
      "oura": 1728,
      "Ġoper": 1729,
      "ached": 1730,
      "wh": 1731,
      "Ġwant": 1732,
      "Ġ22": 1733,
      "Ġaccom": 1734,
      "inct": 1735,
      "Ġpain": 1736,
      "Ġgentle": 1737,
      "Ġdifficult": 1738,
      "Ġpersons": 1739,
      "Ġchildren": 1740,
      "Ġsit": 1741,
      "Ġlead": 1742,
      "ength": 1743,
      "á½": 1744,
      "ils": 1745,
      "ster": 1746,
      "Ġtri": 1747,
      "Ġ24": 1748,
      "Ġround": 1749,
      "Ġexcept": 1750,
      "used": 1751,
      "ics": 1752,
      "Ġhuman": 1753,
      "ĠThese": 1754,
      "rely": 1755,
      "Ġhist": 1756,
      "Ġgave": 1757,
      "ĠHow": 1758,
      "IL": 1759,
      "aining": 1760,
      "fact": 1761,
      "Ġlatter": 1762,
      "oud": 1763,
      "Ġbecome": 1764,
      "Ġbook": 1765,
      "co": 1766,
      "EL": 1767,
      "rench": 1768,
      "Ġ30": 1769,
      "cial": 1770,
      "The": 1771,
      "oms": 1772,
      "ched": 1773,
      "US": 1774,
      "Ġleast": 1775,
      "Ġconsequ": 1776,
      "'t": 1777,
      "Ġhope": 1778,
      "ught": 1779,
      "ement": 1780,
      "inary": 1781,
      "ĠCH": 1782,
      "Ġindeed": 1783,
      "ected": 1784,
      "Ġgenerally": 1785,
      "Ġask": 1786,
      "Ġmus": 1787,
      "Ġoccur": 1788,
      "ica": 1789,
      "AS": 1790,
      "Ġbar": 1791,
      "undred": 1792,
      "Ġkeep": 1793,
      "bs": 1794,
      "ĠAmer": 1795,
      "ĠYou": 1796,
      "Ġeyes": 1797,
      "ots": 1798,
      "Ġ23": 1799,
      "owed": 1800,
      "ina": 1801,
      "Ġfrequ": 1802,
      "iving": 1803,
      "Ġchief": 1804,
      "ann": 1805,
      "ED": 1806,
      "read": 1807,
      "Ġdeep": 1808,
      "Ġwhite": 1809,
      "Ġentire": 1810,
      "Ġoffic": 1811,
      "gy": 1812,
      "Ġage": 1813,
      "ready": 1814,
      "Ġmid": 1815,
      "Â«": 1816,
      "Ġmean": 1817,
      "Ġexh": 1818,
      "ell": 1819,
      "arent": 1820,
      "Ġmag": 1821,
      "ledge": 1822,
      "lf": 1823,
      "Ġneed": 1824,
      "pper": 1825,
      "Ġbelieve": 1826,
      "Ġbus": 1827,
      "OM": 1828,
      "Ġperfect": 1829,
      "Ġlength": 1830,
      "stand": 1831,
      "ressed": 1832,
      "Ġcommand": 1833,
      "Ġthee": 1834,
      "ek": 1835,
      "Ġhundred": 1836,
      "val": 1837,
      "erous": 1838,
      "Ġget": 1839,
      "ET": 1840,
      "ony": 1841,
      "itions": 1842,
      "Ġfriends": 1843,
      "Ġinflu": 1844,
      "uct": 1845,
      "Ġsac": 1846,
      "Ġred": 1847,
      "Ġdirect": 1848,
      "Ġmom": 1849,
      "ĠBo": 1850,
      "ĠChar": 1851,
      "Ġtell": 1852,
      "Ġmot": 1853,
      "Ġclass": 1854,
      "Ġpurpose": 1855,
      "ork": 1856,
      "Ġcircumst": 1857,
      "ash": 1858,
      "Ġline": 1859,
      "ĠÂ£": 1860,
      "Ġspeak": 1861,
      "Ġfriend": 1862,
      "Ġdr": 1863,
      "ĠComm": 1864,
      "Ġimmedi": 1865,
      "elt": 1866,
      "Ġalready": 1867,
      "though": 1868,
      "ize": 1869,
      "Ġhold": 1870,
      "ĠZ": 1871,
      "Ġmorn": 1872,
      "Ġden": 1873,
      "Ġsaw": 1874,
      "Ġeff": 1875,
      "Ġpoor": 1876,
      "Ġsometimes": 1877,
      "oice": 1878,
      "Ġ\\": 1879,
      "yl": 1880,
      "fort": 1881,
      "Ġacqu": 1882,
      "ision": 1883,
      "ĠMay": 1884,
      "ĠTr": 1885,
      "no": 1886,
      "wer": 1887,
      "cient": 1888,
      "ĠWilliam": 1889,
      "ising": 1890,
      "iet": 1891,
      "ized": 1892,
      "augh": 1893,
      "Ġnearly": 1894,
      "Ġtowards": 1895,
      "oses": 1896,
      "Ġgre": 1897,
      "Ġdark": 1898,
      "Ġlearn": 1899,
      "ĠFrench": 1900,
      "Ġstru": 1901,
      ".]": 1902,
      "Ġpost": 1903,
      "Ġable": 1904,
      ",'": 1905,
      "iment": 1906,
      "lished": 1907,
      "Ġincl": 1908,
      "Ġlim": 1909,
      "Ġfin": 1910,
      "ĠCol": 1911,
      "Ġaction": 1912,
      "Ġcity": 1913,
      "Ġder": 1914,
      "Ġheard": 1915,
      ".âĢĿ": 1916,
      "ĠMe": 1917,
      "ishop": 1918,
      "Ġlie": 1919,
      "erc": 1920,
      "Ġheld": 1921,
      "Ġwind": 1922,
      "Ġpray": 1923,
      "Ġvarious": 1924,
      "Î¹": 1925,
      "oney": 1926,
      "Ġfort": 1927,
      "Ġhome": 1928,
      "Ġpassed": 1929,
      "^^": 1930,
      "Ġwit": 1931,
      "mn": 1932,
      "Ġfive": 1933,
      "Ġcut": 1934,
      "angu": 1935,
      "fully": 1936,
      "illed": 1937,
      "Ġexpl": 1938,
      "iter": 1939,
      "Ġstud": 1940,
      "ats": 1941,
      "ĠFrom": 1942,
      "Ġquite": 1943,
      "az": 1944,
      "ĠMy": 1945,
      "ince": 1946,
      "Ġment": 1947,
      "Ġperhaps": 1948,
      "Ġopinion": 1949,
      "Ġide": 1950,
      "range": 1951,
      "Ġorg": 1952,
      "Ġnatural": 1953,
      "Ġclose": 1954,
      "Ġletter": 1955,
      "Ġcommun": 1956,
      "ards": 1957,
      "Ġlay": 1958,
      "Ġsubst": 1959,
      "ĠAb": 1960,
      "Ġfig": 1961,
      "ms": 1962,
      "ĠChristian": 1963,
      "ĠEs": 1964,
      "uly": 1965,
      "Ġgrow": 1966,
      "Ġdisease": 1967,
      "Ġconv": 1968,
      "irt": 1969,
      "cil": 1970,
      "Îµ": 1971,
      "erve": 1972,
      "lo": 1973,
      "itution": 1974,
      "Ġpay": 1975,
      "cially": 1976,
      "ises": 1977,
      "Ġ26": 1978,
      "Ġtlie": 1979,
      "Ġface": 1980,
      "rop": 1981,
      "Ġsun": 1982,
      "ilt": 1983,
      "ĠLet": 1984,
      "Ġant": 1985,
      "Ġ28": 1986,
      "ribed": 1987,
      "Ġgreater": 1988,
      "Ġlate": 1989,
      "Ġseems": 1990,
      "TER": 1991,
      "á¼": 1992,
      "Ġrepresent": 1993,
      "Ġestab": 1994,
      "rodu": 1995,
      "ĠII": 1996,
      "Ġ27": 1997,
      "akes": 1998,
      "omen": 1999,
      "Ġbra": 2000,
      "Ġexpect": 2001,
      "Ġpriv": 2002,
      "Ġfine": 2003,
      "ference": 2004,
      "ford": 2005,
      "ining": 2006,
      "Ġkne": 2007,
      "cell": 2008,
      "lied": 2009,
      "Ġformed": 2010,
      "Ġmention": 2011,
      "Ġplaced": 2012,
      ".-": 2013,
      "Ġves": 2014,
      "ulation": 2015,
      "ĠMrs": 2016,
      "Ġforce": 2017,
      "ĠCar": 2018,
      "Ġconn": 2019,
      "Ġarri": 2020,
      "Ġswe": 2021,
      "ĠHer": 2022,
      "reg": 2023,
      "Ġacid": 2024,
      "Ġdem": 2025,
      "atic": 2026,
      "Â»": 2027,
      "Ġtho": 2028,
      "Ġsatis": 2029,
      "Ġmorning": 2030,
      "Ġsufficient": 2031,
      "ones": 2032,
      "eter": 2033,
      "ĠHo": 2034,
      "ĠAm": 2035,
      "usion": 2036,
      "ume": 2037,
      "ilar": 2038,
      "ral": 2039,
      "ences": 2040,
      "Ġinform": 2041,
      "Ġclear": 2042,
      "eneral": 2043,
      "na": 2044,
      "bit": 2045,
      "AM": 2046,
      "11": 2047,
      "Ġmoment": 2048,
      "ousand": 2049,
      "ger": 2050,
      "RE": 2051,
      "Ġsym": 2052,
      "Ġalone": 2053,
      "Ġespe": 2054,
      "iii": 2055,
      "cr": 2056,
      "amm": 2057,
      "Ġfire": 2058,
      "Ġeye": 2059,
      "Ġpop": 2060,
      "ows": 2061,
      "semb": 2062,
      "Ġfamily": 2063,
      "Ġreceived": 2064,
      "Ġ29": 2065,
      "els": 2066,
      "Ġextre": 2067,
      "Ġunto": 2068,
      "che": 2069,
      "Ġquant": 2070,
      "over": 2071,
      "ING": 2072,
      "ĠSee": 2073,
      "Ġspecies": 2074,
      "Ġprot": 2075,
      "orts": 2076,
      "ency": 2077,
      "face": 2078,
      "itude": 2079,
      "Ġhig": 2080,
      "Ġbring": 2081,
      "ĠHen": 2082,
      "tended": 2083,
      "aving": 2084,
      "Ġobl": 2085,
      "Ġappears": 2086,
      "Ġcoun": 2087,
      "ĠPo": 2088,
      "Ġtwenty": 2089,
      "Ġgen": 2090,
      "Ġblack": 2091,
      "arr": 2092,
      "Ġdoct": 2093,
      "Ġenem": 2094,
      "Ġthousand": 2095,
      "atch": 2096,
      "Ġfurther": 2097,
      "Ġearly": 2098,
      "Ġmother": 2099,
      "ENT": 2100,
      "Ġpen": 2101,
      "Ġ/": 2102,
      "Ġcompl": 2103,
      "ounds": 2104,
      "ait": 2105,
      "Ġsense": 2106,
      "Ġpossess": 2107,
      "ĠNe": 2108,
      "eds": 2109,
      "AP": 2110,
      "Ġknowledge": 2111,
      "Ġought": 2112,
      "iful": 2113,
      "nal": 2114,
      "Ġimpro": 2115,
      "Ġdang": 2116,
      "Ġhar": 2117,
      "Ġnation": 2118,
      "fer": 2119,
      "arch": 2120,
      "Ġeight": 2121,
      "ship": 2122,
      "Ġpast": 2123,
      "Ġsea": 2124,
      "lor": 2125,
      "Ġfear": 2126,
      "Ġbur": 2127,
      "ĠOne": 2128,
      "Ġreal": 2129,
      "ey": 2130,
      "Ġconcl": 2131,
      "Ġattention": 2132,
      "Ġlow": 2133,
      "Ġpeace": 2134,
      "Ġcondition": 2135,
      "Ġpossible": 2136,
      "Ġworth": 2137,
      "ĠThom": 2138,
      "ĠBl": 2139,
      "Ġattempt": 2140,
      "pid": 2141,
      "Ġsepar": 2142,
      "ument": 2143,
      "Ġmount": 2144,
      "Ġneg": 2145,
      "Ġcontr": 2146,
      "Ġenough": 2147,
      "Ġtest": 2148,
      "ator": 2149,
      "AC": 2150,
      "ney": 2151,
      "Ġwood": 2152,
      "ata": 2153,
      "Ġamount": 2154,
      "iously": 2155,
      "Ġdeterm": 2156,
      "ns": 2157,
      "Ġrev": 2158,
      "Ġtold": 2159,
      "Ġunc": 2160,
      "Ġfair": 2161,
      "uro": 2162,
      "ries": 2163,
      "Ġworks": 2164,
      "vere": 2165,
      "Ġparty": 2166,
      "ĠQu": 2167,
      "ixed": 2168,
      "Ġheaven": 2169,
      "ivers": 2170,
      "ĠMed": 2171,
      "ingu": 2172,
      "ler": 2173,
      "Ġscar": 2174,
      "itte": 2175,
      "ales": 2176,
      "Ġbecame": 2177,
      "Ġship": 2178,
      "idered": 2179,
      "ctions": 2180,
      "Ġft": 2181,
      "oured": 2182,
      "Ġgovernment": 2183,
      "Ġschool": 2184,
      "ĠFe": 2185,
      "por": 2186,
      "rict": 2187,
      "Ġstat": 2188,
      "Ġappoint": 2189,
      "ĠJes": 2190,
      "Ġbeh": 2191,
      "Ġ=": 2192,
      "Ġlangu": 2193,
      "ĠNow": 2194,
      "Ġfif": 2195,
      "Ġstri": 2196,
      "Ġsupport": 2197,
      "Ġrun": 2198,
      "iety": 2199,
      "alt": 2200,
      "Ġhealth": 2201,
      "Ġmaking": 2202,
      "urs": 2203,
      "Ġsus": 2204,
      "Ġlive": 2205,
      "Ġ_": 2206,
      "Ġportion": 2207,
      "Ġespecially": 2208,
      "Ġsens": 2209,
      "Ġmiles": 2210,
      "Ġleave": 2211,
      "ken": 2212,
      "Ġvessel": 2213,
      "iff": 2214,
      "ounded": 2215,
      "Ġsle": 2216,
      "Ġalthough": 2217,
      "Ġremo": 2218,
      "Ġinj": 2219,
      "Ġty": 2220,
      "ivid": 2221,
      "Ġmoney": 2222,
      "Â°": 2223,
      "Ġartic": 2224,
      "cious": 2225,
      "ĠGr": 2226,
      "Ġoccup": 2227,
      "pond": 2228,
      "Ġstreng": 2229,
      "iled": 2230,
      "Ġpie": 2231,
      "dle": 2232,
      "Ġ31": 2233,
      "Ġforth": 2234,
      "ĠAfter": 2235,
      "Ġposition": 2236,
      "ĠAug": 2237,
      "Ġsold": 2238,
      "Ġhear": 2239,
      "gr": 2240,
      "ĠPer": 2241,
      "aid": 2242,
      "ĠBritish": 2243,
      "Ġwife": 2244,
      "Ġsitu": 2245,
      "wise": 2246,
      "Ġdied": 2247,
      "ÏĤ": 2248,
      "Ġinfluence": 2249,
      "Ġcarried": 2250,
      "idge": 2251,
      "Ġsimilar": 2252,
      "hy": 2253,
      "EC": 2254,
      "bo": 2255,
      "Ġfac": 2256,
      "Ġcold": 2257,
      "ested": 2258,
      "Ġobtained": 2259,
      "Ġbelong": 2260,
      "oke": 2261,
      "ui": 2262,
      "Ġque": 2263,
      "Ġduty": 2264,
      "opt": 2265,
      "Ġdegree": 2266,
      "Ġimportant": 2267,
      "Ġid": 2268,
      "Ġchange": 2269,
      "Ġhour": 2270,
      "tt": 2271,
      "culiar": 2272,
      "Ġsurface": 2273,
      "Ġcomplete": 2274,
      "amed": 2275,
      "utes": 2276,
      "Ġbuild": 2277,
      "Ġdead": 2278,
      "app": 2279,
      "ĠThen": 2280,
      "Ġprobably": 2281,
      "Ġhistory": 2282,
      "ĠDo": 2283,
      "Ġdie": 2284,
      "ĠFrance": 2285,
      "Ġá¼": 2286,
      "ift": 2287,
      "reet": 2288,
      "ĠJames": 2289,
      "omin": 2290,
      "Ġproduced": 2291,
      "Ġthird": 2292,
      "Ġcourt": 2293,
      "ux": 2294,
      "for": 2295,
      "uous": 2296,
      "Ġdefe": 2297,
      "uses": 2298,
      "Ġpeculiar": 2299,
      "Ġlost": 2300,
      "ration": 2301,
      "Ġafterwards": 2302,
      "Ġconsidered": 2303,
      "itten": 2304,
      "sc": 2305,
      "lled": 2306,
      "acy": 2307,
      "Ġbrother": 2308,
      "Ġservice": 2309,
      "Ġslight": 2310,
      "Ġ<": 2311,
      "ex": 2312,
      "Ġself": 2313,
      "ires": 2314,
      "Ġ{": 2315,
      "Ġperform": 2316,
      "Ġcontinued": 2317,
      "Ġfelt": 2318,
      "gress": 2319,
      "Ġcast": 2320,
      "RO": 2321,
      "Ġintrodu": 2322,
      "ops": 2323,
      "Ġalong": 2324,
      "ĠGeor": 2325,
      "Ġquar": 2326,
      "lt": 2327,
      "Ġappeared": 2328,
      "Ġwall": 2329,
      "oe": 2330,
      "Ġ40": 2331,
      "ruction": 2332,
      "Ġbran": 2333,
      "ĠCan": 2334,
      "ember": 2335,
      "ĠPe": 2336,
      "thing": 2337,
      "Ġbes": 2338,
      "ills": 2339,
      "Ġimm": 2340,
      "Ġresol": 2341,
      "ĠHouse": 2342,
      "Ġadvant": 2343,
      "Ġpra": 2344,
      "Ġseemed": 2345,
      "cience": 2346,
      "Ġpress": 2347,
      "Ġprincip": 2348,
      "Ġmyself": 2349,
      "Ġgrace": 2350,
      "Ġcircumstances": 2351,
      "ĠStates": 2352,
      "Ġconsiderable": 2353,
      "Ġprep": 2354,
      "cing": 2355,
      "Ġkept": 2356,
      "ĠBar": 2357,
      "ead": 2358,
      "Ġhath": 2359,
      "ĠRev": 2360,
      "Ġbecom": 2361,
      "Ġhours": 2362,
      "attle": 2363,
      "go": 2364,
      "Ġriver": 2365,
      "wing": 2366,
      "yn": 2367,
      "Ġobserved": 2368,
      "Ġwoman": 2369,
      "ternal": 2370,
      "hold": 2371,
      "Ïģ": 2372,
      "antly": 2373,
      "Ġstra": 2374,
      "inn": 2375,
      "iver": 2376,
      "Ġfat": 2377,
      "Ġviol": 2378,
      "Ġplant": 2379,
      "Ġfoot": 2380,
      "Ġforms": 2381,
      "RI": 2382,
      "uded": 2383,
      "let": 2384,
      "Ġbless": 2385,
      "ething": 2386,
      "Ġadopt": 2387,
      "Ġappearance": 2388,
      "hab": 2389,
      "ĠHenry": 2390,
      "Ġda": 2391,
      "ibus": 2392,
      "Ġintell": 2393,
      "ĠCor": 2394,
      "Ġbad": 2395,
      "Ġ185": 2396,
      "Ġere": 2397,
      "ĠNot": 2398,
      "Ġemb": 2399,
      "nding": 2400,
      "gment": 2401,
      "Ġcolour": 2402,
      "Ġarmy": 2403,
      "Ġemployed": 2404,
      "Ġdistinct": 2405,
      "Ġenc": 2406,
      "Ġcomb": 2407,
      "Ġequal": 2408,
      "Ġhel": 2409,
      "Ġthir": 2410,
      "Ġimmediately": 2411,
      "Ġmonths": 2412,
      "Ġ186": 2413,
      "aste": 2414,
      "lect": 2415,
      "Ġprevent": 2416,
      "Ġconcern": 2417,
      "ĠTO": 2418,
      "Ïĥ": 2419,
      "urope": 2420,
      "Ġmater": 2421,
      "Ġroom": 2422,
      "Ġmove": 2423,
      "ĠGeneral": 2424,
      "Ġgold": 2425,
      "Ġpatient": 2426,
      "ĠAg": 2427,
      "ĠRob": 2428,
      "Ġwish": 2429,
      "Ġorgan": 2430,
      "Ġ184": 2431,
      "ĠJesus": 2432,
      "pel": 2433,
      "ital": 2434,
      "Ġclaim": 2435,
      "Ġloc": 2436,
      "Ġbusiness": 2437,
      "ĠColl": 2438,
      "Ġexhib": 2439,
      "Ġreport": 2440,
      "Ġauthority": 2441,
      "Ġdesign": 2442,
      "aul": 2443,
      "ittee": 2444,
      "Ġlower": 2445,
      "aughter": 2446,
      "Ġneigh": 2447,
      "ĠPhil": 2448,
      ",âĢĿ": 2449,
      "Ġattack": 2450,
      "ĠMiss": 2451,
      "ively": 2452,
      "Ġexcl": 2453,
      "pped": 2454,
      "Ġexec": 2455,
      "rupt": 2456,
      "Ġinqu": 2457,
      "Ġplaces": 2458,
      "18": 2459,
      "Ġanswer": 2460,
      "Ġmeeting": 2461,
      "Ġz": 2462,
      "Ġenj": 2463,
      "ĠEurope": 2464,
      "Ġsett": 2465,
      "iction": 2466,
      "Ġneither": 2467,
      "Ġlaid": 2468,
      "ription": 2469,
      "Ġprocess": 2470,
      "ĠSec": 2471,
      "ĠThomas": 2472,
      "oted": 2473,
      "Ġtro": 2474,
      "ĠEsq": 2475,
      "OO": 2476,
      "yond": 2477,
      "Ġremain": 2478,
      "imate": 2479,
      "anged": 2480,
      "itary": 2481,
      "Ġsuc": 2482,
      "ouble": 2483,
      "aries": 2484,
      "Ġquantity": 2485,
      "isc": 2486,
      "Ġindivid": 2487,
      "ald": 2488,
      "ĠSu": 2489,
      "Ġreligion": 2490,
      "Ġleaves": 2491,
      "Ġpun": 2492,
      "Ġassist": 2493,
      "tered": 2494,
      "Ġattend": 2495,
      "ĠGl": 2496,
      "Ġfield": 2497,
      "Ġancient": 2498,
      "Ġcreat": 2499,
      "Ġbegin": 2500,
      "Ġdoctr": 2501,
      "Ġfurn": 2502,
      "Ġiv": 2503,
      "Ġconsist": 2504,
      "Ġplan": 2505,
      "Ġmembers": 2506,
      "Ġaf": 2507,
      "Ġfrequently": 2508,
      "Ġprison": 2509,
      "Ġorigin": 2510,
      "Ġfut": 2511,
      "atever": 2512,
      "ĠSome": 2513,
      "ortion": 2514,
      "roy": 2515,
      "ĠThus": 2516,
      "Ġphys": 2517,
      "with": 2518,
      "ams": 2519,
      "esty": 2520,
      "ethod": 2521,
      "ĠMaj": 2522,
      "Ġsomething": 2523,
      "way": 2524,
      "Ġwond": 2525,
      "Ġheat": 2526,
      "Ġdistingu": 2527,
      "Ġknew": 2528,
      "Ġvirt": 2529,
      "Ġav": 2530,
      "Ġvalue": 2531,
      "Ġrepe": 2532,
      "ĠSch": 2533,
      "Ġpet": 2534,
      "Ġlord": 2535,
      "Ġlonger": 2536,
      "Ġpal": 2537,
      "Ġrequired": 2538,
      "Ġdear": 2539,
      "Ġang": 2540,
      "Ġconduct": 2541,
      "Ġmaj": 2542,
      "Ġexerc": 2543,
      "ere": 2544,
      "Ġpot": 2545,
      "Ġadj": 2546,
      "Ġwritten": 2547,
      "hip": 2548,
      "uck": 2549,
      "Ġtemper": 2550,
      "Ġ33": 2551,
      ".*": 2552,
      "ites": 2553,
      "ĠÂ«": 2554,
      "Ġsecret": 2555,
      "Ġled": 2556,
      "Ġtrust": 2557,
      "inc": 2558,
      "Ġdepart": 2559,
      "10": 2560,
      "Ġ32": 2561,
      "bour": 2562,
      "irm": 2563,
      "Ġjo": 2564,
      "Ġgoing": 2565,
      "Ġthick": 2566,
      "Ġentirely": 2567,
      "Ġur": 2568,
      "Ġscarce": 2569,
      "Ġconce": 2570,
      "Ġxx": 2571,
      "ÏĢ": 2572,
      "po": 2573,
      "Ġevening": 2574,
      "Ġvoice": 2575,
      "ĠPres": 2576,
      "Ġrefer": 2577,
      "ouses": 2578,
      "Ġfavour": 2579,
      "aged": 2580,
      "Ġvisit": 2581,
      "Ġbeautiful": 2582,
      "ican": 2583,
      "con": 2584,
      "Ġunderstand": 2585,
      "iers": 2586,
      "Ġil": 2587,
      "Ġpaper": 2588,
      "iments": 2589,
      "IR": 2590,
      "Ġapplic": 2591,
      "uke": 2592,
      "Ġlanguage": 2593,
      "Ġbeyond": 2594,
      "Ġstrength": 2595,
      "ĠNorth": 2596,
      "vi": 2597,
      "ror": 2598,
      "ored": 2599,
      "ĠGeorge": 2600,
      "Ġarg": 2601,
      "Ġiii": 2602,
      "Ġesc": 2603,
      "Ġrock": 2604,
      "Ġgot": 2605,
      "Ġoblig": 2606,
      "lls": 2607,
      "Ġindividual": 2608,
      "ĠCharles": 2609,
      "ATION": 2610,
      "ĠST": 2611,
      "Ġexcell": 2612,
      "Ġweek": 2613,
      "ĠCour": 2614,
      "Ġdeb": 2615,
      "Ġcross": 2616,
      "Ġpolit": 2617,
      "ĠWest": 2618,
      "Ġplain": 2619,
      "mit": 2620,
      "Ġnone": 2621,
      "lex": 2622,
      "Ġcop": 2623,
      "Ġ35": 2624,
      "airs": 2625,
      "Ġwis": 2626,
      "Ġsound": 2627,
      "ĠCal": 2628,
      "ĠHere": 2629,
      "Ġmass": 2630,
      "Ġroad": 2631,
      "Ġdim": 2632,
      "hem": 2633,
      "ĠAp": 2634,
      "end": 2635,
      "ST": 2636,
      "Ġnon": 2637,
      "Ġwin": 2638,
      "Ġevidence": 2639,
      "gin": 2640,
      "EM": 2641,
      "vered": 2642,
      "UN": 2643,
      "Ġpure": 2644,
      "ĠFl": 2645,
      "Ġcarry": 2646,
      "Ġweak": 2647,
      "Ġbear": 2648,
      "Ġimag": 2649,
      "OT": 2650,
      "ĠMan": 2651,
      "ĠJune": 2652,
      "iqu": 2653,
      "cer": 2654,
      "ivil": 2655,
      "Ġtaking": 2656,
      "Ġvill": 2657,
      "Ġbed": 2658,
      "ging": 2659,
      "Ġhorse": 2660,
      "Ġwalk": 2661,
      "Ġjoy": 2662,
      "ĠFran": 2663,
      "Ġcre": 2664,
      "overed": 2665,
      "Ġfollowed": 2666,
      "Ġmentioned": 2667,
      "ĠSouth": 2668,
      "rate": 2669,
      "ĠJan": 2670,
      "Ġsingle": 2671,
      "Ġtub": 2672,
      "Ġidea": 2673,
      "Ġliving": 2674,
      "Ġnotice": 2675,
      "Ġkn": 2676,
      "aching": 2677,
      "Ġgives": 2678,
      "ification": 2679,
      "ify": 2680,
      "Ġlaws": 2681,
      "osing": 2682,
      "ĠAct": 2683,
      "Ġboy": 2684,
      "enth": 2685,
      "Ġsud": 2686,
      "Ġdistance": 2687,
      "Ġenjoy": 2688,
      "gen": 2689,
      "arm": 2690,
      "Ġ183": 2691,
      "Ġinhab": 2692,
      "Ġredu": 2693,
      "Ġpurs": 2694,
      "Ġreceive": 2695,
      "umb": 2696,
      "Ġtit": 2697,
      "Ġenter": 2698,
      "Ġmagn": 2699,
      "soci": 2700,
      "pan": 2701,
      "ĠCapt": 2702,
      "ĠSm": 2703,
      "Ġarms": 2704,
      "Ġoffice": 2705,
      "CH": 2706,
      "ospit": 2707,
      "Ġfront": 2708,
      "yr": 2709,
      "ĠGree": 2710,
      "itting": 2711,
      "iu": 2712,
      "ĠOct": 2713,
      "respond": 2714,
      "Ġ34": 2715,
      "Ġsure": 2716,
      "raph": 2717,
      "enn": 2718,
      "orrow": 2719,
      "Ġrepl": 2720,
      "ĠJuly": 2721,
      "Ġiron": 2722,
      "Ġcost": 2723,
      "hood": 2724,
      "utions": 2725,
      "teen": 2726,
      "Ġmaster": 2727,
      "Ġcommunic": 2728,
      "Ġdiss": 2729,
      "ĠGerm": 2730,
      "rom": 2731,
      "Ġpleas": 2732,
      "velop": 2733,
      "eness": 2734,
      "ĠEm": 2735,
      "Ġreturned": 2736,
      "Ġplay": 2737,
      "Ġrich": 2738,
      "Ġtou": 2739,
      "Ġdue": 2740,
      "ĠCO": 2741,
      "ĠApr": 2742,
      "eral": 2743,
      "Ġsimple": 2744,
      "Ġsupposed": 2745,
      "Ġproperty": 2746,
      "Ġcult": 2747,
      "pir": 2748,
      "Ġiss": 2749,
      "Ġproduce": 2750,
      "ĠScot": 2751,
      "gar": 2752,
      "Ġcapt": 2753,
      "Ġrapid": 2754,
      "aded": 2755,
      "UL": 2756,
      "Ġtrib": 2757,
      "Ġrecom": 2758,
      "Ġdemand": 2759,
      "ĠAnt": 2760,
      "ĠSte": 2761,
      "Ġready": 2762,
      "Ġdescribed": 2763,
      "Ġdesire": 2764,
      "Ġsole": 2765,
      "Ġnumerous": 2766,
      "ĠGu": 2767,
      "Ġtend": 2768,
      "Ġbegan": 2769,
      "Ġfem": 2770,
      "burg": 2771,
      "ĠSociety": 2772,
      "what": 2773,
      "IST": 2774,
      "Ġprinciple": 2775,
      "Ġmouth": 2776,
      "Ġles": 2777,
      "Ġextent": 2778,
      "Ġ36": 2779,
      "ĠState": 2780,
      "á¿": 2781,
      "Ġsucceed": 2782,
      "Ġapplied": 2783,
      "Ġ..": 2784,
      "Ġlady": 2785,
      "Ġasc": 2786,
      "nce": 2787,
      "Ġasked": 2788,
      "liament": 2789,
      "Ġot": 2790,
      "osop": 2791,
      "Ġrend": 2792,
      "aught": 2793,
      "Ġprinciples": 2794,
      "ov": 2795,
      "Ġextra": 2796,
      "ĠSept": 2797,
      "orough": 2798,
      "Ġcharge": 2799,
      "Ġpractice": 2800,
      "Ġbelow": 2801,
      "Ġturned": 2802,
      "Ġrelie": 2803,
      "Ġess": 2804,
      "Ġstated": 2805,
      "Ġsight": 2806,
      "vey": 2807,
      "Ġoriginal": 2808,
      "erior": 2809,
      "ĠIm": 2810,
      "Ġfuture": 2811,
      "Ġwhy": 2812,
      "Ġelse": 2813,
      "Ġconsequence": 2814,
      "Ġ44": 2815,
      "bed": 2816,
      "Ġoffe": 2817,
      "Ġpaid": 2818,
      "Ġmur": 2819,
      "Ġcertainly": 2820,
      "iding": 2821,
      "ĠGra": 2822,
      "char": 2823,
      "Ġadded": 2824,
      "Ġwild": 2825,
      "Ġsudden": 2826,
      "Ġcry": 2827,
      "Ġlooked": 2828,
      "Ġusual": 2829,
      "Ġevil": 2830,
      "resh": 2831,
      "lin": 2832,
      "Ġ50": 2833,
      "Ġmoral": 2834,
      "Ġmist": 2835,
      "ned": 2836,
      "ĠEar": 2837,
      "ĠGreat": 2838,
      "Ġende": 2839,
      "Ġpleasure": 2840,
      "Ġsize": 2841,
      "Ġgrant": 2842,
      "Ġwhatever": 2843,
      "Ġsociety": 2844,
      "wo": 2845,
      "Ġforward": 2846,
      "ille": 2847,
      "Ġfell": 2848,
      "Ġ>": 2849,
      "Ġ38": 2850,
      "mitted": 2851,
      "Ġfood": 2852,
      "Ġgrand": 2853,
      "Ġmere": 2854,
      "Ġdon": 2855,
      "Ġmort": 2856,
      "Ġsweet": 2857,
      "Ġmerely": 2858,
      "Ġnorth": 2859,
      "Ġprogress": 2860,
      "Ġge": 2861,
      "Ġaround": 2862,
      "Ġloss": 2863,
      "Ġ**": 2864,
      "Ġbound": 2865,
      "Ġproportion": 2866,
      "Ġphil": 2867,
      "Ġgreatest": 2868,
      "....": 2869,
      "Ġdesp": 2870,
      "ĠHar": 2871,
      "mber": 2872,
      "Ġign": 2873,
      "Ġcovered": 2874,
      "ĠQue": 2875,
      "ĠGre": 2876,
      "hest": 2877,
      "ĠUnited": 2878,
      "Ġcorre": 2879,
      "Ġgrad": 2880,
      "Ġenemy": 2881,
      "Ġhus": 2882,
      "Ġgreen": 2883,
      "Ġaut": 2884,
      "Ġafford": 2885,
      "lly": 2886,
      "ĠParis": 2887,
      "Ġaud": 2888,
      "band": 2889,
      "Ġmethod": 2890,
      "ests": 2891,
      "acher": 2892,
      ",)": 2893,
      "20": 2894,
      "Ġ37": 2895,
      "cles": 2896,
      "erved": 2897,
      "Ġpoet": 2898,
      "Ġmain": 2899,
      "ias": 2900,
      "ĠWhere": 2901,
      "Ġinstance": 2902,
      "Ġextreme": 2903,
      "king": 2904,
      "Ġgiving": 2905,
      "Ġsho": 2906,
      "Ġfellow": 2907,
      "ĠGovernment": 2908,
      "Ġpict": 2909,
      "Ġaccept": 2910,
      "Ġfeeling": 2911,
      "Ġmotion": 2912,
      "Ġprincipal": 2913,
      "Ġsqu": 2914,
      "Ġanimal": 2915,
      "Ġgovern": 2916,
      "Ġglory": 2917,
      "Ġarch": 2918,
      "ox": 2919,
      "Ġrecord": 2920,
      "Ġ39": 2921,
      "Ġdoor": 2922,
      "Ġcorrespond": 2923,
      "Ġfal": 2924,
      "Ġhonour": 2925,
      "Ġvent": 2926,
      "Ġlist": 2927,
      "pic": 2928,
      "ules": 2929,
      "Ġ+": 2930,
      "inent": 2931,
      "Ġprove": 2932,
      "ĠYork": 2933,
      "ology": 2934,
      "Ġpros": 2935,
      "Ġmaterial": 2936,
      "ĠSy": 2937,
      "itable": 2938,
      "Ġstood": 2939,
      "Ġillust": 2940,
      "ato": 2941,
      "atur": 2942,
      "ustom": 2943,
      "Ġaddition": 2944,
      "Ġgone": 2945,
      "bon": 2946,
      "Ġallow": 2947,
      "olic": 2948,
      "Ġgard": 2949,
      "ĠDav": 2950,
      "Ġholy": 2951,
      "Ġmakes": 2952,
      "uff": 2953,
      "Ġmeasure": 2954,
      "Ġcivil": 2955,
      "Ġpowers": 2956,
      "Ġgentleman": 2957,
      "Ġweight": 2958,
      "ancy": 2959,
      "ĠRich": 2960,
      "Ġlater": 2961,
      "ening": 2962,
      "Ġstep": 2963,
      "iting": 2964,
      "Ġpos": 2965,
      "Ġfully": 2966,
      "Ġmiddle": 2967,
      "Ġvict": 2968,
      "Ġlibert": 2969,
      "ett": 2970,
      "Ġeasily": 2971,
      "Ġhelp": 2972,
      "Ġkingdom": 2973,
      "Ġpresence": 2974,
      "Ġpassage": 2975,
      "aff": 2976,
      "Ġplants": 2977,
      "Ġnoble": 2978,
      "Ġsugg": 2979,
      "Ġhop": 2980,
      "Î»": 2981,
      "ĠMary": 2982,
      "aled": 2983,
      "ergy": 2984,
      "lands": 2985,
      "Ġbright": 2986,
      "Ġti": 2987,
      "Ġordinary": 2988,
      "Ġ43": 2989,
      "ĠHist": 2990,
      "Ġeduc": 2991,
      "AY": 2992,
      "Ġdry": 2993,
      "atus": 2994,
      "Ġpul": 2995,
      "Ġindic": 2996,
      "CE": 2997,
      "aly": 2998,
      "Ġscarcely": 2999,
      "ĠComp": 3000,
      "ĠFather": 3001,
      "Ġexperience": 3002,
      "Ġdivine": 3003,
      "ma": 3004,
      "Ġdri": 3005,
      "Ġinstead": 3006,
      "ula": 3007,
      "Ġwarm": 3008,
      "ĠCoun": 3009,
      "Ġupper": 3010,
      "Ġadvantage": 3011,
      "oo": 3012,
      "Ġinches": 3013,
      "Ġfun": 3014,
      "ĠCourt": 3015,
      "Ġtable": 3016,
      "iy": 3017,
      "riage": 3018,
      "Ġbird": 3019,
      "Ġoperation": 3020,
      "Ġsir": 3021,
      "ike": 3022,
      "Ġcompany": 3023,
      "Ġappointed": 3024,
      "Ġfra": 3025,
      "het": 3026,
      "Ġparticularly": 3027,
      "Ġfirm": 3028,
      "anced": 3029,
      "Ġ42": 3030,
      "Ġdistrict": 3031,
      "ĠSuch": 3032,
      "amb": 3033,
      "ĠRoman": 3034,
      "Ġdeal": 3035,
      "Ġpoints": 3036,
      "Ġraised": 3037,
      "ids": 3038,
      "Ġpreced": 3039,
      "Ġtot": 3040,
      "ĠMon": 3041,
      "ĠOur": 3042,
      "Ġbas": 3043,
      "Ġwomen": 3044,
      "Ġmaint": 3045,
      "orth": 3046,
      "Ġhappy": 3047,
      "Ġimper": 3048,
      "Ġhast": 3049,
      "Ġwitness": 3050,
      "Ġsoft": 3051,
      "Ġox": 3052,
      "Ġflowers": 3053,
      "Ġforeign": 3054,
      "atory": 3055,
      "ously": 3056,
      "Ġhabit": 3057,
      "AD": 3058,
      "Ġful": 3059,
      "Ġbehind": 3060,
      "âĢ¢": 3061,
      "OS": 3062,
      "Ġsomewhat": 3063,
      "Ġentered": 3064,
      "Ġseven": 3065,
      "form": 3066,
      "Ġremoved": 3067,
      "ishing": 3068,
      "Ġexample": 3069,
      "TH": 3070,
      "oyal": 3071,
      "Ġ45": 3072,
      "Ġcoming": 3073,
      "la": 3074,
      "Ġnar": 3075,
      "like": 3076,
      "15": 3077,
      "12": 3078,
      "lling": 3079,
      "Ġtreatment": 3080,
      "ĠAmerican": 3081,
      "Ġdaughter": 3082,
      "Ġreligious": 3083,
      "Ġallowed": 3084,
      "fs": 3085,
      "Ġproved": 3086,
      "ege": 3087,
      "ĠSw": 3088,
      "elve": 3089,
      "Ġletters": 3090,
      "ression": 3091,
      "Ġendeav": 3092,
      "sec": 3093,
      "ĠAugust": 3094,
      "Ġsacr": 3095,
      "Ġsav": 3096,
      "ensive": 3097,
      "ĠOh": 3098,
      "ories": 3099,
      "Ġfol": 3100,
      "Ġfruit": 3101,
      "ni": 3102,
      "Ġpret": 3103,
      "Ġjudgment": 3104,
      "nes": 3105,
      "Ġdirection": 3106,
      "Ġinhabit": 3107,
      "Ġhair": 3108,
      "Ġbase": 3109,
      "Ġmeas": 3110,
      "ris": 3111,
      "Ġexceed": 3112,
      "Ġfit": 3113,
      "Ġwa": 3114,
      "Ġgall": 3115,
      "AND": 3116,
      "Ġsort": 3117,
      "ĠRobert": 3118,
      "Ġbecomes": 3119,
      "Ġast": 3120,
      "Ġexistence": 3121,
      "Ġdevelop": 3122,
      "ush": 3123,
      "Ġdestroy": 3124,
      "UM": 3125,
      "ander": 3126,
      "Ġreally": 3127,
      "ĠLa": 3128,
      "Ġago": 3129,
      "Ġusually": 3130,
      "Ġjour": 3131,
      "Ġofficers": 3132,
      "Ġtrees": 3133,
      "anks": 3134,
      "Ġjustice": 3135,
      "Ġexact": 3136,
      "Ġdro": 3137,
      "ĠAv": 3138,
      "Ġprivate": 3139,
      "Ġtrade": 3140,
      "Ġrecomme": 3141,
      "Ġfamil": 3142,
      "Ġlines": 3143,
      "Ġyellow": 3144,
      "ih": 3145,
      "Ġcit": 3146,
      "uments": 3147,
      "Ġdanger": 3148,
      "ody": 3149,
      "omp": 3150,
      "ĠRep": 3151,
      "17": 3152,
      "Ġsuperior": 3153,
      "Ġlabour": 3154,
      "Ġsympt": 3155,
      "Ġsouth": 3156,
      "ĠÏĦ": 3157,
      "Ġappre": 3158,
      "inist": 3159,
      "ortun": 3160,
      "old": 3161,
      "Ġsupply": 3162,
      "ĠCount": 3163,
      "Ġdifficulty": 3164,
      "Ġsty": 3165,
      "Ġagree": 3166,
      "Ġdelight": 3167,
      "Ġterms": 3168,
      "Ġproof": 3169,
      "Ġbott": 3170,
      "iling": 3171,
      "Ġconstit": 3172,
      "ially": 3173,
      "Ġconvers": 3174,
      "Ġstone": 3175,
      "Ġcred": 3176,
      "hens": 3177,
      "vation": 3178,
      "Ġfu": 3179,
      "Ġprepared": 3180,
      "Ġqual": 3181,
      "Ġdrawn": 3182,
      ".;": 3183,
      "Ġsup": 3184,
      "Ġrise": 3185,
      "Ġmult": 3186,
      "Ġol": 3187,
      "Ġimposs": 3188,
      "ye": 3189,
      "ĠTheir": 3190,
      "Ġcomfort": 3191,
      "ĠLI": 3192,
      "Ġbroad": 3193,
      "itive": 3194,
      "Ġcrown": 3195,
      "ray": 3196,
      "Ġdraw": 3197,
      "Ġimportance": 3198,
      "Ġble": 3199,
      "Ġenl": 3200,
      "Ġincrease": 3201,
      "Ġspecim": 3202,
      "Ġregular": 3203,
      "Ġgrat": 3204,
      "ĠON": 3205,
      "ĠFeb": 3206,
      "ERS": 3207,
      "yal": 3208,
      "ID": 3209,
      "ilst": 3210,
      "road": 3211,
      "Ġlad": 3212,
      "ik": 3213,
      "isters": 3214,
      "Ġsatisfact": 3215,
      "ĠAc": 3216,
      "Ġapparent": 3217,
      "Ġ182": 3218,
      "Ġnerv": 3219,
      "ech": 3220,
      "ule": 3221,
      "Ġwonder": 3222,
      "ĠIr": 3223,
      "Ġsan": 3224,
      "fit": 3225,
      "Ġdil": 3226,
      "ĠIre": 3227,
      "Ġpublished": 3228,
      "Ġquick": 3229,
      "ipp": 3230,
      "Ġsto": 3231,
      "omy": 3232,
      "ĠMarch": 3233,
      "Ġrule": 3234,
      "Ġsides": 3235,
      "Ġincreased": 3236,
      "Ġliter": 3237,
      "Ġnames": 3238,
      "Ġtli": 3239,
      "Ġmanif": 3240,
      "Ġsul": 3241,
      "Ġwide": 3242,
      "Ġremarkable": 3243,
      "Ġstates": 3244,
      "Ġwat": 3245,
      "iles": 3246,
      "14": 3247,
      "--": 3248,
      "Ġuseful": 3249,
      "ĠRome": 3250,
      "Ġll": 3251,
      "ogn": 3252,
      "Ġremains": 3253,
      "Ġsubjects": 3254,
      "Ġcauses": 3255,
      "Ġcomes": 3256,
      "ption": 3257,
      "ĠMess": 3258,
      "ĠPaul": 3259,
      "ĠJew": 3260,
      "Ġcorn": 3261,
      "verse": 3262,
      "Ġunivers": 3263,
      "fi": 3264,
      "mo": 3265,
      "bid": 3266,
      "Ġestablish": 3267,
      "Ġequally": 3268,
      "Ġma": 3269,
      "ables": 3270,
      "Ġbreat": 3271,
      "ĠIII": 3272,
      "rated": 3273,
      "Ġhusband": 3274,
      "Ġintended": 3275,
      "Ġshown": 3276,
      "Ġbeauty": 3277,
      "TS": 3278,
      "Ġbreak": 3279,
      "itation": 3280,
      "Ġtop": 3281,
      "Ġunless": 3282,
      "osite": 3283,
      "Ġhot": 3284,
      "irth": 3285,
      "16": 3286,
      "Ġseason": 3287,
      "Ġeffects": 3288,
      "Ġmal": 3289,
      "Ġanx": 3290,
      "Ġdoctrine": 3291,
      "Ġhigher": 3292,
      "umed": 3293,
      "Ġfi": 3294,
      "Ġthirty": 3295,
      "ability": 3296,
      "Ġ187": 3297,
      "Ġarrived": 3298,
      "Ġspring": 3299,
      "Ġconnected": 3300,
      "ĠAmerica": 3301,
      "rief": 3302,
      "Î¼": 3303,
      "Ġprepar": 3304,
      "Ġflu": 3305,
      "ĠSpirit": 3306,
      "ĠWho": 3307,
      "Ġau": 3308,
      "Ġrender": 3309,
      "ibility": 3310,
      "Ġmode": 3311,
      "Ġbill": 3312,
      "Ġforg": 3313,
      "ĠApril": 3314,
      "rees": 3315,
      "Ġfast": 3316,
      "Ġinn": 3317,
      "19": 3318,
      "ĠTe": 3319,
      "itor": 3320,
      "pet": 3321,
      "Ġreign": 3322,
      "house": 3323,
      "Ġsuppose": 3324,
      "Ġprec": 3325,
      "Ġsleep": 3326,
      "ili": 3327,
      "ented": 3328,
      "Ġcat": 3329,
      "Ġov": 3330,
      "Ġqui": 3331,
      "Ġ100": 3332,
      "inite": 3333,
      "ingly": 3334,
      "Ġyield": 3335,
      "Ġfixed": 3336,
      "ufact": 3337,
      "ades": 3338,
      "Ġtwelve": 3339,
      "Ġ)": 3340,
      "Ġcompar": 3341,
      "ati": 3342,
      "ros": 3343,
      "Ġnative": 3344,
      "Ġcontrary": 3345,
      "ĠMo": 3346,
      "Ġly": 3347,
      "arily": 3348,
      "Ġvessels": 3349,
      "Ġphilosop": 3350,
      "Ġfacts": 3351,
      "ĠÃ": 3352,
      "atis": 3353,
      "Ġarrange": 3354,
      "Ġprint": 3355,
      "ourage": 3356,
      "13": 3357,
      "Ġcele": 3358,
      "ishment": 3359,
      "Ġdepend": 3360,
      "ĠPort": 3361,
      "Ġyouth": 3362,
      "Ġresults": 3363,
      "ĠRoyal": 3364,
      "Ġremed": 3365,
      "Ġheight": 3366,
      "Ġhouses": 3367,
      "Ġ]": 3368,
      "ĠYet": 3369,
      "Ġvain": 3370,
      "Ġaid": 3371,
      "Ġspread": 3372,
      "Ġbread": 3373,
      "erted": 3374,
      "eks": 3375,
      "Ġfilled": 3376,
      "Ġconstitution": 3377,
      "Ġestablished": 3378,
      "hire": 3379,
      "bran": 3380,
      "Ġimprove": 3381,
      "Ġtbe": 3382,
      "Ġliberty": 3383,
      "Ġdischar": 3384,
      "Ġherself": 3385,
      "lc": 3386,
      "ari": 3387,
      "Ġopportun": 3388,
      "olute": 3389,
      "Ġindu": 3390,
      "anges": 3391,
      "Ġsubstance": 3392,
      "ĠProf": 3393,
      "Ġfresh": 3394,
      "Ġanything": 3395,
      "ospel": 3396,
      "Ġnob": 3397,
      "Ġreplied": 3398,
      "ĠCaptain": 3399,
      "ĠJe": 3400,
      "ĠWas": 3401,
      "ĠCath": 3402,
      "Ġpap": 3403,
      "ha": 3404,
      "Ġtaste": 3405,
      "Ġinstr": 3406,
      "ĠIreland": 3407,
      "Ġspir": 3408,
      "ĠIndia": 3409,
      "Ġanimals": 3410,
      "Ġlearned": 3411,
      "Ġ180": 3412,
      "iced": 3413,
      "aken": 3414,
      "Ġchap": 3415,
      "ĠMin": 3416,
      "oi": 3417,
      "Ġspot": 3418,
      "iform": 3419,
      "ĠTH": 3420,
      "Ġattended": 3421,
      "Ġburn": 3422,
      "Ġmill": 3423,
      "Ġexcellent": 3424,
      "Ġpp": 3425,
      "Ġdistinguished": 3426,
      "ĠEn": 3427,
      "Ġcav": 3428,
      "ĠMad": 3429,
      "Ġtor": 3430,
      "Ġcru": 3431,
      "Ġparent": 3432,
      "Ġspecial": 3433,
      "Ġimpossible": 3434,
      "Ġbit": 3435,
      "enced": 3436,
      "Ġadopted": 3437,
      "Ġfalse": 3438,
      "Ġtroops": 3439,
      "ĠCHAP": 3440,
      "Ġgod": 3441,
      "Ġprim": 3442,
      "Ġvariety": 3443,
      "Ġsour": 3444,
      "ourable": 3445,
      "isp": 3446,
      "Ġadmir": 3447,
      "Ġdom": 3448,
      "where": 3449,
      "Ġnote": 3450,
      "Ġelect": 3451,
      "Ġpresented": 3452,
      "Ġdoing": 3453,
      "Ġdre": 3454,
      "ĠIV": 3455,
      "Ġtry": 3456,
      "Ġpi": 3457,
      "ublic": 3458,
      "Ġfail": 3459,
      "ĠHim": 3460,
      "Ġobjects": 3461,
      "Ġapplication": 3462,
      "rt": 3463,
      "Ġbattle": 3464,
      "Ġdece": 3465,
      "Ġgreatly": 3466,
      "AG": 3467,
      "Ġaffection": 3468,
      "IG": 3469,
      "Ġ''": 3470,
      "ĠMor": 3471,
      "Ġnarrow": 3472,
      "Ġinteresting": 3473,
      "ulated": 3474,
      "Ġgir": 3475,
      "ĠCouncil": 3476,
      "Ġâ": 3477,
      "Ġbroken": 3478,
      "Ġ48": 3479,
      "Ġremained": 3480,
      "rous": 3481,
      "Ġproposed": 3482,
      "pon": 3483,
      "Ġpossession": 3484,
      "Ġband": 3485,
      "Ġinstru": 3486,
      "ĠConst": 3487,
      "lected": 3488,
      "Ġperfectly": 3489,
      "Ġrace": 3490,
      "Ġdescription": 3491,
      "nown": 3492,
      "Ġbooks": 3493,
      "Ġtree": 3494,
      "ĠLat": 3495,
      "ĠReg": 3496,
      "Ġglass": 3497,
      "Ġrequire": 3498,
      "Ġinhabitants": 3499,
      "nest": 3500,
      "Ġack": 3501,
      "ĠQueen": 3502,
      "Ġbow": 3503,
      "Ġdetermined": 3504,
      "Ġopened": 3505,
      "ically": 3506,
      "ĠEdward": 3507,
      "Ġopposite": 3508,
      "isions": 3509,
      "Ġcentury": 3510,
      "OC": 3511,
      "Ġpolitical": 3512,
      "Ġq": 3513,
      "ails": 3514,
      "Ġexpected": 3515,
      "Ġpurch": 3516,
      "Ġnamed": 3517,
      "ĠSav": 3518,
      "ograph": 3519,
      "Ġsick": 3520,
      "Ġboard": 3521,
      "racted": 3522,
      "Ġfle": 3523,
      "ospital": 3524,
      "Ġdifference": 3525,
      "ĠRE": 3526,
      "vert": 3527,
      "Ġavo": 3528,
      "orious": 3529,
      "ny": 3530,
      "ĠWhy": 3531,
      "Ġnecessity": 3532,
      "Ġtakes": 3533,
      "olution": 3534,
      "Ġborn": 3535,
      ",,": 3536,
      "Ġsend": 3537,
      "Ġsurr": 3538,
      "aped": 3539,
      "Ġcultiv": 3540,
      "Ġune": 3541,
      "Ġotherwise": 3542,
      "ij": 3543,
      "ĠLady": 3544,
      "Ġbishop": 3545,
      "Ġnations": 3546,
      "ĠBishop": 3547,
      "ĠOff": 3548,
      "field": 3549,
      "irst": 3550,
      "ners": 3551,
      "Ġduties": 3552,
      "uable": 3553,
      "Ġcentre": 3554,
      "Ġhighest": 3555,
      "Ġquiet": 3556,
      "Ġacknow": 3557,
      "Ġbodies": 3558,
      "Ġ46": 3559,
      "Ġsuffer": 3560,
      "Ġdiscuss": 3561,
      "Ġrose": 3562,
      "Ġpiece": 3563,
      "ĠXX": 3564,
      "ĠAcc": 3565,
      "Ġmel": 3566,
      "uding": 3567,
      "ching": 3568,
      "Ġdesce": 3569,
      "ĠPre": 3570,
      "Ġglad": 3571,
      "Ġsoil": 3572,
      "Ġbeginning": 3573,
      "Ġsolution": 3574,
      "Ġtalk": 3575,
      "Ġsatisf": 3576,
      "ĠÐ": 3577,
      "ĠMag": 3578,
      "Ġguard": 3579,
      "Ġworthy": 3580,
      "IV": 3581,
      "Th": 3582,
      "Ġcelebr": 3583,
      "esh": 3584,
      "ua": 3585,
      "ĠSon": 3586,
      "Ġconsideration": 3587,
      "Ġpassing": 3588,
      "50": 3589,
      "ĠJud": 3590,
      "Ġliqu": 3591,
      "Ġhost": 3592,
      "''": 3593,
      "Ġmedic": 3594,
      "Ġneighbour": 3595,
      "Ġflo": 3596,
      "ourse": 3597,
      "Ġmarked": 3598,
      "Ġignor": 3599,
      "isl": 3600,
      "bury": 3601,
      "Ġsymptoms": 3602,
      "ĠBer": 3603,
      "port": 3604,
      "Ġsad": 3605,
      "Ġfil": 3606,
      "Ġspace": 3607,
      "Ġmedical": 3608,
      "Ġsurpr": 3609,
      "Ġmine": 3610,
      "Ġstart": 3611,
      "Ġpath": 3612,
      "uls": 3613,
      "ĠDuke": 3614,
      "Ġib": 3615,
      "Ġwinter": 3616,
      "ension": 3617,
      "gra": 3618,
      "ĠHoly": 3619,
      "Ġ47": 3620,
      "Ġcoast": 3621,
      "Ġ60": 3622,
      "IA": 3623,
      "lle": 3624,
      "Ġcompan": 3625,
      "erate": 3626,
      "Ġintellig": 3627,
      "Ġeasy": 3628,
      "Ġtender": 3629,
      "Ġrecogn": 3630,
      "Ġlarger": 3631,
      "rd": 3632,
      "Ġthroughout": 3633,
      "Ġutter": 3634,
      "arp": 3635,
      "ria": 3636,
      "ĠIts": 3637,
      "Ġsand": 3638,
      "Ġourselves": 3639,
      "set": 3640,
      "Ġfer": 3641,
      "ĠMac": 3642,
      "Ġdwell": 3643,
      "Ġdefend": 3644,
      "30": 3645,
      "Ġdrink": 3646,
      "Ġwise": 3647,
      "ĠÂ»": 3648,
      "Ġinflamm": 3649,
      "Ġskin": 3650,
      "ĠHall": 3651,
      "ta": 3652,
      "Ġslow": 3653,
      "Ġrendered": 3654,
      "ĠSam": 3655,
      "Ġgro": 3656,
      "Ġsaying": 3657,
      "Ġinformation": 3658,
      "Ġje": 3659,
      "Ġbranches": 3660,
      "Ġunf": 3661,
      "Ġassemb": 3662,
      "otion": 3663,
      "uary": 3664,
      "Ġdaily": 3665,
      "gs": 3666,
      "Ġobtain": 3667,
      "asons": 3668,
      "Ġsi": 3669,
      "Ġfever": 3670,
      "Ġlocal": 3671,
      "Ġwatch": 3672,
      "stood": 3673,
      "ibly": 3674,
      "Ġreached": 3675,
      "Ġee": 3676,
      "inate": 3677,
      "pire": 3678,
      "orses": 3679,
      "Ġwhilst": 3680,
      "âĢĺ": 3681,
      "...": 3682,
      "olved": 3683,
      "Ġresist": 3684,
      "Ġwrong": 3685,
      "Ġreference": 3686,
      "Ġhearts": 3687,
      "ĠRo": 3688,
      "ailed": 3689,
      "Ġtal": 3690,
      "oid": 3691,
      "ifice": 3692,
      "Ġcorrect": 3693,
      "ĠLaw": 3694,
      "Ġmatters": 3695,
      "Ġdivided": 3696,
      "Ġmut": 3697,
      "clock": 3698,
      "Ġengaged": 3699,
      "reed": 3700,
      "ational": 3701,
      "Ġpersonal": 3702,
      "Ġadmitted": 3703,
      "Ġcover": 3704,
      "Ġfollows": 3705,
      "Ġcontro": 3706,
      "Ġhighly": 3707,
      "Ġdiscovered": 3708,
      "Ġprayer": 3709,
      "va": 3710,
      "Ġpred": 3711,
      "Ġcrow": 3712,
      "inity": 3713,
      "ĠJer": 3714,
      "Ġassoci": 3715,
      "Ġsulph": 3716,
      "Ġspiritual": 3717,
      "iant": 3718,
      "Ġbuilding": 3719,
      "alm": 3720,
      "Ġthoughts": 3721,
      "ĠArt": 3722,
      "ĠLie": 3723,
      "Ġstruct": 3724,
      "NG": 3725,
      "ĠDiv": 3726,
      "Ġintroduced": 3727,
      "Ġcounty": 3728,
      "ĠLo": 3729,
      "Ġperce": 3730,
      "Ġaccompl": 3731,
      "ĠScript": 3732,
      "Ġscience": 3733,
      "Ġfeelings": 3734,
      "ĠAlex": 3735,
      "Ġbrown": 3736,
      "Ġsafe": 3737,
      "Ġ179": 3738,
      "ĠHigh": 3739,
      "ĠWil": 3740,
      "Ġabund": 3741,
      "Ġlat": 3742,
      "cts": 3743,
      "ential": 3744,
      "oup": 3745,
      "Ġvers": 3746,
      "Ġtong": 3747,
      "onel": 3748,
      "Ġdispl": 3749,
      "Ïī": 3750,
      "esc": 3751,
      "III": 3752,
      "Ġabsolute": 3753,
      "Ġprice": 3754,
      "Ġ$": 3755,
      "Ġsituation": 3756,
      "AB": 3757,
      "ĠGen": 3758,
      "Ġoffered": 3759,
      "Ġjudge": 3760,
      "Ġcontains": 3761,
      "Ġhur": 3762,
      "Ġlikely": 3763,
      "Ġwalls": 3764,
      "ini": 3765,
      "ĠArch": 3766,
      "een": 3767,
      "Ġsn": 3768,
      "ds": 3769,
      "Ġproc": 3770,
      "Ġstudy": 3771,
      "ĸł": 3772,
      "Ġstrange": 3773,
      "Ġchiefly": 3774,
      "Ġalter": 3775,
      "Ġstyle": 3776,
      "Ġviews": 3777,
      "Ġmembran": 3778,
      "Ġlived": 3779,
      "ĠSur": 3780,
      "Ġhab": 3781,
      "ĠChe": 3782,
      "Ġmanufact": 3783,
      "sp": 3784,
      "ara": 3785,
      "Ġtl": 3786,
      "ĠEp": 3787,
      "worth": 3788,
      "Ġep": 3789,
      "icked": 3790,
      "ĠVol": 3791,
      "Ġtitle": 3792,
      "ĠWhile": 3793,
      "Ġsilver": 3794,
      "Ġcontaining": 3795,
      "Ġexpressed": 3796,
      "Ġven": 3797,
      "illing": 3798,
      "Ġexercise": 3799,
      "bor": 3800,
      "known": 3801,
      "Ġheavy": 3802,
      "Ġquarter": 3803,
      "Ġcaused": 3804,
      "Ġcand": 3805,
      "Ġparties": 3806,
      "Ġprofession": 3807,
      "ĠHon": 3808,
      "Ġhardly": 3809,
      "Ġorders": 3810,
      "Ġaddress": 3811,
      "Ġexpression": 3812,
      "ĠSal": 3813,
      "ĠÂ§": 3814,
      "OW": 3815,
      "Ġalto": 3816,
      "Ġminute": 3817,
      "aa": 3818,
      "Ġ49": 3819,
      "Ġprevious": 3820,
      "asc": 3821,
      "essor": 3822,
      "ĠInst": 3823,
      "Ġdress": 3824,
      "ĠScotland": 3825,
      "ĠAf": 3826,
      "era": 3827,
      "Ġsave": 3828,
      "Ġoil": 3829,
      "eg": 3830,
      "ares": 3831,
      "ĠPrince": 3832,
      "ESS": 3833,
      "ological": 3834,
      "pri": 3835,
      "ception": 3836,
      "Ġscene": 3837,
      "ĠIndian": 3838,
      "ators": 3839,
      "bert": 3840,
      "ĠBra": 3841,
      "head": 3842,
      "night": 3843,
      "UT": 3844,
      "Ġvig": 3845,
      "Ġreve": 3846,
      "Ġinstances": 3847,
      "ĠVir": 3848,
      "Ġeat": 3849,
      "Ġindepend": 3850,
      "ask": 3851,
      "ority": 3852,
      "com": 3853,
      "Ġcapital": 3854,
      "Ġtum": 3855,
      "min": 3856,
      "Ġaccompan": 3857,
      "Ïħ": 3858,
      "ĠEli": 3859,
      "ĠDec": 3860,
      "Ġgrave": 3861,
      "ishes": 3862,
      "ĠPeter": 3863,
      "Ġanal": 3864,
      "ĠRom": 3865,
      "Ġrate": 3866,
      "Ġhyd": 3867,
      "cip": 3868,
      "Ġprovided": 3869,
      "wered": 3870,
      "owing": 3871,
      "Ġbeneath": 3872,
      "ĠCam": 3873,
      "ino": 3874,
      "ĠStreet": 3875,
      "Ġones": 3876,
      "Ġthrow": 3877,
      "Ġlooking": 3878,
      "ĠHy": 3879,
      "ea": 3880,
      "Ġamongst": 3881,
      "ĠOx": 3882,
      "utation": 3883,
      "Ġdimin": 3884,
      "Ġbank": 3885,
      "omach": 3886,
      "Ġbuilt": 3887,
      "Ġthin": 3888,
      "vent": 3889,
      "terior": 3890,
      "Ġfro": 3891,
      "orum": 3892,
      "bell": 3893,
      "ĠSmith": 3894,
      "Ġod": 3895,
      "Ġtions": 3896,
      "Ġexped": 3897,
      "Ġcontained": 3898,
      "ĠCa": 3899,
      "Ġdelic": 3900,
      "igned": 3901,
      "ĠCON": 3902,
      "Ġleaving": 3903,
      "cies": 3904,
      "aces": 3905,
      "Ġobliged": 3906,
      "ĠMa": 3907,
      "Ġwait": 3908,
      "Ġrepeated": 3909,
      "Ġvaluable": 3910,
      "Ġtin": 3911,
      "Ġtrave": 3912,
      "Ġrelation": 3913,
      "Ġcalcul": 3914,
      "udes": 3915,
      "Ġmodern": 3916,
      "Ġarticle": 3917,
      "Ġdisci": 3918,
      "Ġhence": 3919,
      "bl": 3920,
      "ĠHam": 3921,
      "ĠCr": 3922,
      "peror": 3923,
      "Ġfib": 3924,
      "Ġobst": 3925,
      "ĠPet": 3926,
      "Ġevent": 3927,
      "ĠRichard": 3928,
      "emed": 3929,
      "Ġmat": 3930,
      "Ġexternal": 3931,
      "gypt": 3932,
      "Ġwid": 3933,
      "40": 3934,
      "ca": 3935,
      "Ġresemb": 3936,
      "iour": 3937,
      "Ġseries": 3938,
      "Ġsummer": 3939,
      "Ġwine": 3940,
      "iis": 3941,
      "Ġadminist": 3942,
      "Ġsevere": 3943,
      "Ġdirected": 3944,
      "ĠProv": 3945,
      "Ġvirtue": 3946,
      "Ġstanding": 3947,
      "eous": 3948,
      "ĠOld": 3949,
      "ĠPresident": 3950,
      "Ġexamination": 3951,
      "ios": 3952,
      "Ġroyal": 3953,
      "ounced": 3954,
      "OP": 3955,
      "Ġapost": 3956,
      "side": 3957,
      "Ġserve": 3958,
      "ixt": 3959,
      "Ġopportunity": 3960,
      "ĠWar": 3961,
      "Ġisland": 3962,
      "EW": 3963,
      "Î¯": 3964,
      "ump": 3965,
      "Ġcloud": 3966,
      "uf": 3967,
      "Ġtransl": 3968,
      "Ġfee": 3969,
      "Ġhorses": 3970,
      "Ġextend": 3971,
      "Â£": 3972,
      "Ġstock": 3973,
      "Ġearnest": 3974,
      "ainted": 3975,
      "aker": 3976,
      "Ġforty": 3977,
      "Ġminds": 3978,
      "ĠPat": 3979,
      "Ġthrown": 3980,
      "Ġminutes": 3981,
      "ĠParliament": 3982,
      "ĠCong": 3983,
      "ico": 3984,
      "ev": 3985,
      "urb": 3986,
      "Ġmir": 3987,
      "Ġ^^": 3988,
      "Ġinvest": 3989,
      "Ġfigure": 3990,
      "Ġmeaning": 3991,
      "estions": 3992,
      "atives": 3993,
      "Ġjoint": 3994,
      "Ġordered": 3995,
      "Ġspr": 3996,
      "Ġgun": 3997,
      "Ġdecided": 3998,
      "Ġuns": 3999,
      "Ġ?\"": 4000,
      "Ġpopular": 4001,
      "cis": 4002,
      "Ġextrem": 4003,
      "asing": 4004,
      "Ġneck": 4005,
      "Ġbesides": 4006,
      "Ġcum": 4007,
      "Ġdeli": 4008,
      "ply": 4009,
      "Ġnumbers": 4010,
      "ĠSpan": 4011,
      "Ġlives": 4012,
      "Ġregarded": 4013,
      "umph": 4014,
      "Ġbelieved": 4015,
      "Ġmilitary": 4016,
      "Ġremember": 4017,
      "Ġdread": 4018,
      "ĠEarl": 4019,
      "Ġblue": 4020,
      "/.": 4021,
      "Ġvast": 4022,
      "Ġsed": 4023,
      "Ġsymp": 4024,
      "Ġanswered": 4025,
      "rid": 4026,
      "Ġcho": 4027,
      "'ll": 4028,
      "Ġmercy": 4029,
      "?\"": 4030,
      "Ġunderstood": 4031,
      "Ġcra": 4032,
      "Ġinquir": 4033,
      "Ġdig": 4034,
      "Ġflesh": 4035,
      "ival": 4036,
      "Ġminister": 4037,
      "Ġaltogether": 4038,
      "Ġfrequent": 4039,
      "Ġstrang": 4040,
      "Ġwrote": 4041,
      "umn": 4042,
      "Ġpale": 4043,
      "Ġstrict": 4044,
      "Ġcomposed": 4045,
      "Ġcamp": 4046,
      "ĠDE": 4047,
      "Ġdouble": 4048,
      "ura": 4049,
      "aven": 4050,
      "lement": 4051,
      "ems": 4052,
      "Ġcontem": 4053,
      "Ġcere": 4054,
      "Ġoccupied": 4055,
      "ĠAust": 4056,
      "AV": 4057,
      "Ġactive": 4058,
      "ĠSpe": 4059,
      "Ġpron": 4060,
      "Ġinterp": 4061,
      "Ġnit": 4062,
      "',": 4063,
      "Ġspeaking": 4064,
      "Ġdeclared": 4065,
      "LI": 4066,
      "ĠGreek": 4067,
      "ĠThou": 4068,
      "tr": 4069,
      "Ġwest": 4070,
      "Ġoffer": 4071,
      "Ġweeks": 4072,
      "Ġfifty": 4073,
      "Ġeducation": 4074,
      "TIC": 4075,
      "Ġdesir": 4076,
      "acity": 4077,
      "'.": 4078,
      "Ġpowerful": 4079,
      "urches": 4080,
      "Ġange": 4081,
      "Ġze": 4082,
      "Ġpieces": 4083,
      "Ġworship": 4084,
      "Ġber": 4085,
      "ole": 4086,
      "under": 4087,
      "cd": 4088,
      "Ġreferred": 4089,
      "ĠPal": 4090,
      "Ġ178": 4091,
      "Ġsacred": 4092,
      "ĠAnn": 4093,
      "Ġgentlemen": 4094,
      "Ġapply": 4095,
      "ĠBur": 4096,
      "cn": 4097,
      "Ġmember": 4098,
      "ayed": 4099,
      "ĠEast": 4100,
      "Ġoccurred": 4101,
      "icted": 4102,
      "ĠMil": 4103,
      "ĠMajesty": 4104,
      "plic": 4105,
      "aints": 4106,
      "Ġcrit": 4107,
      "ributed": 4108,
      "ĠEgypt": 4109,
      "omb": 4110,
      "OG": 4111,
      "SS": 4112,
      "Ġtreated": 4113,
      "ager": 4114,
      "ĠWor": 4115,
      "Ġsalt": 4116,
      "ĠEvery": 4117,
      "Ġtrial": 4118,
      "Ġdam": 4119,
      "cle": 4120,
      "ti": 4121,
      "Ġrank": 4122,
      "ĠThy": 4123,
      "burgh": 4124,
      "Ġgradually": 4125,
      "Ġadvanced": 4126,
      "Ġcord": 4127,
      "Ġvolume": 4128,
      "Ġvel": 4129,
      "ĠJour": 4130,
      "Ġrad": 4131,
      "Ġstory": 4132,
      "rant": 4133,
      "Ġaffected": 4134,
      "Ġsubsequ": 4135,
      "Ġsons": 4136,
      "Ġopening": 4137,
      "Ġcontinue": 4138,
      "ĠCollege": 4139,
      "Îº": 4140,
      "imony": 4141,
      "Ġbirth": 4142,
      "Ġpraise": 4143,
      "Ġhat": 4144,
      "Ġfavor": 4145,
      "ĠMid": 4146,
      "Ġglo": 4147,
      "Ġpurposes": 4148,
      "ĠCommittee": 4149,
      "ivered": 4150,
      "Ġconfidence": 4151,
      "ORY": 4152,
      "Ġwisdom": 4153,
      "wood": 4154,
      "Ġevid": 4155,
      "Ġamb": 4156,
      "Ġrid": 4157,
      "Ġsteam": 4158,
      "Ġstreet": 4159,
      "Ġconven": 4160,
      "Ġdiff": 4161,
      "unk": 4162,
      "Ġcou": 4163,
      "Ġfreed": 4164,
      "Ġmoved": 4165,
      "Ġreach": 4166,
      "aph": 4167,
      "cs": 4168,
      "iation": 4169,
      "order": 4170,
      "Ġremarks": 4171,
      "Ġwriter": 4172,
      "othing": 4173,
      "standing": 4174,
      "ĠDavid": 4175,
      "ĠLou": 4176,
      "Ġsolemn": 4177,
      "Ġstomach": 4178,
      "Ġax": 4179,
      "fect": 4180,
      "Ġflower": 4181,
      ".^": 4182,
      "oration": 4183,
      "gn": 4184,
      "icy": 4185,
      "Ġ55": 4186,
      "iance": 4187,
      "25": 4188,
      "Ġsple": 4189,
      "Ġadvance": 4190,
      "ĠTur": 4191,
      "Ġspeech": 4192,
      "Ġwealth": 4193,
      "ode": 4194,
      "EE": 4195,
      "Ġclasses": 4196,
      "Ġpour": 4197,
      "Ġconqu": 4198,
      "ĠDon": 4199,
      "Ġdepos": 4200,
      "oph": 4201,
      "ĠPers": 4202,
      "Ġofficer": 4203,
      "Ġnav": 4204,
      "Ġball": 4205,
      "asp": 4206,
      "Ġkinds": 4207,
      "ĠJO": 4208,
      "estern": 4209,
      "Ġ188": 4210,
      "rer": 4211,
      "ĠCons": 4212,
      "ĠMessrs": 4213,
      "Ġdign": 4214,
      "Ġetc": 4215,
      "cho": 4216,
      "Ġlands": 4217,
      "Ġexcess": 4218,
      "uits": 4219,
      "ĠWell": 4220,
      "Ġentit": 4221,
      "Ġvic": 4222,
      "ĠSto": 4223,
      "irs": 4224,
      "Ġgrowth": 4225,
      "Ġhappiness": 4226,
      "Ġhonor": 4227,
      "OD": 4228,
      "Ġseat": 4229,
      "Ġattached": 4230,
      "'-": 4231,
      "Ġweather": 4232,
      "Ġdistant": 4233,
      "Ġ....": 4234,
      "Ġdate": 4235,
      "ĠPR": 4236,
      "Ġnine": 4237,
      "Ġacts": 4238,
      "Ġbold": 4239,
      "ĠâĢŀ": 4240,
      "Ġpretty": 4241,
      "Ġstation": 4242,
      "ading": 4243,
      "ARD": 4244,
      "Ġrepresented": 4245,
      "ws": 4246,
      "street": 4247,
      "Ġsorrow": 4248,
      "Ġded": 4249,
      "Ġapart": 4250,
      "ĠLieut": 4251,
      "Ġdescrib": 4252,
      "Ġhither": 4253,
      "ĠPri": 4254,
      "Ġcustom": 4255,
      "Ġflat": 4256,
      "ION": 4257,
      "Ġ~": 4258,
      "Ġprefer": 4259,
      "Ġearli": 4260,
      "oken": 4261,
      "ients": 4262,
      "ming": 4263,
      "Ġmountain": 4264,
      "Ġseek": 4265,
      "Ġtried": 4266,
      "Ġmad": 4267,
      "Ġmeasures": 4268,
      "Ġimmediate": 4269,
      "Î·": 4270,
      "ĠBel": 4271,
      "icle": 4272,
      "Ġ80": 4273,
      "Ġevents": 4274,
      "oles": 4275,
      "Ġtruly": 4276,
      "Ġsucceeded": 4277,
      "Ġcommer": 4278,
      "cher": 4279,
      "ĠYe": 4280,
      "Ġacross": 4281,
      "Ġarticles": 4282,
      "ĠCast": 4283,
      "Ġtext": 4284,
      "ague": 4285,
      "verted": 4286,
      "Ġwriting": 4287,
      "aches": 4288,
      "leg": 4289,
      "ĠFOR": 4290,
      "ĠJose": 4291,
      "Ġaccompanied": 4292,
      "wed": 4293,
      "Ġhom": 4294,
      "Ġreading": 4295,
      "Ġcitiz": 4296,
      "Ġlies": 4297,
      "ĠCont": 4298,
      "Ġiu": 4299,
      "astic": 4300,
      "ĠTwo": 4301,
      "Ġbenefit": 4302,
      "zz": 4303,
      "Ġserious": 4304,
      "Ġfemale": 4305,
      "Ġsen": 4306,
      "ertained": 4307,
      "Ġmission": 4308,
      "pelled": 4309,
      "Ġshr": 4310,
      "Ġvillage": 4311,
      "bar": 4312,
      "arer": 4313,
      "Ġta": 4314,
      "ĠDan": 4315,
      "ded": 4316,
      "ĠCompany": 4317,
      "ĠJust": 4318,
      "ding": 4319,
      "ĠVer": 4320,
      "ĠTem": 4321,
      "rel": 4322,
      "Ġult": 4323,
      "ette": 4324,
      "60": 4325,
      "jo": 4326,
      "Ġconstant": 4327,
      "Ġconcerning": 4328,
      "Ġsong": 4329,
      "Ġvan": 4330,
      "fortun": 4331,
      "FE": 4332,
      "ĠInt": 4333,
      "Ġmach": 4334,
      "Ġrights": 4335,
      "Ġworking": 4336,
      "Ġbranch": 4337,
      "Ġ*'": 4338,
      "Ġadmit": 4339,
      "orther": 4340,
      "Ġescape": 4341,
      "ĠFR": 4342,
      "tery": 4343,
      "Ġveget": 4344,
      "Ġmarried": 4345,
      "eding": 4346,
      "Ġens": 4347,
      "Ġformerly": 4348,
      "Ġwo": 4349,
      "ulate": 4350,
      "Ġopinions": 4351,
      "kind": 4352,
      "Ġspirits": 4353,
      "Ġnational": 4354,
      "Ġreader": 4355,
      "Ġseparate": 4356,
      "Ġfight": 4357,
      "ĠIrish": 4358,
      "Ġae": 4359,
      "Ġwrite": 4360,
      "Ġbreast": 4361,
      "ĠMany": 4362,
      "ĠMat": 4363,
      "ĠFig": 4364,
      "Ġtu": 4365,
      "ĠProt": 4366,
      "ober": 4367,
      "Ġcapable": 4368,
      "Ġprofess": 4369,
      "Ġtemperature": 4370,
      "Ġstage": 4371,
      "Ġpit": 4372,
      "Ġtaught": 4373,
      "Ġ!\"": 4374,
      "Ġreply": 4375,
      "Ġinferior": 4376,
      "Ġfing": 4377,
      "Ġpractical": 4378,
      "Ġtongue": 4379,
      "uing": 4380,
      "Ġderived": 4381,
      "ols": 4382,
      "Ġpopulation": 4383,
      "ips": 4384,
      "umes": 4385,
      "Ġmerc": 4386,
      "Ġhistor": 4387,
      "ims": 4388,
      "Ġ54": 4389,
      "mission": 4390,
      "Ġmanifest": 4391,
      "Ġreduced": 4392,
      "Ġdelivered": 4393,
      "ĠWood": 4394,
      "ĠMedical": 4395,
      "Ġassert": 4396,
      "Ġmountains": 4397,
      "Ġthorough": 4398,
      "ese": 4399,
      "Ġseeing": 4400,
      "Ġstruck": 4401,
      "ĠBritain": 4402,
      "Ġaffairs": 4403,
      "Ġ189": 4404,
      "Ġperformed": 4405,
      "ĠWal": 4406,
      "Ġeast": 4407,
      "Ġenemies": 4408,
      "Ġunited": 4409,
      "right": 4410,
      "that": 4411,
      "Ġdiam": 4412,
      "Ġconvey": 4413,
      "amber": 4414,
      "Ġchanges": 4415,
      "Ġcommittee": 4416,
      "Ġ53": 4417,
      "hered": 4418,
      "Ġspoke": 4419,
      "oned": 4420,
      "Ġmemory": 4421,
      "Ġzeal": 4422,
      "Ġorn": 4423,
      "Ġprince": 4424,
      "iel": 4425,
      "Ġbrain": 4426,
      "istic": 4427,
      "Ġfourth": 4428,
      "ĠMem": 4429,
      "ĠFirst": 4430,
      "Ġ177": 4431,
      "Ġwaters": 4432,
      "overy": 4433,
      "Ġpow": 4434,
      "Ġpressure": 4435,
      "geon": 4436,
      "stone": 4437,
      "Ġexert": 4438,
      "ulous": 4439,
      "uv": 4440,
      "Ġsecure": 4441,
      "hall": 4442,
      "Ġfluid": 4443,
      "ELL": 4444,
      "Ġinch": 4445,
      "Ġproject": 4446,
      "chan": 4447,
      "Ġalt": 4448,
      "Ġsister": 4449,
      "hel": 4450,
      "ĠEl": 4451,
      "Ġconditions": 4452,
      "Ġparish": 4453,
      "ora": 4454,
      "Ġheads": 4455,
      "ĠRed": 4456,
      "Ġevident": 4457,
      "cks": 4458,
      ",*": 4459,
      "Ġpromise": 4460,
      "Ġunion": 4461,
      "Ġobserve": 4462,
      "Ġteeth": 4463,
      "ĠPart": 4464,
      "Ġcondem": 4465,
      "Ġtears": 4466,
      "Ġspeed": 4467,
      "Ġshare": 4468,
      "Ġviz": 4469,
      "usal": 4470,
      "Ġcell": 4471,
      "Ġstorm": 4472,
      "ĠJoseph": 4473,
      "Ġpreceding": 4474,
      "iah": 4475,
      "ccles": 4476,
      "Ġsuffered": 4477,
      "rael": 4478,
      "Ġaver": 4479,
      "Ġtempt": 4480,
      "ĠGerman": 4481,
      "inous": 4482,
      "Ġexposed": 4483,
      "Ġconsists": 4484,
      "atures": 4485,
      "Ġquality": 4486,
      "Ġnatur": 4487,
      "ĠYes": 4488,
      "Ġmusic": 4489,
      "Ġcong": 4490,
      "ana": 4491,
      "ordinary": 4492,
      "Ġunb": 4493,
      "fo": 4494,
      "my": 4495,
      "Ġsuddenly": 4496,
      "OND": 4497,
      "Ġsingular": 4498,
      "Ġness": 4499,
      "ĠEdin": 4500,
      "ĠRuss": 4501,
      "Ġshore": 4502,
      "Ġcurrent": 4503,
      "Ġcelebrated": 4504,
      "ĠMart": 4505,
      "Ġtempor": 4506,
      "nex": 4507,
      "ĠSecret": 4508,
      "Ġcontract": 4509,
      "Ġgarden": 4510,
      "Ġdiseases": 4511,
      "UC": 4512,
      "Ġthreat": 4513,
      "ldom": 4514,
      "ĠGovern": 4515,
      "Ġcountries": 4516,
      "Ġ52": 4517,
      "mi": 4518,
      "ĠÏĢ": 4519,
      "orthern": 4520,
      "usted": 4521,
      "Ġeld": 4522,
      "Ġlikewise": 4523,
      "Ġpointed": 4524,
      "Ġna": 4525,
      "Ġrelief": 4526,
      "Ġmas": 4527,
      "Ġshows": 4528,
      "Ġstructure": 4529,
      "urd": 4530,
      "Ġpor": 4531,
      "ĠSom": 4532,
      "ĠEven": 4533,
      "ization": 4534,
      "Ġfounded": 4535,
      "Ġsust": 4536,
      "ĠAR": 4537,
      "ĠMont": 4538,
      "Ġ41": 4539,
      "Ġreadily": 4540,
      "ĠWhite": 4541,
      "Ġfaithful": 4542,
      "Ġinternal": 4543,
      "ĠAra": 4544,
      "Ġtrouble": 4545,
      "Ġsolid": 4546,
      "TON": 4547,
      "Ġclot": 4548,
      "Ġju": 4549,
      "Ġspoken": 4550,
      "Ġkilled": 4551,
      "itute": 4552,
      "Ġrob": 4553,
      "urity": 4554,
      "ĠApp": 4555,
      "Ġintellect": 4556,
      "kes": 4557,
      "Ġbottom": 4558,
      "ĠPs": 4559,
      "Ġhi": 4560,
      "Ġirrit": 4561,
      "ama": 4562,
      "Ġcompletely": 4563,
      "Ġremem": 4564,
      "Ġproceeded": 4565,
      "Ġproperly": 4566,
      "quis": 4567,
      "Ġservant": 4568,
      "ĠHence": 4569,
      "Ġlic": 4570,
      "Ġchance": 4571,
      "ĠOctober": 4572,
      "orne": 4573,
      "Ġbone": 4574,
      "ĠNov": 4575,
      "ivity": 4576,
      "nn": 4577,
      "Ġdivision": 4578,
      "ĠCat": 4579,
      "ym": 4580,
      "ĠSund": 4581,
      "Ġia": 4582,
      "otes": 4583,
      "ĠLib": 4584,
      "Ġmarriage": 4585,
      "Ġdesired": 4586,
      "Ġpossessed": 4587,
      "Ġchem": 4588,
      "Ġdiscover": 4589,
      "atio": 4590,
      "Ġstream": 4591,
      "acle": 4592,
      "ville": 4593,
      "Ġinterests": 4594,
      "ĠId": 4595,
      "outher": 4596,
      "Ġextensive": 4597,
      "uel": 4598,
      "Ġinstrument": 4599,
      "Ġspect": 4600,
      "Ġsubs": 4601,
      "Ġprobable": 4602,
      "Ġsoldiers": 4603,
      "Ġpropri": 4604,
      "Ġways": 4605,
      "Ġages": 4606,
      "Ġpleased": 4607,
      "Ġsword": 4608,
      "Ġeternal": 4609,
      "Ġsovere": 4610,
      "Ġprivile": 4611,
      "Ġris": 4612,
      "'^": 4613,
      "ĠWhe": 4614,
      "aments": 4615,
      "Ġpage": 4616,
      "abb": 4617,
      "estic": 4618,
      "Ġsufficiently": 4619,
      "erable": 4620,
      "ada": 4621,
      "Ġrain": 4622,
      "igation": 4623,
      "pro": 4624,
      "Ġcurious": 4625,
      "appe": 4626,
      "Ġbirds": 4627,
      "Ġentitled": 4628,
      "Ġclean": 4629,
      "eration": 4630,
      "Ġcollect": 4631,
      "Ġsouls": 4632,
      "ĠNove": 4633,
      "gu": 4634,
      "Ġdin": 4635,
      "Ġhero": 4636,
      "lla": 4637,
      "Ġconfess": 4638,
      "Ġargument": 4639,
      "ĠSen": 4640,
      "Ġships": 4641,
      "Ġpassion": 4642,
      "ores": 4643,
      "ĠBlack": 4644,
      "Ġcredit": 4645,
      "ctor": 4646,
      "rance": 4647,
      "Ġarc": 4648,
      "ĠSpain": 4649,
      "Ġhill": 4650,
      "Ġrecent": 4651,
      "OUS": 4652,
      "istry": 4653,
      "Ġcommission": 4654,
      "Ġforming": 4655,
      "uge": 4656,
      "rem": 4657,
      "Ġsplend": 4658,
      "ĠSim": 4659,
      "gan": 4660,
      "mod": 4661,
      "Ġclergy": 4662,
      "Ġgirl": 4663,
      "Ġerr": 4664,
      "Ġcolon": 4665,
      "Ġleading": 4666,
      "Ġped": 4667,
      "ĠAfric": 4668,
      "ĠCHAPTER": 4669,
      "room": 4670,
      "ĠGood": 4671,
      "Ġaccident": 4672,
      "Ġton": 4673,
      "ĠTra": 4674,
      "Ġabsence": 4675,
      "Ġobservations": 4676,
      "Ġrespecting": 4677,
      "Ġfame": 4678,
      "Ġasce": 4679,
      "Ġwriters": 4680,
      "ĠEliz": 4681,
      "lies": 4682,
      "itate": 4683,
      "rates": 4684,
      "Ġpicture": 4685,
      "Ġrelations": 4686,
      "Ġprisoner": 4687,
      "Ġthrone": 4688,
      "Ġreb": 4689,
      "Ġaccur": 4690,
      "ĠThough": 4691,
      "je": 4692,
      "Ġfly": 4693,
      "Ġvall": 4694,
      "mos": 4695,
      "Ġ58": 4696,
      "ifying": 4697,
      "Ġjourney": 4698,
      "Ġundert": 4699,
      "ĠÂ©": 4700,
      "Ġseed": 4701,
      "Ġoccasionally": 4702,
      "ĠAmong": 4703,
      "Ġtax": 4704,
      "Ġtriumph": 4705,
      "itis": 4706,
      "Ġcommitted": 4707,
      "Ġviolent": 4708,
      "Ġserved": 4709,
      "Ġchair": 4710,
      "Ġpreviously": 4711,
      "Ġcharged": 4712,
      "Ġ70": 4713,
      "Ġ57": 4714,
      "iti": 4715,
      "Ġmerch": 4716,
      "Ġfatal": 4717,
      "Ġwholly": 4718,
      "Ġconclusion": 4719,
      "Ġmeant": 4720,
      "Ġgranted": 4721,
      "Ġenlar": 4722,
      "ĠJanuary": 4723,
      "Ġreven": 4724,
      "ĠBoard": 4725,
      "Ġorgans": 4726,
      "Ġdestroyed": 4727,
      "ĠGreen": 4728,
      "pher": 4729,
      "using": 4730,
      "ĠRes": 4731,
      "Ġissue": 4732,
      "zen": 4733,
      "Ġinflammation": 4734,
      "Ġcommence": 4735,
      "ĠDece": 4736,
      "Ġideas": 4737,
      "Ġinformed": 4738,
      "thren": 4739,
      "Ġerror": 4740,
      "Ġcircumstance": 4741,
      "ician": 4742,
      "itect": 4743,
      "Ġknows": 4744,
      "Ġâĸł": 4745,
      "ĠDuring": 4746,
      "Ġfault": 4747,
      "Ġextended": 4748,
      "22": 4749,
      "ĠSl": 4750,
      "Ġclearly": 4751,
      "ĠSub": 4752,
      "Ġindust": 4753,
      "ĠHistory": 4754,
      "ĠHIST": 4755,
      "Ġsympath": 4756,
      "Ġslightly": 4757,
      "umber": 4758,
      "Ġdefence": 4759,
      "ras": 4760,
      "pi": 4761,
      "Ġchurches": 4762,
      "ĠIS": 4763,
      "then": 4764,
      "Ġextraordinary": 4765,
      "Ġ56": 4766,
      "Ġcarbon": 4767,
      "Ġstands": 4768,
      "Ġfallen": 4769,
      "ĠUnion": 4770,
      "ĠBen": 4771,
      "Ġcontain": 4772,
      "ĠVI": 4773,
      "aft": 4774,
      "Ġsquare": 4775,
      "ault": 4776,
      "Ġobed": 4777,
      "ctive": 4778,
      "Ġlately": 4779,
      "Ġsmo": 4780,
      "Ġobservation": 4781,
      "Ġcarefully": 4782,
      "Ġ190": 4783,
      "Ġshape": 4784,
      "Ġgoes": 4785,
      "osen": 4786,
      "Ġstrongly": 4787,
      "uries": 4788,
      "usc": 4789,
      "Ġsins": 4790,
      "Ġdangerous": 4791,
      "Ġrail": 4792,
      "agement": 4793,
      "Ġstatement": 4794,
      "ÎŃ": 4795,
      "inction": 4796,
      "aimed": 4797,
      "acc": 4798,
      "ashion": 4799,
      "Ġbearing": 4800,
      "ĠThose": 4801,
      "Ġrighteous": 4802,
      "rey": 4803,
      "Ġroot": 4804,
      "Ġtone": 4805,
      "ĠYour": 4806,
      "Ġshowed": 4807,
      "Ġsought": 4808,
      "bered": 4809,
      "ĠSeptember": 4810,
      "icated": 4811,
      "Ġblessed": 4812,
      "Ġsimply": 4813,
      "Ġchanged": 4814,
      "gments": 4815,
      "Ġwicked": 4816,
      "Ġbis": 4817,
      "ĠLy": 4818,
      "Ġpartly": 4819,
      "outhern": 4820,
      "Ġphen": 4821,
      "Ġnaturally": 4822,
      "ĠÎº": 4823,
      "Ġfreedom": 4824,
      "Ġsource": 4825,
      "Ġsection": 4826,
      "Ġlect": 4827,
      "ĠPol": 4828,
      "Ġrare": 4829,
      "withstanding": 4830,
      "Ġseldom": 4831,
      "Ġhopes": 4832,
      "Ġassistance": 4833,
      "Ġwound": 4834,
      "Ġfish": 4835,
      "Ġgas": 4836,
      "rose": 4837,
      "Ġbones": 4838,
      "Ġben": 4839,
      "Ġsake": 4840,
      "oked": 4841,
      "Ġdemon": 4842,
      "Ġbapt": 4843,
      "ĠIsrael": 4844,
      "ulations": 4845,
      "ĠAss": 4846,
      "ĠSaviour": 4847,
      "*.": 4848,
      "Ġforget": 4849,
      "ef": 4850,
      "ĠOR": 4851,
      "Ġquestions": 4852,
      "Ġbelonging": 4853,
      "rh": 4854,
      "Ġfart": 4855,
      "icip": 4856,
      "Ġefforts": 4857,
      "ĠMal": 4858,
      "Ġmilk": 4859,
      "Ġinstit": 4860,
      "Ġprem": 4861,
      "ĠAT": 4862,
      ",âĢĶ": 4863,
      "Mr": 4864,
      "vy": 4865,
      "Ġvo": 4866,
      "Ġdit": 4867,
      "Ġpounds": 4868,
      "Ġaged": 4869,
      "Ġpride": 4870,
      "orous": 4871,
      "ĠLouis": 4872,
      "Ġtotal": 4873,
      "Ġwished": 4874,
      "Ġextremely": 4875,
      "Ġconversation": 4876,
      "aked": 4877,
      "Ġul": 4878,
      "Ġcharacters": 4879,
      "UB": 4880,
      "Ġmarket": 4881,
      "Ġloved": 4882,
      "Ġdirectly": 4883,
      "ĠColonel": 4884,
      "Ġtrad": 4885,
      "ushed": 4886,
      "Ġtail": 4887,
      "Ġhabits": 4888,
      "Ã¨": 4889,
      "Ġomn": 4890,
      "ilty": 4891,
      "Ġessential": 4892,
      "ĠMore": 4893,
      "rum": 4894,
      "alled": 4895,
      "ais": 4896,
      "ĠPen": 4897,
      "Ġboat": 4898,
      "Ġlod": 4899,
      "Ġcommenced": 4900,
      "Ġsituated": 4901,
      "ĠChristians": 4902,
      "ĠJews": 4903,
      "which": 4904,
      "Ġevidently": 4905,
      "Ġcopy": 4906,
      "23": 4907,
      "ĠBook": 4908,
      "Ġspecimens": 4909,
      "Ġthro": 4910,
      "Ġagreed": 4911,
      "oon": 4912,
      "xx": 4913,
      "off": 4914,
      "ingham": 4915,
      "Ġmixed": 4916,
      "ĠItaly": 4917,
      "Ġconfined": 4918,
      "Ġperpet": 4919,
      "ĠAng": 4920,
      "Ġrent": 4921,
      "Ġadapt": 4922,
      "Ġconsequently": 4923,
      "Ġpleasant": 4924,
      "ilities": 4925,
      "Ġsaf": 4926,
      "ĠCatholic": 4927,
      ",-": 4928,
      "rible": 4929,
      "Ġstrugg": 4930,
      "Ġpu": 4931,
      "ĠCOM": 4932,
      "Ġtur": 4933,
      "Ġcheer": 4934,
      "lection": 4935,
      "ICAL": 4936,
      "Ġsmaller": 4937,
      "jud": 4938,
      "Ġpersu": 4939,
      "Ġdog": 4940,
      "ĠCongress": 4941,
      "Ġcro": 4942,
      "otten": 4943,
      "Ġprinted": 4944,
      "rat": 4945,
      "IM": 4946,
      "Ġdepth": 4947,
      "Ġtowns": 4948,
      "Ġcouncil": 4949,
      "Ġactually": 4950,
      "Ġpapers": 4951,
      "Ġ59": 4952,
      "Ġpolicy": 4953,
      "rog": 4954,
      "bridge": 4955,
      "Ġtheory": 4956,
      ",.": 4957,
      "Ġstriking": 4958,
      "ARY": 4959,
      "Ġconnection": 4960,
      "Ġrocks": 4961,
      "itz": 4962,
      "Ġhonest": 4963,
      "Ġlying": 4964,
      "Ġ64": 4965,
      "ĠItal": 4966,
      "24": 4967,
      "Ġremedy": 4968,
      "Ġcried": 4969,
      "Ġsuffering": 4970,
      "Ġexception": 4971,
      "Ġcryst": 4972,
      "ĠEX": 4973,
      "Ġreject": 4974,
      "Ġconscious": 4975,
      "Ġuniform": 4976,
      "Ġrelative": 4977,
      "Ġexamined": 4978,
      "ĠLatin": 4979,
      "icular": 4980,
      "elf": 4981,
      "Ġcorrupt": 4982,
      "Ġaddressed": 4983,
      "Ġcool": 4984,
      "Ġmajority": 4985,
      "Ġwon": 4986,
      "Ġwilling": 4987,
      "Ġbitter": 4988,
      "ĠBrown": 4989,
      "Ġá½": 4990,
      "Ġgar": 4991,
      "ĠUnivers": 4992,
      "ĠInde": 4993,
      "Ġintention": 4994,
      "ocks": 4995,
      "Ġabdom": 4996,
      "Ġran": 4997,
      "Ġactual": 4998,
      "ĠAnother": 4999,
      "ĠNat": 5000,
      "Ġslave": 5001,
      "Ġoperations": 5002,
      "Ġrapidly": 5003,
      "Ġnoticed": 5004,
      "hib": 5005,
      "Ġai": 5006,
      "ĠMer": 5007,
      "Ġglorious": 5008,
      "PP": 5009,
      "GE": 5010,
      "pended": 5011,
      "ston": 5012,
      "ĠIndians": 5013,
      "Ġinterv": 5014,
      "ĠProfessor": 5015,
      "Ġrecoll": 5016,
      "Ġelev": 5017,
      "Ġreform": 5018,
      "ĠEv": 5019,
      "Ġservices": 5020,
      "ĠHaving": 5021,
      "Ġfortune": 5022,
      "isted": 5023,
      "ĠLife": 5024,
      "Ġclosed": 5025,
      "ita": 5026,
      "osa": 5027,
      "Ġresolved": 5028,
      "Ġthank": 5029,
      "ĠLIFE": 5030,
      "Ġwi": 5031,
      "Ġcollection": 5032,
      "Ġcommonly": 5033,
      "rences": 5034,
      "Ġsatisfied": 5035,
      "Ġdrawing": 5036,
      "Ġegg": 5037,
      "Ġapparently": 5038,
      "Ġlung": 5039,
      "Ġbrief": 5040,
      "AIN": 5041,
      "Ġmale": 5042,
      "Ġxv": 5043,
      "Ġfurnished": 5044,
      "Ġhydro": 5045,
      "do": 5046,
      ".),": 5047,
      "Ġrising": 5048,
      "Ġmess": 5049,
      "ricult": 5050,
      "Ġhung": 5051,
      "Ġacknowled": 5052,
      "ĠPrin": 5053,
      "Ġhitherto": 5054,
      "Ġsettled": 5055,
      "Ġmuc": 5056,
      "ba": 5057,
      "Ġarr": 5058,
      "anging": 5059,
      "Ġcure": 5060,
      "Ġobv": 5061,
      "ĠGent": 5062,
      "Ġwings": 5063,
      "osis": 5064,
      "Ġlit": 5065,
      "Ġswell": 5066,
      "27": 5067,
      "Ġgoods": 5068,
      "Ġforest": 5069,
      "Ġladies": 5070,
      "enant": 5071,
      "Ġopposition": 5072,
      "ller": 5073,
      "Ġgenius": 5074,
      "Ġtiss": 5075,
      "ĠPark": 5076,
      "Ġperman": 5077,
      "Ġsharp": 5078,
      "ĠSP": 5079,
      "Ġsalvation": 5080,
      "Ġcompre": 5081,
      "Ġcompet": 5082,
      "Ġbeat": 5083,
      "ĠHad": 5084,
      "Ġjoined": 5085,
      "regular": 5086,
      "col": 5087,
      "piration": 5088,
      "28": 5089,
      "mond": 5090,
      "ĠNovember": 5091,
      "Ġstar": 5092,
      "KS": 5093,
      "Ġblind": 5094,
      "Ġinse": 5095,
      "Ġexecution": 5096,
      "ĠDecember": 5097,
      "Ġfamiliar": 5098,
      "Ġpoison": 5099,
      "Ġwhence": 5100,
      "Ġban": 5101,
      "Ġlabor": 5102,
      "Ġuniversal": 5103,
      "Ġnotes": 5104,
      "Ġconstantly": 5105,
      "Ġsuccessful": 5106,
      "Ġbrethren": 5107,
      "Ġlips": 5108,
      "Ġacquainted": 5109,
      "Ch": 5110,
      "see": 5111,
      "Ġresolution": 5112,
      "ĠSecretary": 5113,
      "gl": 5114,
      "Ġschools": 5115,
      "Ġowing": 5116,
      "ĠNap": 5117,
      "Ġdisposed": 5118,
      "Ġshad": 5119,
      "Ġtroub": 5120,
      "Ġestate": 5121,
      "Ġmankind": 5122,
      "abeth": 5123,
      "raction": 5124,
      "Ġaband": 5125,
      "Ġhut": 5126,
      "Ġpreserved": 5127,
      "oa": 5128,
      "Ġindul": 5129,
      "Ġrese": 5130,
      "ĠScott": 5131,
      "Ġsmooth": 5132,
      "Ġcot": 5133,
      "Ġou": 5134,
      "Ġlig": 5135,
      "Ġexperiments": 5136,
      "Ġsail": 5137,
      "dra": 5138,
      "Ġinstant": 5139,
      "Ġther": 5140,
      "hat": 5141,
      "Ġaccord": 5142,
      "Î³": 5143,
      "URE": 5144,
      "Ġservants": 5145,
      "Ġfarm": 5146,
      "ĠDep": 5147,
      "Ġdomin": 5148,
      "oting": 5149,
      "ique": 5150,
      "Ġexhibited": 5151,
      "Ġinfant": 5152,
      "IX": 5153,
      "Ġunknown": 5154,
      "ieties": 5155,
      "abled": 5156,
      "ipt": 5157,
      "Ġseparated": 5158,
      "Ġexperiment": 5159,
      "Ġexactly": 5160,
      "Ġreasons": 5161,
      "ĠTest": 5162,
      "ORD": 5163,
      "Ġpan": 5164,
      "mony": 5165,
      "Ġprotection": 5166,
      "Ġpas": 5167,
      "Ġfill": 5168,
      "Ġraise": 5169,
      "ope": 5170,
      "ĠSunday": 5171,
      "Ġphenomen": 5172,
      "Ġyes": 5173,
      "Ġformation": 5174,
      "wick": 5175,
      "oking": 5176,
      "Ġcounten": 5177,
      "eper": 5178,
      "ĠTre": 5179,
      "Ġembra": 5180,
      "Ġni": 5181,
      "asts": 5182,
      "Ġedition": 5183,
      "ĠAre": 5184,
      "iring": 5185,
      "Ġring": 5186,
      "Ġmembrane": 5187,
      "Ġlegisl": 5188,
      "ĠBill": 5189,
      "Ġchlor": 5190,
      "Ġbelief": 5191,
      "ĠMond": 5192,
      "Ġef": 5193,
      "ĠBible": 5194,
      "Ġrequest": 5195,
      "Ġtwice": 5196,
      "Ġdur": 5197,
      "Ġsnow": 5198,
      "Ġends": 5199,
      "Ġrig": 5200,
      "Ġrefused": 5201,
      "Ġfarther": 5202,
      "Ġresp": 5203,
      "Ġdischarge": 5204,
      "ĠUpon": 5205,
      "Ġrecently": 5206,
      "ĠTrans": 5207,
      "ĠEdinburgh": 5208,
      "ĠSan": 5209,
      "Ġcalm": 5210,
      "Ġmuscles": 5211,
      "Ġplate": 5212,
      "Ġrect": 5213,
      "Ġgain": 5214,
      "OU": 5215,
      "Ġestim": 5216,
      "ĠGard": 5217,
      "aks": 5218,
      "Ġoun": 5219,
      "Ġrene": 5220,
      "33": 5221,
      "Ġexpense": 5222,
      "aced": 5223,
      "Ġarrangement": 5224,
      "Ġnut": 5225,
      "Ġsupplied": 5226,
      "vol": 5227,
      "Ġterrit": 5228,
      "Ġstraight": 5229,
      "ĠSchool": 5230,
      "ĠDem": 5231,
      "Ġident": 5232,
      "Ġabst": 5233,
      "ĠSatur": 5234,
      "Ġfond": 5235,
      "ero": 5236,
      "Ġsev": 5237,
      "Ġministers": 5238,
      "ĠJac": 5239,
      "ĠDel": 5240,
      "Ġappropri": 5241,
      "ads": 5242,
      "ĠLong": 5243,
      "Ġworse": 5244,
      "cipit": 5245,
      "Ġacute": 5246,
      "Ġanxious": 5247,
      "ĠOP": 5248,
      "Ġirregular": 5249,
      "Ġhills": 5250,
      "Ġparents": 5251,
      "ĠVen": 5252,
      "Ġconscience": 5253,
      "Ġteacher": 5254,
      "Ġtestimony": 5255,
      "Ġlevel": 5256,
      "inet": 5257,
      "ties": 5258,
      "Ġaware": 5259,
      "Ġanterior": 5260,
      "ĠVirgin": 5261,
      "ĠPope": 5262,
      "arsh": 5263,
      "orted": 5264,
      "Ġdeeply": 5265,
      "29": 5266,
      "Ġcloth": 5267,
      "retched": 5268,
      "ĠIl": 5269,
      "Ġsion": 5270,
      "Ġtendency": 5271,
      "inated": 5272,
      "ruary": 5273,
      "iture": 5274,
      "Ġeste": 5275,
      "Ġrub": 5276,
      "pping": 5277,
      "Ġwounded": 5278,
      "iency": 5279,
      "Ġcrim": 5280,
      "Ġconstru": 5281,
      "Ġdisposition": 5282,
      "enes": 5283,
      "ĠSC": 5284,
      "Ġregret": 5285,
      "Ġplease": 5286,
      "antic": 5287,
      "Ġapproach": 5288,
      "Ġoi": 5289,
      "Ġmedicine": 5290,
      "Ġforced": 5291,
      "Ġsaved": 5292,
      "Ġjoin": 5293,
      "Ġforces": 5294,
      "Ġprospect": 5295,
      "Ġsatisfaction": 5296,
      "Ġabsor": 5297,
      "Ġfigures": 5298,
      "Ġpup": 5299,
      "ĠUnder": 5300,
      "ĠBes": 5301,
      "44": 5302,
      "Ġregion": 5303,
      "ĠSecond": 5304,
      "ĠEr": 5305,
      "atum": 5306,
      "umption": 5307,
      "Ġrules": 5308,
      "Ġunfortun": 5309,
      "ysis": 5310,
      "Ġbal": 5311,
      "ĠCorn": 5312,
      "Ġdevoted": 5313,
      "Ġgospel": 5314,
      "Ġrequires": 5315,
      "Ġhappened": 5316,
      "Ġmental": 5317,
      "Ġgrass": 5318,
      "Ġfix": 5319,
      "Ġ65": 5320,
      "Å¿": 5321,
      "Ġedge": 5322,
      "Ġrepro": 5323,
      "ige": 5324,
      "Ġsupported": 5325,
      "Ġfashion": 5326,
      "after": 5327,
      "aria": 5328,
      "Ġguilty": 5329,
      "pool": 5330,
      "Ġinfinite": 5331,
      "Ġdestruction": 5332,
      "Ġsugar": 5333,
      "Ġstay": 5334,
      "Ġvir": 5335,
      "Ġvisited": 5336,
      "Ġsafety": 5337,
      "Ġcourage": 5338,
      "Ġdoth": 5339,
      "inations": 5340,
      "pes": 5341,
      "Ġsteps": 5342,
      "ulars": 5343,
      "Ġarrival": 5344,
      "Ġfinally": 5345,
      "ĠChap": 5346,
      "Ġteach": 5347,
      "ĠSer": 5348,
      "26": 5349,
      "iast": 5350,
      "Ġchosen": 5351,
      "ĠFrancis": 5352,
      "Ġtouch": 5353,
      "Ġexperien": 5354,
      "enses": 5355,
      "Ġfreely": 5356,
      "four": 5357,
      "LES": 5358,
      "80": 5359,
      "RY": 5360,
      "Ġimpression": 5361,
      "Ġobsc": 5362,
      "Ġaverage": 5363,
      "Ġflour": 5364,
      "Ġcontrib": 5365,
      "Ġfate": 5366,
      "Ġclosely": 5367,
      "kins": 5368,
      "Ġlimited": 5369,
      "Ġga": 5370,
      "Ġavoid": 5371,
      "apel": 5372,
      "aling": 5373,
      "Ġ%": 5374,
      "Ġproud": 5375,
      "Ġá¼Ĳ": 5376,
      "Ġ66": 5377,
      "ĠBu": 5378,
      "Ġannual": 5379,
      "ĠChristianity": 5380,
      "Ġatmos": 5381,
      "Ġarise": 5382,
      "Ġupwards": 5383,
      "Ġexplan": 5384,
      "Ġthence": 5385,
      "Ġthereof": 5386,
      "ĠHeb": 5387,
      "rian": 5388,
      "Ġamid": 5389,
      "Ġoccurs": 5390,
      "inth": 5391,
      "Ġcruel": 5392,
      "irmed": 5393,
      "ĠHospital": 5394,
      "inced": 5395,
      "Ġease": 5396,
      "ĠIll": 5397,
      "Ġdistinction": 5398,
      "Ġtemple": 5399,
      "ses": 5400,
      "Ġdism": 5401,
      "Ġprosper": 5402,
      "**": 5403,
      "Ġpriest": 5404,
      "iable": 5405,
      "erk": 5406,
      "Ġextract": 5407,
      "Ġconsent": 5408,
      "Ġfoundation": 5409,
      "Ġqueen": 5410,
      "ication": 5411,
      "Ġfacult": 5412,
      "van": 5413,
      "Ġnet": 5414,
      "Ġproceedings": 5415,
      "ounce": 5416,
      "ĠÎ´": 5417,
      "Ġreaders": 5418,
      "Ġ63": 5419,
      "ĠTR": 5420,
      "Ġpatri": 5421,
      "Ġpair": 5422,
      "allel": 5423,
      "Ġindividuals": 5424,
      "Ġliable": 5425,
      "pected": 5426,
      "Ġeleg": 5427,
      "ĠKe": 5428,
      "Ġcitizens": 5429,
      "^.": 5430,
      "Ġcollected": 5431,
      "Î¬": 5432,
      "Ġfier": 5433,
      "INE": 5434,
      "ĠFebruary": 5435,
      "Ġleaf": 5436,
      "ATE": 5437,
      "utch": 5438,
      "Ġdarkness": 5439,
      "VER": 5440,
      "ĠCommission": 5441,
      "ĠProtest": 5442,
      "ĠWater": 5443,
      "Ġremaining": 5444,
      "ĠElizabeth": 5445,
      "unc": 5446,
      "Ġpains": 5447,
      "Ġremove": 5448,
      "ĠHISTORY": 5449,
      "Ġflow": 5450,
      "Ġimprovement": 5451,
      "ĠMark": 5452,
      "Ġexcited": 5453,
      "Ġhumble": 5454,
      "Ġtrain": 5455,
      "ĠAlexander": 5456,
      "Ġfifteen": 5457,
      "cean": 5458,
      "Ġskill": 5459,
      "Ġhind": 5460,
      "Ġmerit": 5461,
      "rary": 5462,
      "Ġchoice": 5463,
      "Ġbecoming": 5464,
      "Ġcomparative": 5465,
      "Ġsheep": 5466,
      "ĠHeaven": 5467,
      "Ġvolunt": 5468,
      "Ġaccordingly": 5469,
      "Ġvii": 5470,
      "ixture": 5471,
      "VE": 5472,
      "ements": 5473,
      "Ġdevelopment": 5474,
      "Ġdistress": 5475,
      "Ġbreath": 5476,
      "ĠMonday": 5477,
      "Ġassured": 5478,
      "Ġcompared": 5479,
      "bly": 5480,
      "Ġcup": 5481,
      "Ġyourself": 5482,
      "noon": 5483,
      "LL": 5484,
      "IES": 5485,
      "Ġsovereign": 5486,
      "Ġaffections": 5487,
      "Ġsilence": 5488,
      "END": 5489,
      "ĠCur": 5490,
      "Ġlose": 5491,
      "Ġmi": 5492,
      "ĠOxford": 5493,
      "ĠâĢĿ": 5494,
      "Ġtube": 5495,
      "Ġeverything": 5496,
      "Ġfulf": 5497,
      "Ġlif": 5498,
      "Ġimpl": 5499,
      "Ġdinner": 5500,
      "Ġnervous": 5501,
      "Ġaston": 5502,
      "Ġcart": 5503,
      "ĠWhich": 5504,
      "Ġphysical": 5505,
      "Ġdeliver": 5506,
      "Ġfamilies": 5507,
      "oqu": 5508,
      "Ġsocial": 5509,
      "Ġrunning": 5510,
      "Ġinnoc": 5511,
      "Ġ}": 5512,
      "Ġkeeping": 5513,
      "Ġlin": 5514,
      "Ġuter": 5515,
      "Ġconj": 5516,
      "Ġhyp": 5517,
      "acles": 5518,
      "Ġgained": 5519,
      "Ġwli": 5520,
      "Ġlime": 5521,
      "Ġbehold": 5522,
      "Ġlegs": 5523,
      "isher": 5524,
      "theless": 5525,
      "Ġbox": 5526,
      "erson": 5527,
      "ĠAccording": 5528,
      "Ġprecise": 5529,
      "Ġoccasions": 5530,
      "Ġstim": 5531,
      "Ġsex": 5532,
      "Ġbul": 5533,
      "Ġelection": 5534,
      "Ġacquaint": 5535,
      "ĠPRO": 5536,
      "alous": 5537,
      "Ġimpress": 5538,
      "Ġloud": 5539,
      "Î´": 5540,
      "acon": 5541,
      "acious": 5542,
      "Ġadvice": 5543,
      "sey": 5544,
      "ĠFer": 5545,
      "Ġbond": 5546,
      "45": 5547,
      "hington": 5548,
      "70": 5549,
      "Ġsentence": 5550,
      "Ġcondu": 5551,
      "py": 5552,
      "usive": 5553,
      "Ġsacrifice": 5554,
      "Ġrough": 5555,
      "!\"": 5556,
      "Ġcu": 5557,
      "Ġdegrees": 5558,
      "Ġaffl": 5559,
      "Ġmighty": 5560,
      "Ġhealthy": 5561,
      "ĠSpanish": 5562,
      "Ġvisible": 5563,
      "TE": 5564,
      "Ġquod": 5565,
      "Ġsale": 5566,
      "chief": 5567,
      "Î¿Î½": 5568,
      "Ġcommunication": 5569,
      "Ġthanks": 5570,
      "ÏĮ": 5571,
      "Ġlearning": 5572,
      "Ġshut": 5573,
      "Ġdrew": 5574,
      "ATI": 5575,
      "Ġstreets": 5576,
      "Ġconsult": 5577,
      "Ġinjury": 5578,
      "^,": 5579,
      "Ġcoal": 5580,
      "Ġgrowing": 5581,
      "Ġpromised": 5582,
      "Ġrecon": 5583,
      "pent": 5584,
      "hi": 5585,
      "Ġunable": 5586,
      "bb": 5587,
      "Ġinner": 5588,
      "Ġpictures": 5589,
      "ĠXV": 5590,
      "Ġimmense": 5591,
      "ĠâĢĻ": 5592,
      "ourn": 5593,
      "cent": 5594,
      "Ġmoon": 5595,
      "Ġcarrying": 5596,
      "OB": 5597,
      "ĠSaturday": 5598,
      "ĠFore": 5599,
      "Ġmidst": 5600,
      "Ġincluding": 5601,
      "Ġfortun": 5602,
      "Ġrecommend": 5603,
      "ĠJournal": 5604,
      "Ġhem": 5605,
      "Ġintim": 5606,
      "Ġsearch": 5607,
      "Ġroots": 5608,
      "Ġnecessarily": 5609,
      "Ġexisting": 5610,
      "Ġinquiry": 5611,
      "Ġdemonst": 5612,
      "ben": 5613,
      "Ġdifficulties": 5614,
      "ĠHor": 5615,
      "Ġdisapp": 5616,
      "Ġpatients": 5617,
      "Ġqualities": 5618,
      "ogue": 5619,
      "Ïĩ": 5620,
      "Ġhol": 5621,
      "ĠMet": 5622,
      "Ġdans": 5623,
      "Ġstones": 5624,
      "Ġhearing": 5625,
      "Ġpard": 5626,
      "wers": 5627,
      "Ġprecipit": 5628,
      "ĠJo": 5629,
      "Ġprejud": 5630,
      "Ġsanct": 5631,
      "Ġcreated": 5632,
      "Ġparliament": 5633,
      "HER": 5634,
      "ĠJack": 5635,
      "Ġaltern": 5636,
      "Ġprotect": 5637,
      "Ġprovince": 5638,
      "Ġmovement": 5639,
      "Ġdisappe": 5640,
      "iner": 5641,
      "Ġmechan": 5642,
      "Ġreward": 5643,
      "ĠMount": 5644,
      "ounding": 5645,
      "Ġactions": 5646,
      "Ġcontent": 5647,
      "Ġric": 5648,
      "ĠDivine": 5649,
      "Ġadvantages": 5650,
      "Ġframe": 5651,
      "ĠÃ©": 5652,
      "MENT": 5653,
      "Ġcy": 5654,
      "Ġinduced": 5655,
      "Ġspent": 5656,
      "ĠAgain": 5657,
      "Ġ68": 5658,
      "ĠMen": 5659,
      "EST": 5660,
      "Ġbanks": 5661,
      "ĠHill": 5662,
      "Ġcareful": 5663,
      "rived": 5664,
      "asion": 5665,
      "long": 5666,
      "Ġjudic": 5667,
      "Ġprocl": 5668,
      "ĠNature": 5669,
      "Ġpunishment": 5670,
      "Ġlot": 5671,
      "ĠPhilip": 5672,
      "ALL": 5673,
      "Ġcircle": 5674,
      "Ġfool": 5675,
      "35": 5676,
      "illa": 5677,
      "Ġfund": 5678,
      "Ġalle": 5679,
      "icles": 5680,
      "ĠMajor": 5681,
      "iate": 5682,
      "ĠHoll": 5683,
      "bra": 5684,
      "ĠBefore": 5685,
      "Ġwindow": 5686,
      "Ġempire": 5687,
      "Ġfancy": 5688,
      "Ġarchitect": 5689,
      "ĠDes": 5690,
      "-.": 5691,
      "asg": 5692,
      "Ġsor": 5693,
      "Ġarrest": 5694,
      "Ġwear": 5695,
      "cked": 5696,
      "Ġspecimen": 5697,
      "vis": 5698,
      "Ġthine": 5699,
      "ĠMc": 5700,
      "Ġshot": 5701,
      "ĠLiver": 5702,
      "uting": 5703,
      "Ġexha": 5704,
      "Ġwing": 5705,
      "law": 5706,
      "Ġmaintain": 5707,
      "Ġshowing": 5708,
      "Ġpermitted": 5709,
      "hester": 5710,
      "dy": 5711,
      "iny": 5712,
      "adem": 5713,
      "Ġ75": 5714,
      "ĠMaster": 5715,
      "onn": 5716,
      "ĠPhys": 5717,
      "Ġinterior": 5718,
      "rim": 5719,
      "ĠBay": 5720,
      "asting": 5721,
      "pton": 5722,
      "Ġgroup": 5723,
      "Ġcalls": 5724,
      "Ġresidence": 5725,
      "Ġsli": 5726,
      "kin": 5727,
      "ĠFred": 5728,
      "Ġnamely": 5729,
      "Ġlooks": 5730,
      "Ġcattle": 5731,
      "Ġrespons": 5732,
      "iol": 5733,
      "lim": 5734,
      "Ġroof": 5735,
      "Ġviolence": 5736,
      "AK": 5737,
      "ĠSol": 5738,
      "Ġelements": 5739,
      "ĠGal": 5740,
      "arest": 5741,
      "Ġtb": 5742,
      "Ġutmost": 5743,
      "Ġgrie": 5744,
      "Ġbos": 5745,
      "Ġmax": 5746,
      "It": 5747,
      "Ġopposed": 5748,
      "Ġcompelled": 5749,
      "ĠIns": 5750,
      "Ġintr": 5751,
      "Ġnerves": 5752,
      "Ġcountenance": 5753,
      "ped": 5754,
      "In": 5755,
      "amen": 5756,
      "ĠGovernor": 5757,
      "ums": 5758,
      "oral": 5759,
      "ancing": 5760,
      "Ġliquid": 5761,
      "Ġposterior": 5762,
      "ĠWed": 5763,
      "aneous": 5764,
      "ĠAM": 5765,
      "asm": 5766,
      "ĠDub": 5767,
      "Ġ67": 5768,
      "Ġeccles": 5769,
      "Ġbrill": 5770,
      "ĠMel": 5771,
      "ĠSil": 5772,
      "Ġobjection": 5773,
      "orial": 5774,
      "Ġincon": 5775,
      "Ġboys": 5776,
      "ĠPAR": 5777,
      "icks": 5778,
      "'m": 5779,
      "ĠMass": 5780,
      "inus": 5781,
      "Ġhes": 5782,
      "Ġaccounts": 5783,
      "Ġmarch": 5784,
      "Ġfailed": 5785,
      "Ġeffort": 5786,
      "Ġmild": 5787,
      "Ġerected": 5788,
      "Ġsubsc": 5789,
      "Ġeffected": 5790,
      "Ġdream": 5791,
      "Ġentrance": 5792,
      "Ġmu": 5793,
      "ĠLeg": 5794,
      "Ġenabled": 5795,
      "aved": 5796,
      "Ġkings": 5797,
      "rical": 5798,
      "Ġcomposition": 5799,
      "Ġslaves": 5800,
      "Ġvarieties": 5801,
      "Ġinvol": 5802,
      "43": 5803,
      "Ġacted": 5804,
      "Ġfinding": 5805,
      "ĠAssoci": 5806,
      "ĠAdm": 5807,
      "Ġ69": 5808,
      "Ġholding": 5809,
      "NE": 5810,
      "Ġtt": 5811,
      "Ġcontempl": 5812,
      "Ġears": 5813,
      "Ġdignity": 5814,
      "ĠCy": 5815,
      "Ġ90": 5816,
      "Ġouter": 5817,
      "Ġ176": 5818,
      "Ġsod": 5819,
      "St": 5820,
      "Ġneighbourhood": 5821,
      "aths": 5822,
      "itors": 5823,
      "Ġdelicate": 5824,
      "21": 5825,
      "Ġreported": 5826,
      "sell": 5827,
      "Ġadditional": 5828,
      "Ġbat": 5829,
      "Ġpropos": 5830,
      "ĠVal": 5831,
      "Ġgran": 5832,
      "Ġcounsel": 5833,
      "Ġclaims": 5834,
      "coh": 5835,
      "Ġcandid": 5836,
      "Ġcert": 5837,
      "Ġchapter": 5838,
      "Ġsurrounded": 5839,
      "ĠNEW": 5840,
      "itated": 5841,
      "ĠBro": 5842,
      "ĠCap": 5843,
      "ĠEst": 5844,
      "ĠWashington": 5845,
      "Ġbare": 5846,
      "Ġvote": 5847,
      "Ġos": 5848,
      "Ġbell": 5849,
      "Ġbi": 5850,
      "ĠHel": 5851,
      "Ġbore": 5852,
      "izing": 5853,
      "Ġpasses": 5854,
      "Ġcells": 5855,
      "Ġdiscussion": 5856,
      "ram": 5857,
      "Ġthinking": 5858,
      "Ġpill": 5859,
      "bes": 5860,
      "ante": 5861,
      "hus": 5862,
      "don": 5863,
      "ĠRem": 5864,
      ".âĢĻ": 5865,
      "Ġblow": 5866,
      "nat": 5867,
      "Ġecon": 5868,
      "Ġcrime": 5869,
      "Ġgrounds": 5870,
      "Ġsitting": 5871,
      "ĠLand": 5872,
      "ĠBost": 5873,
      "Ġpil": 5874,
      "Ġfaint": 5875,
      "olk": 5876,
      "Ġspeaks": 5877,
      "his": 5878,
      "Ġschol": 5879,
      "Ġauthors": 5880,
      "Ġmaterials": 5881,
      "Ġgenus": 5882,
      "Ġdriven": 5883,
      "uris": 5884,
      "work": 5885,
      "ensions": 5886,
      "Ġvice": 5887,
      "Ġnotwithstanding": 5888,
      "Ġengine": 5889,
      "Ġmoderate": 5890,
      "rations": 5891,
      "Ġdomestic": 5892,
      "ĠÃł": 5893,
      "Ġenergy": 5894,
      "Ġpresents": 5895,
      "Ġaim": 5896,
      "Ġmonarch": 5897,
      "Ġportions": 5898,
      "fc": 5899,
      "ĠFa": 5900,
      "tis": 5901,
      "Ġvoy": 5902,
      "Ġsilent": 5903,
      "Ġstop": 5904,
      "Ġscale": 5905,
      "five": 5906,
      "nr": 5907,
      "Ġacquired": 5908,
      "Ġpaint": 5909,
      "Ġrecommended": 5910,
      "ĠAh": 5911,
      "Ġaspect": 5912,
      "IAN": 5913,
      "Ġix": 5914,
      "ĠScripture": 5915,
      "ILL": 5916,
      "uce": 5917,
      "ĠAbout": 5918,
      "ona": 5919,
      "reme": 5920,
      "ĠCL": 5921,
      "Ġchron": 5922,
      "Ġwanted": 5923,
      "iday": 5924,
      "Ġgrown": 5925,
      "Ġ200": 5926,
      "mas": 5927,
      "ĠCastle": 5928,
      "IP": 5929,
      "orter": 5930,
      "Ġapt": 5931,
      "Ġtoler": 5932,
      "Ġenable": 5933,
      "Ġsuspic": 5934,
      "ked": 5935,
      "Ġdebt": 5936,
      "agn": 5937,
      "Ġdust": 5938,
      "ĠFort": 5939,
      "Ġantiqu": 5940,
      "Ġfold": 5941,
      "Ġparallel": 5942,
      "Ġaside": 5943,
      "Ġendeavour": 5944,
      "ĠStra": 5945,
      "Ġarranged": 5946,
      "Ġissued": 5947,
      "Ġmile": 5948,
      "Ġcities": 5949,
      "ĠAD": 5950,
      "Ġexplained": 5951,
      "Î¸": 5952,
      "Ġseized": 5953,
      "ĠBank": 5954,
      "Ġturning": 5955,
      "Ġrul": 5956,
      "39": 5957,
      "Ġexists": 5958,
      "ĠMus": 5959,
      "change": 5960,
      "Ġmaintained": 5961,
      "Ġconcerned": 5962,
      "ifications": 5963,
      "Ġdying": 5964,
      "Ġgetting": 5965,
      "Ġdoll": 5966,
      "Ġabroad": 5967,
      "ĠAC": 5968,
      "Ġadministration": 5969,
      "Ġard": 5970,
      "Ġmiss": 5971,
      "ĠApost": 5972,
      "Ġrange": 5973,
      "tic": 5974,
      "Ġinstruction": 5975,
      "pa": 5976,
      "ĠOther": 5977,
      "Ġentertain": 5978,
      "ĠSE": 5979,
      "-,": 5980,
      "cientific": 5981,
      "SH": 5982,
      "Ġindependent": 5983,
      "Ġsurely": 5984,
      "ĠDist": 5985,
      "Ġimpr": 5986,
      "LAND": 5987,
      "Ġmagist": 5988,
      "ĠGospel": 5989,
      "aux": 5990,
      "shire": 5991,
      "ĠDIS": 5992,
      "SE": 5993,
      "ĠFrank": 5994,
      "Ġpainful": 5995,
      "Ġaa": 5996,
      "riptions": 5997,
      "rows": 5998,
      "ena": 5999,
      "Ġexisted": 6000,
      "ĠSat": 6001,
      "bre": 6002,
      "Ġrarely": 6003,
      "Ġ;\"": 6004,
      "Ġfet": 6005,
      "Ġprovin": 6006,
      "38": 6007,
      "Ġthereby": 6008,
      "Ġdefect": 6009,
      "mble": 6010,
      "Ġbroke": 6011,
      "Ġfeatures": 6012,
      "Ġretreat": 6013,
      "ky": 6014,
      "Ġimperfect": 6015,
      "Ġments": 6016,
      "Ġfavourable": 6017,
      "Ġloose": 6018,
      "Ġsel": 6019,
      "Ġmargin": 6020,
      "Ġburst": 6021,
      "ĠDi": 6022,
      "cia": 6023,
      "Ãł": 6024,
      "Ġintelligence": 6025,
      "Ġprophe": 6026,
      "Ġemployment": 6027,
      "Ġsla": 6028,
      "met": 6029,
      "48": 6030,
      "Î±Î¹": 6031,
      "Ġdoc": 6032,
      "Ġsink": 6033,
      "Ġchest": 6034,
      "ĠEt": 6035,
      "Ġcreature": 6036,
      "Ġcab": 6037,
      "Ġneglect": 6038,
      "icians": 6039,
      "Ġxxx": 6040,
      "bi": 6041,
      "ĠGermany": 6042,
      "Ġimpart": 6043,
      "Ġignorant": 6044,
      "raid": 6045,
      "Ġsuit": 6046,
      "Ġfloor": 6047,
      "Ġpossibly": 6048,
      "Ġlux": 6049,
      "Ġremarked": 6050,
      "Ġsuggested": 6051,
      "Ġconstruction": 6052,
      "37": 6053,
      "Ġ'^": 6054,
      "onia": 6055,
      "fast": 6056,
      "Ġmanners": 6057,
      "Ġunderstanding": 6058,
      "unction": 6059,
      "cular": 6060,
      "ĠCent": 6061,
      "*,": 6062,
      "Ġlam": 6063,
      "Ġpull": 6064,
      "55": 6065,
      "uer": 6066,
      "Ġtreaty": 6067,
      "Ġice": 6068,
      "attered": 6069,
      "ĠMill": 6070,
      "Ġornament": 6071,
      "rag": 6072,
      "Ġguide": 6073,
      "ENCE": 6074,
      "Ġvalley": 6075,
      "ĠEmperor": 6076,
      "ji": 6077,
      "Ġerect": 6078,
      "ĠPL": 6079,
      "Ġdull": 6080,
      "Ġcaptain": 6081,
      "Ġtrace": 6082,
      "ĠBoston": 6083,
      "yer": 6084,
      "ficial": 6085,
      "ĠIT": 6086,
      "GH": 6087,
      "Ġeminent": 6088,
      "Ġcommanded": 6089,
      "Ġine": 6090,
      "achment": 6091,
      "Ġburning": 6092,
      "Ġtea": 6093,
      "Ġconse": 6094,
      "Ġsuitable": 6095,
      "but": 6096,
      "ĠSoc": 6097,
      "uity": 6098,
      "mes": 6099,
      "Ġassumed": 6100,
      "Ġprompt": 6101,
      "Ġtran": 6102,
      "Ġinterrupt": 6103,
      "Ġslowly": 6104,
      "ĠVOL": 6105,
      "Ġconfl": 6106,
      "athered": 6107,
      "ĠCic": 6108,
      "anim": 6109,
      "Ġobey": 6110,
      "Ġalarm": 6111,
      "Ġthoroughly": 6112,
      "49": 6113,
      "ĠRel": 6114,
      "Ġhoped": 6115,
      "Ġloft": 6116,
      "Ġoutside": 6117,
      "ECT": 6118,
      "HN": 6119,
      "Ġprud": 6120,
      "pert": 6121,
      "Ġvary": 6122,
      "UE": 6123,
      "was": 6124,
      "ĠUniversity": 6125,
      "ĠTown": 6126,
      "urre": 6127,
      "36": 6128,
      "Ġquickly": 6129,
      "Ġmarks": 6130,
      "atre": 6131,
      "Ġdiameter": 6132,
      "lets": 6133,
      "Ġih": 6134,
      "urance": 6135,
      "Ġhall": 6136,
      "Ġexplain": 6137,
      "Ġcounter": 6138,
      "Ġborne": 6139,
      "erred": 6140,
      "Ġagreeable": 6141,
      "Ġsigns": 6142,
      "Ġwants": 6143,
      "Ġrestored": 6144,
      "Ġconsequences": 6145,
      "ici": 6146,
      "Ġeager": 6147,
      "ĠLike": 6148,
      "ĠPop": 6149,
      "ĠMAR": 6150,
      "ĠInf": 6151,
      "Ġsubsequent": 6152,
      "och": 6153,
      "Ġavail": 6154,
      "47": 6155,
      "idel": 6156,
      "phere": 6157,
      "heme": 6158,
      "Ġpassages": 6159,
      "Ġbrave": 6160,
      "Ġbuildings": 6161,
      "Ġverse": 6162,
      "Ġmoist": 6163,
      "igs": 6164,
      "Ġhandsome": 6165,
      "iffe": 6166,
      "asgow": 6167,
      "ĠWales": 6168,
      "Ġbull": 6169,
      "vity": 6170,
      "á½¶": 6171,
      "iber": 6172,
      "Ġmaid": 6173,
      "aration": 6174,
      "ANT": 6175,
      "za": 6176,
      "Ġinclined": 6177,
      ",âĢĻ": 6178,
      "Ġcust": 6179,
      "Ġren": 6180,
      "Ġexperienced": 6181,
      "Ġfinished": 6182,
      "Ġauthorities": 6183,
      "Ġvac": 6184,
      "come": 6185,
      "Ġadapted": 6186,
      "uation": 6187,
      "ael": 6188,
      "Ġrecorded": 6189,
      "-^": 6190,
      "Ġimage": 6191,
      "Ġafternoon": 6192,
      "Ġobedience": 6193,
      "Ġappar": 6194,
      "usalem": 6195,
      "Ġwonderful": 6196,
      "Ġprisoners": 6197,
      "ITY": 6198,
      "Ġattempted": 6199,
      "Ġurine": 6200,
      "Ġwishes": 6201,
      "Ġrespects": 6202,
      "Ġnews": 6203,
      "seless": 6204,
      "Ġgather": 6205,
      "aret": 6206,
      "Ġdiscovery": 6207,
      "Ġelement": 6208,
      "We": 6209,
      "oved": 6210,
      "ĠHol": 6211,
      "Ġcalling": 6212,
      "ĠDev": 6213,
      "cut": 6214,
      "iac": 6215,
      "ĠPa": 6216,
      "Ġnerve": 6217,
      "Ġfalling": 6218,
      "Ġdivers": 6219,
      "Ġpersec": 6220,
      "Ġnatives": 6221,
      "Ġreck": 6222,
      "Ġcentral": 6223,
      "Ġsecurity": 6224,
      "Ġlegal": 6225,
      "lance": 6226,
      "Ġproduction": 6227,
      "ĠCamp": 6228,
      "Ġspecific": 6229,
      "aine": 6230,
      "Ġingen": 6231,
      "ĠDis": 6232,
      "Ġprices": 6233,
      "action": 6234,
      "Ġplates": 6235,
      "ĠStill": 6236,
      "Ġstir": 6237,
      "Ġabsolutely": 6238,
      "ISH": 6239,
      "Ġestablishment": 6240,
      "Ġyards": 6241,
      "Ġexcit": 6242,
      "Ġgrey": 6243,
      "ĠIsa": 6244,
      "Ġlake": 6245,
      "aud": 6246,
      "ĠPH": 6247,
      "ĠIndeed": 6248,
      "Ġ'*": 6249,
      "ints": 6250,
      "Ġignorance": 6251,
      "Ġmagnific": 6252,
      "Ġcombined": 6253,
      "adel": 6254,
      "Ġpref": 6255,
      "Ġvul": 6256,
      "Ġproceeding": 6257,
      "ĠItalian": 6258,
      "Ġ51": 6259,
      "bishop": 6260,
      "iit": 6261,
      "Ġknight": 6262,
      "Ġhorn": 6263,
      "Ġtract": 6264,
      "Ġempt": 6265,
      "TR": 6266,
      "ĠIsland": 6267,
      "Ġmixture": 6268,
      "Ġknowing": 6269,
      "Ġbringing": 6270,
      "Ġnarr": 6271,
      "Ġsoldier": 6272,
      "ĠCle": 6273,
      "Ġvictory": 6274,
      "ITH": 6275,
      "Ġobvious": 6276,
      "46": 6277,
      "Ġpressed": 6278,
      "aunt": 6279,
      "ĠRh": 6280,
      "icit": 6281,
      "Ġceased": 6282,
      "Ġpermanent": 6283,
      "ĠLu": 6284,
      "Ġward": 6285,
      "Ġextremity": 6286,
      "Ġihe": 6287,
      "ĠBE": 6288,
      "ĠVict": 6289,
      "wich": 6290,
      "Ġsky": 6291,
      "Ġdefendant": 6292,
      "rn": 6293,
      "Ġaccomplished": 6294,
      "Ġchamber": 6295,
      "ĠSi": 6296,
      "Ġsmile": 6297,
      "Ġstandard": 6298,
      "Ġsentiments": 6299,
      "Ġexamples": 6300,
      "Ġnorthern": 6301,
      "ĠPost": 6302,
      "ĠEll": 6303,
      "ĠTues": 6304,
      "Ġgate": 6305,
      "Ġsixty": 6306,
      "Ġexecuted": 6307,
      "more": 6308,
      "Ġimproved": 6309,
      "Ġdisturb": 6310,
      "Ġconvenient": 6311,
      "Ġprovisions": 6312,
      "Ġdoctrines": 6313,
      "Ġascertain": 6314,
      "ĠCity": 6315,
      "ĠHE": 6316,
      "Ġbark": 6317,
      "gest": 6318,
      "Ġcontempt": 6319,
      "XX": 6320,
      "^'": 6321,
      "Ġsulphur": 6322,
      "Ġpetition": 6323,
      "Ġfh": 6324,
      "Ġcalculated": 6325,
      "ida": 6326,
      "Ġruin": 6327,
      "Ġtype": 6328,
      "Ġappeal": 6329,
      "Ġdescend": 6330,
      "He": 6331,
      "Ġrevol": 6332,
      "Ġslavery": 6333,
      "Ġrestra": 6334,
      "ulating": 6335,
      "Ġalcoh": 6336,
      "Ġpatron": 6337,
      "Ġmanufacture": 6338,
      "Ġunw": 6339,
      "Ġwoods": 6340,
      "ĠMur": 6341,
      "Ġfinal": 6342,
      "Ġanticip": 6343,
      "Ġprayers": 6344,
      "Ġwelc": 6345,
      "Ġsatisfactory": 6346,
      "Ġdistricts": 6347,
      "Ã¼": 6348,
      "ĠGlasgow": 6349,
      "Ġdesert": 6350,
      "FF": 6351,
      "Ġlest": 6352,
      "Ġfields": 6353,
      "ĠMex": 6354,
      "Ġunh": 6355,
      "Ġkindness": 6356,
      "ĠAfrica": 6357,
      "tends": 6358,
      "Ġcompleted": 6359,
      "á¾": 6360,
      "Ġincreasing": 6361,
      "Ġhid": 6362,
      "ĠBoth": 6363,
      "osure": 6364,
      "Ġcanal": 6365,
      "usions": 6366,
      "Ġparticulars": 6367,
      "ĠEuropean": 6368,
      "jus": 6369,
      "ĠWin": 6370,
      "ĠPot": 6371,
      "host": 6372,
      "Ġphilosophy": 6373,
      "Ġfan": 6374,
      "Ġdetails": 6375,
      "ĠAdd": 6376,
      "ĠGall": 6377,
      "Ġangle": 6378,
      "Ġconducted": 6379,
      "90": 6380,
      "Ġmajesty": 6381,
      "Ġreceiving": 6382,
      "Ġpages": 6383,
      "pus": 6384,
      "Ġstro": 6385,
      "Ġtask": 6386,
      "oria": 6387,
      "Ġcopper": 6388,
      "Ġdelay": 6389,
      "Ġexplanation": 6390,
      "Ġie": 6391,
      "Ġcontact": 6392,
      "thur": 6393,
      "Ġdeveloped": 6394,
      "Ġmit": 6395,
      "Ġshame": 6396,
      "Ġstranger": 6397,
      "Ġrelated": 6398,
      "Ġacting": 6399,
      "ĠTy": 6400,
      "Ġvision": 6401,
      "Ġattain": 6402,
      "Ġ00": 6403,
      "Ġcam": 6404,
      "eded": 6405,
      "Ġprevented": 6406,
      "Ġhospital": 6407,
      "41": 6408,
      "Ġattrib": 6409,
      "Ġgolden": 6410,
      "ustomed": 6411,
      "Ġinterpret": 6412,
      "Ġheavenly": 6413,
      "Ġpayment": 6414,
      "ĠPap": 6415,
      "Ġoft": 6416,
      "Ġafraid": 6417,
      "Ġsuccession": 6418,
      "Ġfleet": 6419,
      "Ġdict": 6420,
      "ĠHug": 6421,
      "Ġmart": 6422,
      "ĠKent": 6423,
      "Ġtn": 6424,
      "fa": 6425,
      "Ġcow": 6426,
      "hich": 6427,
      "Ġconnex": 6428,
      "ĠSince": 6429,
      "ĠBesides": 6430,
      "Ġserm": 6431,
      "ĠBell": 6432,
      "Ġrib": 6433,
      "ĠCe": 6434,
      "mg": 6435,
      "Ġlimits": 6436,
      "olate": 6437,
      "ĠObs": 6438,
      "iest": 6439,
      "Ġviii": 6440,
      "Ġlungs": 6441,
      "arian": 6442,
      "Ġburied": 6443,
      "ĠMich": 6444,
      "Ġtoward": 6445,
      "Ġcorresponding": 6446,
      "Ġcongreg": 6447,
      "Ġsubstances": 6448,
      ");": 6449,
      "ĠJerusalem": 6450,
      "Ġpriests": 6451,
      "arse": 6452,
      "teenth": 6453,
      "ĠÎºÎ±": 6454,
      "ache": 6455,
      "Ġsympathy": 6456,
      "ola": 6457,
      "Ġmand": 6458,
      "Ġhoriz": 6459,
      "ĠÂ°": 6460,
      "Ġsplendid": 6461,
      "han": 6462,
      "Ġreputation": 6463,
      "Ġprecious": 6464,
      "Ġwet": 6465,
      "Ġflight": 6466,
      "Ġmeat": 6467,
      "Ġdeny": 6468,
      "ĠDid": 6469,
      "Ġtrif": 6470,
      "Ġafforded": 6471,
      "ĠLiverpool": 6472,
      "Ġgrief": 6473,
      "Ġconsisting": 6474,
      "Ġagent": 6475,
      "Ġoriginally": 6476,
      "Ġ77": 6477,
      "hend": 6478,
      "Ġaccepted": 6479,
      "Ġcher": 6480,
      "uble": 6481,
      "Ġdent": 6482,
      "ĠAssociation": 6483,
      "ĠStock": 6484,
      "Ġintest": 6485,
      "rious": 6486,
      "Ġexceedingly": 6487,
      "Ġ175": 6488,
      "Ġprosec": 6489,
      "ĠFar": 6490,
      "Ġdare": 6491,
      "Ġearlier": 6492,
      "pass": 6493,
      "Ġblessing": 6494,
      "Ġmurder": 6495,
      "Ġcommerce": 6496,
      "rr": 6497,
      "ulus": 6498,
      "Ġartific": 6499,
      "cel": 6500,
      "ĠFreder": 6501,
      "Ġgrain": 6502,
      "Ġ88": 6503,
      "ĠThr": 6504,
      "oring": 6505,
      "ĠBot": 6506,
      "Ġterrible": 6507,
      "Ġtons": 6508,
      "ĠHave": 6509,
      "Ġarose": 6510,
      "Ġlust": 6511,
      "Ġcard": 6512,
      "urious": 6513,
      "Ġcarriage": 6514,
      "DE": 6515,
      "omet": 6516,
      "Ġammon": 6517,
      "osph": 6518,
      "ĠFour": 6519,
      "hon": 6520,
      "ĠBed": 6521,
      "ĠJul": 6522,
      "ĠAlthough": 6523,
      "Ġsumm": 6524,
      "Ġrequis": 6525,
      "ĠCome": 6526,
      "ĠConf": 6527,
      "inds": 6528,
      "place": 6529,
      "Ġsecured": 6530,
      "Ġpulse": 6531,
      "ĠTer": 6532,
      "Ġbosom": 6533,
      "Ġsie": 6534,
      "Ġtells": 6535,
      "bro": 6536,
      "Ġcavity": 6537,
      "iana": 6538,
      "Ġfamous": 6539,
      "Ġpowder": 6540,
      "Ġcolours": 6541,
      "Ġdistinctly": 6542,
      "can": 6543,
      "Ġdirections": 6544,
      "oes": 6545,
      "Ġbridge": 6546,
      "ĠSax": 6547,
      "Ġattract": 6548,
      "orks": 6549,
      "car": 6550,
      "Ġelected": 6551,
      "Ġpreparation": 6552,
      "Ġinsc": 6553,
      "Ġ:âĢĶ": 6554,
      "ĠChem": 6555,
      "idents": 6556,
      "Ġ78": 6557,
      "Ġgrew": 6558,
      "Ġanalog": 6559,
      "ilis": 6560,
      "ribe": 6561,
      "Ġlog": 6562,
      "Ġpack": 6563,
      "Ġprofit": 6564,
      "Ġba": 6565,
      "Ġconfirm": 6566,
      "Ġexamine": 6567,
      "Ġatmosphere": 6568,
      "Ġplaint": 6569,
      "Ġfairly": 6570,
      "Ġvit": 6571,
      "ali": 6572,
      "ifies": 6573,
      "Ġnu": 6574,
      "Ġencl": 6575,
      "ĠDublin": 6576,
      "Ġalike": 6577,
      "Ġwithdra": 6578,
      "66": 6579,
      "Ġalive": 6580,
      "PH": 6581,
      "Ġsurprise": 6582,
      "Ġpresc": 6583,
      "Ġscheme": 6584,
      "Ġsooner": 6585,
      "Ġbears": 6586,
      "Ġdisappoint": 6587,
      "key": 6588,
      "42": 6589,
      "Ġvest": 6590,
      "Ġpurchase": 6591,
      "Ġabundant": 6592,
      "Ġoh": 6593,
      "Ġfed": 6594,
      "Ġconcluded": 6595,
      "Ġfriendship": 6596,
      ".).": 6597,
      "Ġadvoc": 6598,
      "Ġwritings": 6599,
      "ĠWat": 6600,
      "Ġcommunity": 6601,
      "Ġescaped": 6602,
      "Ġphenomena": 6603,
      "Ġpardon": 6604,
      "ĠJacob": 6605,
      "Ġangels": 6606,
      "uated": 6607,
      "Ġcastle": 6608,
      "ĠMoses": 6609,
      "Ġom": 6610,
      "Ġexclaimed": 6611,
      "Ġmasters": 6612,
      "Ġabsurd": 6613,
      "ĠLove": 6614,
      "Ġ170": 6615,
      "bt": 6616,
      "nde": 6617,
      "Ġlu": 6618,
      "Ġbag": 6619,
      "Ġstead": 6620,
      "ĠSH": 6621,
      "ĠNever": 6622,
      "Ġrivers": 6623,
      "Î¿ÏĤ": 6624,
      "Ġattacked": 6625,
      "Ġindustry": 6626,
      "Ġretired": 6627,
      "Ġcens": 6628,
      "iral": 6629,
      "Ġmelan": 6630,
      "Ġagricult": 6631,
      "Ġbeds": 6632,
      "lest": 6633,
      "Ġgovernor": 6634,
      "ords": 6635,
      "Ġmyst": 6636,
      "Ġcontents": 6637,
      "Ġcontrol": 6638,
      "Ġeloqu": 6639,
      "Ġseeds": 6640,
      "Ġnom": 6641,
      "ĠSamuel": 6642,
      "yx": 6643,
      "ĠWall": 6644,
      "win": 6645,
      "Ġprevail": 6646,
      "Ġproducing": 6647,
      "Ġveins": 6648,
      "ĠTom": 6649,
      "Ġdoubtless": 6650,
      "Ġshel": 6651,
      "Ġcaught": 6652,
      "IE": 6653,
      "Ġdiffer": 6654,
      "ĠOs": 6655,
      "uni": 6656,
      "Ġsentiment": 6657,
      "ĠBet": 6658,
      "Ġoxy": 6659,
      "Ġnovel": 6660,
      "Ġmistake": 6661,
      "Ġweakness": 6662,
      "Ġthousands": 6663,
      "Ġphr": 6664,
      "iU": 6665,
      "Ġscientific": 6666,
      "Ġremoval": 6667,
      "omer": 6668,
      "aming": 6669,
      "Ġcirculation": 6670,
      "Ġfifth": 6671,
      "Ġ85": 6672,
      "irk": 6673,
      "Ġfalls": 6674,
      "Ġimagination": 6675,
      "Ġofficial": 6676,
      "ÏĨ": 6677,
      "ĠHa": 6678,
      "iot": 6679,
      "Ġpalace": 6680,
      "Ġordin": 6681,
      "ĠTuesday": 6682,
      "Ġfruits": 6683,
      "ocal": 6684,
      "Ġverb": 6685,
      "ĠNothing": 6686,
      "Ġinstitution": 6687,
      "Ġregards": 6688,
      "Ġblo": 6689,
      "ĠBa": 6690,
      "ĠThree": 6691,
      "Ġduke": 6692,
      "Ġconviction": 6693,
      "Ġindign": 6694,
      "light": 6695,
      "Ġah": 6696,
      "las": 6697,
      "Ġfunctions": 6698,
      "Ġrays": 6699,
      "Ġpreserve": 6700,
      "Ġmillions": 6701,
      "Ġconfirmed": 6702,
      "TING": 6703,
      "Ġliterature": 6704,
      "Ġbid": 6705,
      "Ġcoat": 6706,
      "ĠAlb": 6707,
      "Ġbay": 6708,
      "OOK": 6709,
      "Ġperceive": 6710,
      "Ġputting": 6711,
      "asted": 6712,
      "icus": 6713,
      "Ġimagine": 6714,
      "Ġfathers": 6715,
      "Ġholl": 6716,
      "Ġappreci": 6717,
      "Ġquarters": 6718,
      "Ġpreserv": 6719,
      "Ġadvent": 6720,
      "OUR": 6721,
      "Ġsensible": 6722,
      "Ġwanting": 6723,
      "arrison": 6724,
      "Ġimmort": 6725,
      "Ġtissue": 6726,
      "mouth": 6727,
      "ĠDer": 6728,
      "Ġproperties": 6729,
      "Ġwaste": 6730,
      "ĠCape": 6731,
      "Ġdetermine": 6732,
      "ĠDra": 6733,
      "Ġexpedition": 6734,
      "ĠSupp": 6735,
      "Ġwand": 6736,
      "Ġsever": 6737,
      "/'": 6738,
      "terday": 6739,
      "Ġtent": 6740,
      "Ġquantities": 6741,
      "Ġarts": 6742,
      "Ġprophet": 6743,
      "ĠOp": 6744,
      "Ġdefic": 6745,
      "ker": 6746,
      "ĠEach": 6747,
      "ĠOrd": 6748,
      "asant": 6749,
      "Ġdecision": 6750,
      "ĠCommon": 6751,
      "pse": 6752,
      "Ġrepent": 6753,
      "ĠBY": 6754,
      "Ġwhis": 6755,
      "75": 6756,
      "tion": 6757,
      "uns": 6758,
      "ĠLE": 6759,
      "Ġocean": 6760,
      "Ġstopped": 6761,
      "Ġgathered": 6762,
      "vest": 6763,
      "Ġsaints": 6764,
      "Ġconve": 6765,
      "Ġshed": 6766,
      "Ġextending": 6767,
      "Ġeggs": 6768,
      "Ġcir": 6769,
      "Ġuncle": 6770,
      "ĠSar": 6771,
      "Ġdiscipl": 6772,
      "fulness": 6773,
      "ulph": 6774,
      "agon": 6775,
      "Ġcomparison": 6776,
      "chie": 6777,
      "Ġtravel": 6778,
      "iae": 6779,
      "Ġmovements": 6780,
      "itan": 6781,
      "Ġgods": 6782,
      "Ġ168": 6783,
      "Ġunus": 6784,
      "Ġconvinced": 6785,
      "Ġprovision": 6786,
      "Ġmould": 6787,
      "Ġarmed": 6788,
      "Ġdeed": 6789,
      "ĠCHR": 6790,
      "Ġperfection": 6791,
      "Ġinterc": 6792,
      "Ġcommencement": 6793,
      "Ġabdomen": 6794,
      "Ġ76": 6795,
      "Ġaccommod": 6796,
      "Ġconsiderably": 6797,
      "Ġdeclare": 6798,
      "ĠAtt": 6799,
      "qual": 6800,
      "ĠArthur": 6801,
      "ĠÎ¼": 6802,
      "Ġaug": 6803,
      "Ġengra": 6804,
      "Ġthrew": 6805,
      "Ġthinks": 6806,
      "Ġrevolution": 6807,
      "Ġá¼Ģ": 6808,
      "Ġdw": 6809,
      "Ġcas": 6810,
      "ifts": 6811,
      "Ġaccustomed": 6812,
      "ĠJones": 6813,
      "Ġstars": 6814,
      "Ġtomb": 6815,
      "Ġtall": 6816,
      "oubted": 6817,
      "Ġjustly": 6818,
      "Ġec": 6819,
      "cket": 6820,
      "Ġplus": 6821,
      "Ġcreatures": 6822,
      "ĠArab": 6823,
      "rick": 6824,
      "omed": 6825,
      "ATH": 6826,
      "Ġencourage": 6827,
      "Ġintellectual": 6828,
      "Ġpity": 6829,
      "Ġmun": 6830,
      "Ġdesirable": 6831,
      "Ġvener": 6832,
      "Ġ150": 6833,
      "ĠTestament": 6834,
      "Ġpenet": 6835,
      "Ġstem": 6836,
      "Ġnost": 6837,
      "Ġ86": 6838,
      "Ġcourts": 6839,
      "Ġliber": 6840,
      "ateful": 6841,
      "oir": 6842,
      "ĠTim": 6843,
      "Ġenjoyed": 6844,
      "Ġspite": 6845,
      "ĠSk": 6846,
      "othe": 6847,
      "ĠCra": 6848,
      "cast": 6849,
      "irect": 6850,
      "Ġtemp": 6851,
      "iastical": 6852,
      "Ġutterly": 6853,
      "eries": 6854,
      "Ġcharacteristic": 6855,
      "Ġcontrad": 6856,
      "ĠMah": 6857,
      "ĠAL": 6858,
      "ĠDen": 6859,
      "Ġshadow": 6860,
      "ĠCard": 6861,
      "orus": 6862,
      "Ġliberal": 6863,
      "Ġfel": 6864,
      "ĠWednes": 6865,
      "ĠÎµ": 6866,
      "Ġintroduction": 6867,
      "Ġpursued": 6868,
      "Ġsettle": 6869,
      "Ġwalked": 6870,
      "ĠOd": 6871,
      "Ġrighteousness": 6872,
      "Ġacres": 6873,
      "Ġmyster": 6874,
      "appy": 6875,
      "pends": 6876,
      "Ġinstitutions": 6877,
      "Ġgoodness": 6878,
      "Ġvert": 6879,
      "Ġdistrib": 6880,
      "ĠBre": 6881,
      "Ġgrains": 6882,
      "phia": 6883,
      "nl": 6884,
      "Ġworst": 6885,
      "venant": 6886,
      "ĠAdam": 6887,
      "ĠThurs": 6888,
      "annel": 6889,
      "inson": 6890,
      "Ġenthus": 6891,
      "LY": 6892,
      "Ġusing": 6893,
      "Ġbig": 6894,
      "Ġincluded": 6895,
      "held": 6896,
      "Ġliver": 6897,
      "ĠVII": 6898,
      "Ġshade": 6899,
      "Ġtribes": 6900,
      "Ġpoetry": 6901,
      "ĠDor": 6902,
      "Ġconceive": 6903,
      "ĠSand": 6904,
      "Ġassembled": 6905,
      "Ġclimate": 6906,
      "ste": 6907,
      "Ġforgotten": 6908,
      "Ġ79": 6909,
      "Ġvine": 6910,
      "ĠOffice": 6911,
      "just": 6912,
      "ima": 6913,
      "Ġarter": 6914,
      "Ġcrowd": 6915,
      "otic": 6916,
      "OUN": 6917,
      "Ġfest": 6918,
      "Ġactivity": 6919,
      "Ġcompass": 6920,
      "Ġpartial": 6921,
      "rers": 6922,
      "ĠJohnson": 6923,
      "Ġ99": 6924,
      "Ġemperor": 6925,
      "Ġentering": 6926,
      "tering": 6927,
      "orders": 6928,
      "ĠTreat": 6929,
      "Ġ61": 6930,
      "Ġ160": 6931,
      "ĠSea": 6932,
      "Ġfert": 6933,
      "ormal": 6934,
      "Ġurged": 6935,
      "Ġdepartment": 6936,
      "Ġcapacity": 6937,
      "Ġcultivated": 6938,
      "Ġscenes": 6939,
      "Ġconnect": 6940,
      "ira": 6941,
      "ĠSa": 6942,
      "ATIONS": 6943,
      "ĠOffic": 6944,
      "ĠMuse": 6945,
      "isse": 6946,
      "ĠDutch": 6947,
      "ĠMAN": 6948,
      "Ġconverted": 6949,
      "dr": 6950,
      "Ġconfusion": 6951,
      "Ġworked": 6952,
      "Ġoffence": 6953,
      "mt": 6954,
      "sex": 6955,
      "Ġsyn": 6956,
      "OY": 6957,
      "Ġdollars": 6958,
      "Ġpound": 6959,
      "Ġdenied": 6960,
      "Ġacquaintance": 6961,
      "ĠHead": 6962,
      "Ġcreation": 6963,
      "ĠPerhaps": 6964,
      "ĠCommons": 6965,
      "Ġtie": 6966,
      "Ġinduce": 6967,
      "Ġreasonable": 6968,
      "Ġquoted": 6969,
      "ĠManc": 6970,
      "Ġremembered": 6971,
      "Ġcharity": 6972,
      "Ġcolum": 6973,
      "Ġportra": 6974,
      "Ġunfortunate": 6975,
      "cu": 6976,
      "ĠAB": 6977,
      "ĠTw": 6978,
      "ĠTake": 6979,
      "âĢľ": 6980,
      "Ġbutter": 6981,
      "ĠTay": 6982,
      "body": 6983,
      "Ġenorm": 6984,
      "Ġoutward": 6985,
      "ĠUN": 6986,
      "Ġdeemed": 6987,
      "Ġshortly": 6988,
      "Ġproduces": 6989,
      "Ġfavourite": 6990,
      "ĠRail": 6991,
      "Ġarising": 6992,
      "Ġcompound": 6993,
      "Ġjealous": 6994,
      "Ġoffices": 6995,
      "Ġsacrific": 6996,
      "Ġdecomp": 6997,
      "Ġlabours": 6998,
      "Ġbehalf": 6999,
      "Ġlargest": 7000,
      "Ġresistance": 7001,
      "phe": 7002,
      "iscop": 7003,
      "Ġamend": 7004,
      "ĠGold": 7005,
      "Ġslender": 7006,
      "ĠHowever": 7007,
      "Ġfright": 7008,
      "Ġoe": 7009,
      "ciet": 7010,
      "Ġming": 7011,
      "Ġmultitude": 7012,
      "uther": 7013,
      "ĠJOHN": 7014,
      "Ġrejo": 7015,
      "inence": 7016,
      "Ġclouds": 7017,
      "Ġreality": 7018,
      "Ġislands": 7019,
      "Ġconsol": 7020,
      "ĠVIII": 7021,
      "Ġfurnish": 7022,
      "ocr": 7023,
      "Ġbrilliant": 7024,
      "Â§": 7025,
      "Ġrevel": 7026,
      "Ġapparatus": 7027,
      "ensity": 7028,
      "Ġaccess": 7029,
      "ani": 7030,
      "Ġuncertain": 7031,
      "ĠRiver": 7032,
      "Ġabol": 7033,
      "ĠDun": 7034,
      "Ġaccomp": 7035,
      "ĠConstitution": 7036,
      "Ġante": 7037,
      "Ġpositive": 7038,
      "ĠENG": 7039,
      "Ġselected": 7040,
      "itur": 7041,
      "Ġelsewhere": 7042,
      "ĠActs": 7043,
      "Ġenterpr": 7044,
      "Ġrecovered": 7045,
      "Ġbelongs": 7046,
      "inte": 7047,
      "lv": 7048,
      "Ġappointment": 7049,
      "Ġnearer": 7050,
      "ington": 7051,
      "Ġterritory": 7052,
      "Ġclay": 7053,
      "Ġdiet": 7054,
      "line": 7055,
      "ĠServ": 7056,
      "Ġconform": 7057,
      "gate": 7058,
      "Ġquart": 7059,
      "Ġunp": 7060,
      "Ġcess": 7061,
      "from": 7062,
      "Ġdrops": 7063,
      "Ġsell": 7064,
      "hor": 7065,
      "rad": 7066,
      "ei": 7067,
      "Ġconnexion": 7068,
      "ĠFriday": 7069,
      "ees": 7070,
      "Ġexcitement": 7071,
      "ropol": 7072,
      "rod": 7073,
      "Ġharm": 7074,
      "Ġnotion": 7075,
      "ĠIM": 7076,
      "itus": 7077,
      "Ġpassions": 7078,
      "lem": 7079,
      "Ġmetal": 7080,
      "ĠBR": 7081,
      "Ġwarrant": 7082,
      "Ġincons": 7083,
      "Ġarea": 7084,
      "Ġpainted": 7085,
      "Ġrot": 7086,
      "31": 7087,
      "adder": 7088,
      "Ïį": 7089,
      "iat": 7090,
      "Ġhospit": 7091,
      "ĠSac": 7092,
      "ĠBon": 7093,
      "Ġgame": 7094,
      "Ġcel": 7095,
      "Ġeffic": 7096,
      "Ġuncom": 7097,
      "Ġbent": 7098,
      "Ġcotton": 7099,
      "Ġcease": 7100,
      "illy": 7101,
      "ĠProtestant": 7102,
      "Ġbarbar": 7103,
      "ĠDu": 7104,
      "choly": 7105,
      "Ġtransfer": 7106,
      "Ġ87": 7107,
      "Ġstrike": 7108,
      "Ġtermed": 7109,
      "ĠPass": 7110,
      "Ġpunct": 7111,
      "eur": 7112,
      "Ġascertained": 7113,
      "Ġnevertheless": 7114,
      "Ġobli": 7115,
      "Ġministry": 7116,
      "oper": 7117,
      "athers": 7118,
      "Ġreturning": 7119,
      "oks": 7120,
      "ĠMost": 7121,
      "urrection": 7122,
      "istle": 7123,
      "á½¸": 7124,
      "Ġwhenever": 7125,
      "Ġcontinually": 7126,
      "Ġflag": 7127,
      "water": 7128,
      "oln": 7129,
      "ylind": 7130,
      "Ġdisplay": 7131,
      "Ġthor": 7132,
      "Ġsem": 7133,
      "ĠLET": 7134,
      "ĠLords": 7135,
      "ushing": 7136,
      "Ġnaked": 7137,
      "ĠTurn": 7138,
      "Ġum": 7139,
      "No": 7140,
      "Ġartery": 7141,
      "Ġhell": 7142,
      "Ġwheat": 7143,
      "Ġpreached": 7144,
      "Ġcritic": 7145,
      "Ġthroat": 7146,
      "Ġfeeble": 7147,
      "Ġhumanity": 7148,
      "Ġaltar": 7149,
      "Ġsouthern": 7150,
      "Ġwinds": 7151,
      "Ġprize": 7152,
      "imus": 7153,
      "Ġaccum": 7154,
      "icul": 7155,
      "ĠBeing": 7156,
      "ĠCarol": 7157,
      "Ġling": 7158,
      "ACE": 7159,
      "QU": 7160,
      "mark": 7161,
      "Ġ89": 7162,
      "URN": 7163,
      "ASS": 7164,
      "Ġwestern": 7165,
      "Ġample": 7166,
      "IB": 7167,
      "ography": 7168,
      "oute": 7169,
      "Ġmoving": 7170,
      "Ġhunt": 7171,
      "ĠChina": 7172,
      "Ġguilt": 7173,
      "Ġwaiting": 7174,
      "Ġxi": 7175,
      "Ġworn": 7176,
      "Ġstruggle": 7177,
      "Ġphilosopher": 7178,
      "rup": 7179,
      "Ġamuse": 7180,
      "ĠAndrew": 7181,
      "Ġteaching": 7182,
      "To": 7183,
      "encies": 7184,
      "ĠâĢĺâĢĺ": 7185,
      "Ġay": 7186,
      "Ġture": 7187,
      "Ġacknowledged": 7188,
      "Ġunex": 7189,
      "Ġjury": 7190,
      "Ġanxiety": 7191,
      "ago": 7192,
      "Ġvom": 7193,
      "Ġtransp": 7194,
      "Ġphysician": 7195,
      "ulent": 7196,
      "ĠWH": 7197,
      "Ġrelating": 7198,
      "Ġplanted": 7199,
      "AW": 7200,
      "Ġclo": 7201,
      "ĠFin": 7202,
      "Ġoccurrence": 7203,
      "ĠÎ¿": 7204,
      "Ġwindows": 7205,
      "ĠBaron": 7206,
      "ilton": 7207,
      "Ġvegetable": 7208,
      "ĠPO": 7209,
      "Ġgenu": 7210,
      "Ġseated": 7211,
      "Ġretained": 7212,
      "Ġcoff": 7213,
      "itud": 7214,
      "Ġtun": 7215,
      "Ġcompanion": 7216,
      "ĠCounty": 7217,
      "Ġdilig": 7218,
      "ĠShall": 7219,
      "Ġlateral": 7220,
      "Ġadmiration": 7221,
      "Ġanc": 7222,
      "eping": 7223,
      "Ġwhereas": 7224,
      "Ġmisery": 7225,
      "Ġbegins": 7226,
      "Ġsettlement": 7227,
      "ĠCambridge": 7228,
      "izes": 7229,
      "Ġattained": 7230,
      "Ġham": 7231,
      "Ġdepends": 7232,
      "ĠNav": 7233,
      "ĠRet": 7234,
      "Ġdeparture": 7235,
      "Ġlament": 7236,
      "Ġdistinguish": 7237,
      "Ġalcohol": 7238,
      "Ġlb": 7239,
      "Ġdeceased": 7240,
      "Ġchoose": 7241,
      "Ġsuperst": 7242,
      "Ġfome": 7243,
      "ĠManchester": 7244,
      "low": 7245,
      "Ġprinces": 7246,
      "ĠAuth": 7247,
      "ĠHolland": 7248,
      "Ġpermit": 7249,
      "Ġoblong": 7250,
      "Ġchemical": 7251,
      "Ġwretched": 7252,
      "Ġmedium": 7253,
      "Ġci": 7254,
      "Ġyon": 7255,
      "Ġshalt": 7256,
      "Ġmortal": 7257,
      "Ġrecover": 7258,
      "Ġfitted": 7259,
      "Ġdevil": 7260,
      "Ġsession": 7261,
      "utive": 7262,
      "Ġalk": 7263,
      "Ġhereafter": 7264,
      "Ġcombination": 7265,
      "Ġundoubted": 7266,
      "Ġmasses": 7267,
      "Ġintent": 7268,
      "Ġgle": 7269,
      "Ġfibres": 7270,
      "Ġaccompany": 7271,
      "Ġlimbs": 7272,
      "Ġstern": 7273,
      "Ġstrengthen": 7274,
      "Ġvols": 7275,
      "Ġmic": 7276,
      "Ġentertained": 7277,
      "ĠHind": 7278,
      "ĠReform": 7279,
      "Ġted": 7280,
      "Ġencoura": 7281,
      "Ġlaug": 7282,
      "ĠWednesday": 7283,
      "Ġelectric": 7284,
      "Ġhappen": 7285,
      "Ġrepublic": 7286,
      "ĠRomans": 7287,
      "Ġvoyage": 7288,
      "Ġprominent": 7289,
      "ĠThursday": 7290,
      "Ġbishops": 7291,
      "ĠLinc": 7292,
      "AST": 7293,
      "Ġchain": 7294,
      "ĠScriptures": 7295,
      "Ġruns": 7296,
      "ĠStep": 7297,
      "Ġwidow": 7298,
      "Ġace": 7299,
      "Ġnoise": 7300,
      "mar": 7301,
      "ĠZe": 7302,
      "Ġinstantly": 7303,
      "Ġscattered": 7304,
      "Ġprevailed": 7305,
      "Ġsubstant": 7306,
      "Ġmanagement": 7307,
      "Ġattempts": 7308,
      "Ġgenerous": 7309,
      "Ġclim": 7310,
      "Ġsurre": 7311,
      "Ġdespair": 7312,
      "Ġguns": 7313,
      "hand": 7314,
      "Ġ120": 7315,
      "Ġami": 7316,
      "Ġsubmit": 7317,
      "ĠExt": 7318,
      "ĠCOL": 7319,
      "Ġreflect": 7320,
      "Ġperse": 7321,
      "Ġcorner": 7322,
      "32": 7323,
      "Ġcaval": 7324,
      "born": 7325,
      "bey": 7326,
      "vet": 7327,
      "Ġdeserv": 7328,
      "adh": 7329,
      "Ġnose": 7330,
      "Ġretain": 7331,
      "Ġsurprised": 7332,
      "Ġbowels": 7333,
      "Ġdoors": 7334,
      "Ġcutting": 7335,
      "Ġperceived": 7336,
      "Ġrefuse": 7337,
      "Ġevils": 7338,
      "Ġsket": 7339,
      "Ġvirtues": 7340,
      "Ġtherein": 7341,
      "ensation": 7342,
      "Ġoccasioned": 7343,
      "Ġcylind": 7344,
      "Ġpreacher": 7345,
      "ĠNOT": 7346,
      "Ġcolumn": 7347,
      "Ġvap": 7348,
      "Ġregions": 7349,
      "ĠLamb": 7350,
      "Ġic": 7351,
      "wall": 7352,
      "Ġrom": 7353,
      "Ġmerits": 7354,
      "Ġbot": 7355,
      "Ġdesigned": 7356,
      "non": 7357,
      "Ġ169": 7358,
      "Ġtha": 7359,
      "Ġrude": 7360,
      "Ġcomparatively": 7361,
      "Ġrej": 7362,
      "di": 7363,
      "Ġgift": 7364,
      "ĠDar": 7365,
      "Ġcultivation": 7366,
      "Ġclothes": 7367,
      "ĠAPP": 7368,
      "Ġvag": 7369,
      "Ġcorpor": 7370,
      "ĠYoung": 7371,
      "Ġindisp": 7372,
      "phy": 7373,
      "alis": 7374,
      "Ġbegun": 7375,
      "Ġbeside": 7376,
      "ĠMS": 7377,
      "Ġconclude": 7378,
      "ersed": 7379,
      "Ġxii": 7380,
      "Ġneut": 7381,
      "Ġprincipally": 7382,
      "ĠLieutenant": 7383,
      "Ġscript": 7384,
      "âĢŀ": 7385,
      "Ġprovide": 7386,
      "Ġrespective": 7387,
      "ean": 7388,
      "Ġtremb": 7389,
      "ĠSqu": 7390,
      "Ġintense": 7391,
      "inted": 7392,
      "tes": 7393,
      "Ġtiie": 7394,
      "Ġadds": 7395,
      "rier": 7396,
      "Ġcomplaint": 7397,
      "Ġdevotion": 7398,
      "aws": 7399,
      "Ġconsidering": 7400,
      "Ġinher": 7401,
      "lis": 7402,
      "Ġapprehens": 7403,
      "Ġchapel": 7404,
      "ĠHebrew": 7405,
      "TIONS": 7406,
      "34": 7407,
      "Ġuseless": 7408,
      "fr": 7409,
      "Ġoath": 7410,
      "ictions": 7411,
      "Ġliterary": 7412,
      "Ġpublication": 7413,
      "press": 7414,
      "ln": 7415,
      "Ġcott": 7416,
      "Ġeleven": 7417,
      "abbath": 7418,
      "Ġulcer": 7419,
      "Ġcontinues": 7420,
      "Ġcolor": 7421,
      "Ġtalents": 7422,
      "Ġprosperity": 7423,
      "Ġearliest": 7424,
      "Ġjudges": 7425,
      "Ġretire": 7426,
      "Ġengage": 7427,
      "Ġpear": 7428,
      "Ġwherein": 7429,
      "Ġwrought": 7430,
      "ĠLab": 7431,
      "Ġassume": 7432,
      "Ġshell": 7433,
      "Ġsequ": 7434,
      "Ġregiment": 7435,
      "Ġsuggest": 7436,
      "Ġbath": 7437,
      "itudes": 7438,
      "engers": 7439,
      "UD": 7440,
      "Ġspo": 7441,
      "Ġtribe": 7442,
      "sen": 7443,
      "etic": 7444,
      "This": 7445,
      "ĠLow": 7446,
      "Ġapproaching": 7447,
      "Ġdrop": 7448,
      "Ġpropriet": 7449,
      "Ġkiss": 7450,
      "ĠCanada": 7451,
      "Ġ62": 7452,
      "Ġyesterday": 7453,
      "ĠGer": 7454,
      "ĠED": 7455,
      "Ġdated": 7456,
      "Ġfled": 7457,
      "Ġwages": 7458,
      "Ġow": 7459,
      "Ġhang": 7460,
      "Ġgross": 7461,
      "88": 7462,
      "Ġtain": 7463,
      "Ġgratitude": 7464,
      "orated": 7465,
      "Ġvaried": 7466,
      "plicity": 7467,
      "orable": 7468,
      "Ġkindly": 7469,
      "ciences": 7470,
      "ĠPortug": 7471,
      "Ġ71": 7472,
      "akers": 7473,
      "Ġdoctor": 7474,
      "ĠPruss": 7475,
      "AGE": 7476,
      "Ġmuscular": 7477,
      ",^": 7478,
      "Ġbeloved": 7479,
      "ĠLew": 7480,
      "Ġanat": 7481,
      "ĠSher": 7482,
      "Ġboil": 7483,
      "Ġremainder": 7484,
      "ĠPur": 7485,
      "Ġtar": 7486,
      "Ġting": 7487,
      "Ġboiling": 7488,
      "Ġneat": 7489,
      "Ġsubsequently": 7490,
      "roc": 7491,
      "Ġelevated": 7492,
      "Ġcha": 7493,
      "ĠVirginia": 7494,
      "ĠSus": 7495,
      "Ġprepare": 7496,
      "Ġsounds": 7497,
      "Ġsetting": 7498,
      "Ġremote": 7499,
      "Ġsurv": 7500,
      "Ġpious": 7501,
      "illery": 7502,
      "lit": 7503,
      "ĠWm": 7504,
      "iveness": 7505,
      "Ġdescribe": 7506,
      "Ġenlarged": 7507,
      "Ġfunction": 7508,
      "Ġprofound": 7509,
      "aceous": 7510,
      "Ġnn": 7511,
      "77": 7512,
      "Ġcharges": 7513,
      "Ġdisciples": 7514,
      "ĠWalter": 7515,
      "itious": 7516,
      "Ġbenevol": 7517,
      "Ġ166": 7518,
      "Ġmiserable": 7519,
      "Ġbreadth": 7520,
      "inding": 7521,
      "Ġpier": 7522,
      "bing": 7523,
      "BER": 7524,
      "Ġalluded": 7525,
      "Ġlion": 7526,
      "Ġmelancholy": 7527,
      "Ġtreas": 7528,
      "Ġfinger": 7529,
      "intend": 7530,
      "See": 7531,
      "vous": 7532,
      "Ġinvestig": 7533,
      "Ġcovering": 7534,
      "ĠNational": 7535,
      "Ġborder": 7536,
      "ANS": 7537,
      "Ġsenses": 7538,
      "Ġfears": 7539,
      "Ġenfor": 7540,
      "IAL": 7541,
      "Ġcoloured": 7542,
      "Ġexhibit": 7543,
      "amation": 7544,
      "Ġcondemned": 7545,
      "IGH": 7546,
      "Ġgracious": 7547,
      "ala": 7548,
      "Ġshout": 7549,
      "Ġerrors": 7550,
      "ensis": 7551,
      "Ġtab": 7552,
      "Ġdreadful": 7553,
      "icable": 7554,
      "uk": 7555,
      "Ġbrings": 7556,
      "ĠConstant": 7557,
      "Ġmotives": 7558,
      "Ġstarted": 7559,
      "Ġsaith": 7560,
      "udd": 7561,
      "itch": 7562,
      "Ġoxygen": 7563,
      "Ġleads": 7564,
      "Ġfeed": 7565,
      "Ġ,,": 7566,
      "Ġpled": 7567,
      "Ġincur": 7568,
      "yd": 7569,
      "ĠNich": 7570,
      "Ġpiety": 7571,
      "ĠMED": 7572,
      "Ġwalking": 7573,
      "Ġabsent": 7574,
      "Ġflame": 7575,
      "str": 7576,
      "Ġtliat": 7577,
      "Ġfingers": 7578,
      "Ġcolumns": 7579,
      "Ġdiscipline": 7580,
      "part": 7581,
      "Ġrow": 7582,
      "lers": 7583,
      "Ġplat": 7584,
      "ĠCrown": 7585,
      "ĠBab": 7586,
      "Ġdisgra": 7587,
      "Ġquam": 7588,
      "Ġea": 7589,
      "Ġape": 7590,
      "Ġwelcome": 7591,
      "arum": 7592,
      "Ġneglected": 7593,
      "Ġinquire": 7594,
      "ĠLanc": 7595,
      "llor": 7596,
      "Ġbasis": 7597,
      "Ġassembly": 7598,
      "Ġfinds": 7599,
      "Ġlaugh": 7600,
      "ĠMartin": 7601,
      "Ġtorn": 7602,
      "ĠLuke": 7603,
      "Ġbelonged": 7604,
      "Ġdressed": 7605,
      "Ġverd": 7606,
      "ĠMarg": 7607,
      "Ġboats": 7608,
      "oma": 7609,
      "Ġ95": 7610,
      "Ġcompanions": 7611,
      "ĠMR": 7612,
      "Ġjuris": 7613,
      "Ġforbid": 7614,
      "Ġflood": 7615,
      "Ġarrangements": 7616,
      "Ġbaptism": 7617,
      "ĠWorks": 7618,
      "ĠVar": 7619,
      "anth": 7620,
      "Ġability": 7621,
      "Ġplaintiff": 7622,
      "Ġspots": 7623,
      "ocation": 7624,
      "Ġrespectable": 7625,
      "pson": 7626,
      "ĠAlso": 7627,
      "Ġholds": 7628,
      "ighty": 7629,
      "Ġprocured": 7630,
      "ĠWOR": 7631,
      "Ġarguments": 7632,
      "Ġconveyed": 7633,
      "SON": 7634,
      "vin": 7635,
      "Ġyours": 7636,
      "reen": 7637,
      "Ġrooms": 7638,
      "Ġintercourse": 7639,
      "Ġstronger": 7640,
      "Ġcovenant": 7641,
      "Ġaltered": 7642,
      "General": 7643,
      "imum": 7644,
      "Ġfount": 7645,
      "jj": 7646,
      "Ġsore": 7647,
      "Ġwrites": 7648,
      "Ġpatience": 7649,
      "Ġresour": 7650,
      "Ġinstructions": 7651,
      "Ġpronounced": 7652,
      "ĠBart": 7653,
      "Ġpurple": 7654,
      "Ġ^'": 7655,
      "Ġalb": 7656,
      "Ġinconven": 7657,
      "upon": 7658,
      "Ġconflict": 7659,
      "Ġorganic": 7660,
      "ÎµÎ¹": 7661,
      "Ġassigned": 7662,
      "Ġgay": 7663,
      "Ġcontinent": 7664,
      "Ġsensation": 7665,
      "ĠFrie": 7666,
      "Ġindicated": 7667,
      "ĠAssemb": 7668,
      "On": 7669,
      "Ġ98": 7670,
      "morrow": 7671,
      "Ġprecisely": 7672,
      "ĠDeath": 7673,
      "ĠHum": 7674,
      "ĠLincoln": 7675,
      "Ġapostle": 7676,
      "Ġcolony": 7677,
      "worthy": 7678,
      "Ġproceeds": 7679,
      "Ġpolice": 7680,
      "Ġmoreover": 7681,
      "Ġuterus": 7682,
      "idity": 7683,
      "Ġunne": 7684,
      "Ġsep": 7685,
      "ĠXXX": 7686,
      "Ġelegant": 7687,
      "ials": 7688,
      "Ġbon": 7689,
      "ĠNorm": 7690,
      "And": 7691,
      "ĠPublic": 7692,
      "rep": 7693,
      "Ġounces": 7694,
      "Ġshew": 7695,
      "Ġ300": 7696,
      "ĠTherefore": 7697,
      "Ġbron": 7698,
      "ulse": 7699,
      "Ġdisorder": 7700,
      "Ġcrossed": 7701,
      "Ġnegro": 7702,
      "ĠIX": 7703,
      "Ġseve": 7704,
      "Ġbeings": 7705,
      "Ġagents": 7706,
      "ositions": 7707,
      "ĠFROM": 7708,
      "Ġcenturies": 7709,
      "Ġfriendly": 7710,
      "Ġgeneration": 7711,
      "ĠCross": 7712,
      "ĠTill": 7713,
      "Ġinstruments": 7714,
      "Ġplainly": 7715,
      "Ġidol": 7716,
      "Ġdivide": 7717,
      "ito": 7718,
      "ano": 7719,
      "OOD": 7720,
      "Ġpreach": 7721,
      "Ġdoubtful": 7722,
      "Ġvital": 7723,
      "hal": 7724,
      "Ġlovely": 7725,
      "Ġpreaching": 7726,
      "ĠEle": 7727,
      "Ġburnt": 7728,
      "eting": 7729,
      "Ġlofty": 7730,
      "Ġperiods": 7731,
      "Ġimprison": 7732,
      "Ġprivilege": 7733,
      "Ġcorps": 7734,
      "rive": 7735,
      "Ġaffair": 7736,
      "Ġbenef": 7737,
      "Ġmuscle": 7738,
      "Ġrear": 7739,
      "Ġinterested": 7740,
      "Ġadmission": 7741,
      "borough": 7742,
      "ĠGEN": 7743,
      "Ġexcite": 7744,
      "Ġmagnificent": 7745,
      "ĠGrand": 7746,
      "OLOG": 7747,
      "Ġdaugh": 7748,
      "Ġrum": 7749,
      "Ġcrew": 7750,
      "Ġrecollect": 7751,
      "ĠRussia": 7752,
      "Ġsubmitted": 7753,
      "ĠPhiladel": 7754,
      "orate": 7755,
      "Ġinnocent": 7756,
      "Ġray": 7757,
      "Ġsigned": 7758,
      "Ġsurgeon": 7759,
      "ao": 7760,
      "amin": 7761,
      "Ġ165": 7762,
      "Ġdozen": 7763,
      "Ġns": 7764,
      "iT": 7765,
      "Ġtransverse": 7766,
      "Ġreports": 7767,
      "Ġcrowded": 7768,
      "leness": 7769,
      "Ġcompr": 7770,
      ";\"": 7771,
      "Ġneighb": 7772,
      "ORT": 7773,
      "ĠSeveral": 7774,
      "Ġchronic": 7775,
      "Ġinvolved": 7776,
      "Ġprohib": 7777,
      "Ġnay": 7778,
      "Ġventure": 7779,
      "Ġanch": 7780,
      "Ġinterfe": 7781,
      ".:": 7782,
      "Ġtide": 7783,
      "ĠWestern": 7784,
      "Ġeastern": 7785,
      "Ġtemporary": 7786,
      "Î¿Ïħ": 7787,
      "Ġtouched": 7788,
      "Ġdemanded": 7789,
      "Ġquo": 7790,
      "Ġselves": 7791,
      "ĠLinn": 7792,
      "ĠSum": 7793,
      "Ġcareer": 7794,
      "eb": 7795,
      "á¿¦": 7796,
      "minster": 7797,
      "berg": 7798,
      "Ġ74": 7799,
      "ĠStr": 7800,
      "Ġwrath": 7801,
      "ĠHard": 7802,
      "Ġplans": 7803,
      "Ġproposition": 7804,
      "rip": 7805,
      "ĠJudge": 7806,
      "Ġ96": 7807,
      "Ġcheck": 7808,
      "ĠWhether": 7809,
      "Ġcommercial": 7810,
      "tem": 7811,
      "Ġambition": 7812,
      "ĠSic": 7813,
      "ĠBull": 7814,
      "chen": 7815,
      "Ġferv": 7816,
      "ĠBapt": 7817,
      "Ġreturns": 7818,
      "Ġprocure": 7819,
      "MON": 7820,
      "Ġhistorical": 7821,
      "VI": 7822,
      "Ġance": 7823,
      "Ġpromises": 7824,
      "Ġdeclaration": 7825,
      "Ġterror": 7826,
      "ĠChief": 7827,
      "uming": 7828,
      "Ġcli": 7829,
      "ĠLuc": 7830,
      "oso": 7831,
      "Ġpin": 7832,
      "Ġinserted": 7833,
      "Ĥ¬": 7834,
      "Ġnt": 7835,
      "An": 7836,
      "pired": 7837,
      "actions": 7838,
      "Ġeighteen": 7839,
      "Ġties": 7840,
      "Ġinjured": 7841,
      "Ġpleasing": 7842,
      "Ġcrop": 7843,
      "Ġbatt": 7844,
      "Ġremedies": 7845,
      "Ġturns": 7846,
      "Ġfc": 7847,
      "uty": 7848,
      "Ġconcent": 7849,
      "Ġshop": 7850,
      "astern": 7851,
      "Ġcontrovers": 7852,
      "Ġacknowledge": 7853,
      "Ġincor": 7854,
      "ĠThrough": 7855,
      "Ġpoll": 7856,
      "Ġdischarged": 7857,
      "Ġstrictly": 7858,
      "yard": 7859,
      "armed": 7860,
      "igne": 7861,
      "ĠDur": 7862,
      "Ġlor": 7863,
      "mus": 7864,
      "inese": 7865,
      "ĠAbra": 7866,
      "orrh": 7867,
      "ĠShould": 7868,
      "Ġsees": 7869,
      "jr": 7870,
      "Ġabundance": 7871,
      "Ġappet": 7872,
      "Ġperformance": 7873,
      "unct": 7874,
      "Ġ111": 7875,
      "Ġkill": 7876,
      "gon": 7877,
      "Ġadorn": 7878,
      "Ġartificial": 7879,
      "Ġmercury": 7880,
      "Ġsorts": 7881,
      "uance": 7882,
      "Â®": 7883,
      "nut": 7884,
      "Ġure": 7885,
      "Ġprovinces": 7886,
      "ĠKings": 7887,
      "Ġsilk": 7888,
      "Ġbreaking": 7889,
      "Ġselect": 7890,
      "Ġmistaken": 7891,
      "ĠBuck": 7892,
      "ĠGR": 7893,
      "Ġspl": 7894,
      "picuous": 7895,
      "Ġmans": 7896,
      "Ġhal": 7897,
      "Ġgenuine": 7898,
      "Ġcomment": 7899,
      "Ġabandoned": 7900,
      "urbed": 7901,
      "Ġlimb": 7902,
      "Ġconsisted": 7903,
      "ĠChild": 7904,
      "Ġheir": 7905,
      "Ġtroubles": 7906,
      "iche": 7907,
      "lia": 7908,
      "ĠRec": 7909,
      "Ġartist": 7910,
      "Ġ@": 7911,
      "Ġprimary": 7912,
      "Ġweary": 7913,
      "icate": 7914,
      "Ġwed": 7915,
      "going": 7916,
      "ĠWilliams": 7917,
      "ĠFo": 7918,
      "Ġgi": 7919,
      "Ġtort": 7920,
      "ĠGar": 7921,
      "Ġmutual": 7922,
      "Ġbalance": 7923,
      "ĠHas": 7924,
      "Ġlowest": 7925,
      "Ġincident": 7926,
      "Ġfaces": 7927,
      "Ġcatch": 7928,
      "ĠGreeks": 7929,
      "Ġtruths": 7930,
      "Ġtranslation": 7931,
      "Ġmeetings": 7932,
      "Ġsustained": 7933,
      "Ġdetail": 7934,
      "Ġgang": 7935,
      "cester": 7936,
      "ĠTaylor": 7937,
      "Ġmucous": 7938,
      "Ġinvestigation": 7939,
      "Ġpurchased": 7940,
      "Ġautumn": 7941,
      "two": 7942,
      "Ġinvari": 7943,
      "Ġtuber": 7944,
      "Ġgardens": 7945,
      "Ġrequested": 7946,
      "Ġconstructed": 7947,
      "Ġdiminished": 7948,
      "ĠBurn": 7949,
      "Ġsigh": 7950,
      "MAN": 7951,
      "Ġetern": 7952,
      "^-": 7953,
      "Ġvolumes": 7954,
      "Ġade": 7955,
      "ĠFlor": 7956,
      "Ġtotally": 7957,
      "Ġobtaining": 7958,
      "who": 7959,
      "ĠChron": 7960,
      "ĠHay": 7961,
      "Ġprobability": 7962,
      "KE": 7963,
      "Ġmurm": 7964,
      "Ġcircular": 7965,
      "Ġarises": 7966,
      "pture": 7967,
      "Ġecclesiastical": 7968,
      "Ġave": 7969,
      "ĠAdmiral": 7970,
      "Ġhay": 7971,
      "ĠVe": 7972,
      "Ġslightest": 7973,
      "Ġdetermination": 7974,
      "itic": 7975,
      "Ġfirmly": 7976,
      "Î¿Î¹": 7977,
      "Ġrebell": 7978,
      "erg": 7979,
      "usively": 7980,
      "Ġpert": 7981,
      "Ġditto": 7982,
      "Ġexercised": 7983,
      "cope": 7984,
      "uds": 7985,
      "Ġempty": 7986,
      "Ġdisplayed": 7987,
      "Ġ81": 7988,
      "ĠOrder": 7989,
      "Ġsupplies": 7990,
      "oli": 7991,
      "itia": 7992,
      "Ġsanction": 7993,
      "ĠClass": 7994,
      "THE": 7995,
      "á¿ĸ": 7996,
      "Ġhonourable": 7997,
      "ĠSEC": 7998,
      "ĠFrederick": 7999,
      "Ġoccupy": 8000,
      "Ġcommunicated": 8001,
      "Ġvon": 8002,
      "reement": 8003,
      "Ġsurrounding": 8004,
      "Ġterr": 8005,
      "ĠSyn": 8006,
      "Ġ72": 8007,
      "utt": 8008,
      "Ġram": 8009,
      "Ã©s": 8010,
      "Ġrelieved": 8011,
      "Ġsite": 8012,
      "assad": 8013,
      "Ġattacks": 8014,
      "Ġsect": 8015,
      "Ġangel": 8016,
      "ĠVery": 8017,
      "ori": 8018,
      "cause": 8019,
      "Ġwaves": 8020,
      "ĠFre": 8021,
      "Ġstudents": 8022,
      "Ġhide": 8023,
      "ĠWilson": 8024,
      "PER": 8025,
      "Ġannounced": 8026,
      "ĠWere": 8027,
      "Ġattendance": 8028,
      "Ġcer": 8029,
      "Ġrecords": 8030,
      "ĠFair": 8031,
      "aus": 8032,
      "Ġesse": 8033,
      "alks": 8034,
      "Ġ110": 8035,
      "Ġcollege": 8036,
      "Ġbatter": 8037,
      "Ġrequisite": 8038,
      "Ġprod": 8039,
      "ĠGRE": 8040,
      "Ġnest": 8041,
      "Ġcrystall": 8042,
      "Ġhu": 8043,
      "Ġmes": 8044,
      "DAY": 8045,
      "ceptible": 8046,
      "peare": 8047,
      "Ġconsciousness": 8048,
      "oric": 8049,
      "Ġbree": 8050,
      "Ġconceived": 8051,
      "Ġrav": 8052,
      "wart": 8053,
      "ĠGib": 8054,
      "Ġpel": 8055,
      "hs": 8056,
      "Ġ159": 8057,
      "Ġrepeat": 8058,
      "Ġshock": 8059,
      "cieties": 8060,
      "Ġmerchant": 8061,
      "Ġphrase": 8062,
      "76": 8063,
      "Ġreli": 8064,
      "ÏĥÏĦ": 8065,
      "Ġfourteen": 8066,
      "Ġinvited": 8067,
      "Ġinex": 8068,
      "quer": 8069,
      "Ġwitnesses": 8070,
      "Ġintervals": 8071,
      "Ġence": 8072,
      "Ġdwelling": 8073,
      "Ġrailway": 8074,
      "ieu": 8075,
      "Ġagus": 8076,
      "Ġprivileges": 8077,
      "Ġtreasure": 8078,
      "Ġwore": 8079,
      "Ġneeded": 8080,
      "79": 8081,
      "Ġapproved": 8082,
      "Ġsufferings": 8083,
      "Ġended": 8084,
      "Ġlean": 8085,
      "Ġeverl": 8086,
      "Ġdivisions": 8087,
      "imately": 8088,
      "Ġreview": 8089,
      "aired": 8090,
      "ĠSing": 8091,
      "78": 8092,
      "ĠMod": 8093,
      "ĠDR": 8094,
      "Ġ#": 8095,
      "ĠPray": 8096,
      "ĠEnt": 8097,
      "Ġstore": 8098,
      "ĠMuseum": 8099,
      "Ġbee": 8100,
      "ĠConv": 8101,
      "wa": 8102,
      "rin": 8103,
      "ylon": 8104,
      "ĠDay": 8105,
      "Ġthread": 8106,
      "Ġsorry": 8107,
      "Ġendeavoured": 8108,
      "ĠPresby": 8109,
      "ĠProvidence": 8110,
      "ĠCOR": 8111,
      "lu": 8112,
      "ĠWIL": 8113,
      "ĠReport": 8114,
      "Ġseventy": 8115,
      "ĠLittle": 8116,
      "Ġcurios": 8117,
      "Ġruins": 8118,
      "ĠAS": 8119,
      "Ġdeprived": 8120,
      "Ġbladder": 8121,
      "Ġcous": 8122,
      "osh": 8123,
      "ĠWould": 8124,
      "Ġcul": 8125,
      "ĠSometimes": 8126,
      "Ġdeparted": 8127,
      "Ġconstitu": 8128,
      "Ġharmony": 8129,
      "Ġdesires": 8130,
      "Ġarrive": 8131,
      "Ġphysi": 8132,
      "ĠBat": 8133,
      "Ġmethods": 8134,
      "Ġearthly": 8135,
      "utor": 8136,
      "ĠAsia": 8137,
      "Ġsurvey": 8138,
      "Ġassociated": 8139,
      "Ġ84": 8140,
      "rig": 8141,
      "cm": 8142,
      "Ġswall": 8143,
      "Ġrounded": 8144,
      "Ġenormous": 8145,
      "Ġirritation": 8146,
      "hedral": 8147,
      "ĠLETTER": 8148,
      "Ġbuy": 8149,
      "Ġattributed": 8150,
      "ĠMedic": 8151,
      "ĠLake": 8152,
      "Ġlabou": 8153,
      "ighter": 8154,
      "-'": 8155,
      "Ġfearful": 8156,
      "zes": 8157,
      "Ġcolonies": 8158,
      "Ġarbit": 8159,
      "blem": 8160,
      "Ġunnecess": 8161,
      "lier": 8162,
      "Ġconcur": 8163,
      "ĠAld": 8164,
      "ĠChinese": 8165,
      "Ġcub": 8166,
      "vant": 8167,
      "Ġeo": 8168,
      "Ġmorbid": 8169,
      "Ġdried": 8170,
      "Ġpend": 8171,
      "idd": 8172,
      "Ġdemands": 8173,
      "Ġsolitary": 8174,
      "Ġaffirm": 8175,
      "llers": 8176,
      "Ġawful": 8177,
      "Ġfare": 8178,
      "Ġobscure": 8179,
      "Ġappropriate": 8180,
      "ĠCro": 8181,
      "Ġneeds": 8182,
      "enger": 8183,
      "Ġdefinite": 8184,
      "ĠAy": 8185,
      "Ġrevenue": 8186,
      "Ġgallant": 8187,
      "Ġdrive": 8188,
      "Ġrisk": 8189,
      "ĠOl": 8190,
      "ĠTlie": 8191,
      "ĠTor": 8192,
      "Ġthefe": 8193,
      "Ġdissolved": 8194,
      "ANC": 8195,
      "ĠForm": 8196,
      "Ġesteem": 8197,
      "ĠStat": 8198,
      "ĠCHAR": 8199,
      "Ġdies": 8200,
      "Ġelevation": 8201,
      "Ġrepair": 8202,
      "Ġsubt": 8203,
      "Ġpractised": 8204,
      "Ġinsult": 8205,
      "oleon": 8206,
      "Ġsmoke": 8207,
      "Ġfought": 8208,
      "iece": 8209,
      "Ġseparation": 8210,
      "bot": 8211,
      "Ġrestrict": 8212,
      "ĠSwed": 8213,
      "Ġsuspended": 8214,
      "Ġsolic": 8215,
      "Ġadmirable": 8216,
      "ĠGreece": 8217,
      "ĠRose": 8218,
      "ERAL": 8219,
      "Ġpurity": 8220,
      "ĠSuper": 8221,
      "Ġtransport": 8222,
      "Ġintelligent": 8223,
      "ĠAlm": 8224,
      "otal": 8225,
      "Ġgirls": 8226,
      "Ġnur": 8227,
      "ĠLes": 8228,
      "ĠRight": 8229,
      "arks": 8230,
      "ĠChair": 8231,
      "Ġsummon": 8232,
      "Ġinsol": 8233,
      "onst": 8234,
      "ands": 8235,
      "Ġyounger": 8236,
      "agh": 8237,
      "ĠPhiladelphia": 8238,
      "Ġrele": 8239,
      "Ġexpenses": 8240,
      "Ġwards": 8241,
      "Ġglance": 8242,
      "Ġenjoyment": 8243,
      "Ġfolly": 8244,
      "Ġlance": 8245,
      "Ġrejected": 8246,
      "Ġlargely": 8247,
      "Ġrepres": 8248,
      "inery": 8249,
      "Ġtower": 8250,
      "ĠÎ±": 8251,
      "istics": 8252,
      "oused": 8253,
      "Ġeconomy": 8254,
      "aper": 8255,
      "sels": 8256,
      "Ġhaz": 8257,
      "Ġdiscourse": 8258,
      "Ġsafely": 8259,
      "Ġio": 8260,
      "retion": 8261,
      "ĠVan": 8262,
      "ĠAssembly": 8263,
      "Ġreception": 8264,
      "Ġcondemn": 8265,
      "herent": 8266,
      "pered": 8267,
      "Ġell": 8268,
      "Ġnour": 8269,
      "Ġtouching": 8270,
      "Ġ73": 8271,
      "ĠOb": 8272,
      "Ġtant": 8273,
      "Ġgland": 8274,
      "Ġmarble": 8275,
      "idi": 8276,
      "ĠMEM": 8277,
      "ga": 8278,
      "oni": 8279,
      "ended": 8280,
      "Ġpropriety": 8281,
      "ĠDoctor": 8282,
      "ĠLOND": 8283,
      "ĠHamilton": 8284,
      "Ġhollow": 8285,
      "agger": 8286,
      "sa": 8287,
      "Ġinside": 8288,
      "Ġmischief": 8289,
      "aign": 8290,
      "ĠLin": 8291,
      "ĠMadame": 8292,
      "Ġammonia": 8293,
      "anted": 8294,
      "ĠNO": 8295,
      "IRE": 8296,
      "Ġwil": 8297,
      "will": 8298,
      "bur": 8299,
      "Ġrejoice": 8300,
      "Ġtradition": 8301,
      "zed": 8302,
      "Ġcree": 8303,
      "Ġster": 8304,
      "Ġkid": 8305,
      "Ġinstinct": 8306,
      "Ġwhit": 8307,
      "ĠAbraham": 8308,
      "At": 8309,
      "Ġfaculties": 8310,
      "Ġdaughters": 8311,
      "Ġuses": 8312,
      "ĠJu": 8313,
      "Ġfab": 8314,
      "Ġincap": 8315,
      "ĠBow": 8316,
      "Ġheated": 8317,
      "Ġowner": 8318,
      "Ġwounds": 8319,
      "ĠBas": 8320,
      "Ġquad": 8321,
      "Ġoblique": 8322,
      "Ġthirst": 8323,
      "á½Ĳ": 8324,
      "Ġprocesses": 8325,
      "Ġgrows": 8326,
      "Ġcoarse": 8327,
      "Ġprost": 8328,
      "Ġenlight": 8329,
      "Ġconver": 8330,
      "Ġattending": 8331,
      "ĠAber": 8332,
      "Ġps": 8333,
      "Ġbought": 8334,
      "Ġfract": 8335,
      "Ġhurt": 8336,
      "TY": 8337,
      "Ġrepresentation": 8338,
      "ubs": 8339,
      "Ġbetray": 8340,
      "Ġpursuit": 8341,
      "56": 8342,
      "á¿¶": 8343,
      "Ġinsects": 8344,
      "ĠFle": 8345,
      "Ġrises": 8346,
      "Ġenact": 8347,
      "agues": 8348,
      "59": 8349,
      "Ġsources": 8350,
      "ĠWestminster": 8351,
      "Ġsickness": 8352,
      "58": 8353,
      "ĠLl": 8354,
      "Ġmarry": 8355,
      "Ġsuspicion": 8356,
      "Ġpoured": 8357,
      "Ġreceipt": 8358,
      "zo": 8359,
      "Ġphosph": 8360,
      "ĠAV": 8361,
      "ĠMinister": 8362,
      "Ġweigh": 8363,
      "eless": 8364,
      "Ġuniver": 8365,
      "Ġquot": 8366,
      "ĠSix": 8367,
      "Ġmol": 8368,
      "Ġteachers": 8369,
      "Ġcomplain": 8370,
      "Ġconject": 8371,
      "ĠAustral": 8372,
      "Ġsubl": 8373,
      "Ã¤": 8374,
      "Ġvulgar": 8375,
      "ĠQU": 8376,
      "arded": 8377,
      "Ġlimit": 8378,
      "Ġfatig": 8379,
      "olly": 8380,
      "Ġidle": 8381,
      "Ġgates": 8382,
      "Ar": 8383,
      "ĠScotch": 8384,
      "Ġcomplex": 8385,
      "Ġmostly": 8386,
      "riv": 8387,
      "Ġunjust": 8388,
      "west": 8389,
      "Ġraising": 8390,
      "Ġpoem": 8391,
      "Ġshining": 8392,
      "Ġhun": 8393,
      "tre": 8394,
      "Ġwheel": 8395,
      "bation": 8396,
      "ĠBarn": 8397,
      "ĠPoor": 8398,
      "Ġfuch": 8399,
      "Ġstudies": 8400,
      "Ġadding": 8401,
      "Ġbrow": 8402,
      "Ġcontest": 8403,
      "Ġthunder": 8404,
      "Ġ||": 8405,
      "Ġrival": 8406,
      "Ġpropose": 8407,
      "imon": 8408,
      "Ġrestore": 8409,
      "ĠRus": 8410,
      "ket": 8411,
      "Ġours": 8412,
      "Ġreflection": 8413,
      "Ġoo": 8414,
      "Ġtale": 8415,
      "Ġunanim": 8416,
      "Ġshoulder": 8417,
      "Ġdissol": 8418,
      "Ġreasoning": 8419,
      "Ġresign": 8420,
      "isms": 8421,
      "otted": 8422,
      "Ġmachine": 8423,
      "ĠLight": 8424,
      "inded": 8425,
      "Ġcured": 8426,
      "ĠHome": 8427,
      "ioned": 8428,
      "Ġuf": 8429,
      "ĠPle": 8430,
      "Ġlordship": 8431,
      "Ġdy": 8432,
      "Ġblessings": 8433,
      "Ġfinest": 8434,
      "Ġancest": 8435,
      "Ġeverywhere": 8436,
      "ptic": 8437,
      "Ġseal": 8438,
      "alls": 8439,
      "Ð°": 8440,
      "Ġepit": 8441,
      "Ġfailure": 8442,
      "gh": 8443,
      "hent": 8444,
      "Ã¶": 8445,
      "Ġcopies": 8446,
      "Ġdesper": 8447,
      "ĠJustice": 8448,
      "Ġvicinity": 8449,
      "ĠCre": 8450,
      "umer": 8451,
      "Ġassault": 8452,
      "Ġmulti": 8453,
      "TO": 8454,
      "Ġrevealed": 8455,
      "Ġfierce": 8456,
      "ĠGentle": 8457,
      "Ġdisse": 8458,
      "Ġdispute": 8459,
      "Ġcertainty": 8460,
      "ĠArist": 8461,
      "Ġtraced": 8462,
      "ques": 8463,
      "LEY": 8464,
      "ĠSabbath": 8465,
      "ĠGE": 8466,
      "Ġgently": 8467,
      "Ġmotive": 8468,
      "ĠMars": 8469,
      "ĠOut": 8470,
      "ĠAmb": 8471,
      "ĠHart": 8472,
      "Ġunite": 8473,
      "rage": 8474,
      "ĠWithout": 8475,
      "uh": 8476,
      "ĠMort": 8477,
      "houses": 8478,
      "ĠLONDON": 8479,
      "Ġnewsp": 8480,
      "ĠRog": 8481,
      "Ġdense": 8482,
      "ÏīÎ½": 8483,
      "Ġhousehold": 8484,
      "Ġheathen": 8485,
      "Ġstrain": 8486,
      "Ġswelling": 8487,
      "Ġlan": 8488,
      "ĠEss": 8489,
      "Ġconcealed": 8490,
      "Ġadvers": 8491,
      "ENTS": 8492,
      "ĠFlore": 8493,
      "istent": 8494,
      "Ġtear": 8495,
      "Ġexcuse": 8496,
      "ĠHaw": 8497,
      "Ġprolong": 8498,
      "Ġelder": 8499,
      "Ġangles": 8500,
      "rol": 8501,
      "Ġunhappy": 8502,
      "othes": 8503,
      "Ġstudied": 8504,
      "Ġaux": 8505,
      "Ġconstitute": 8506,
      "Ġcaps": 8507,
      "isation": 8508,
      "Ġmm": 8509,
      "Ġein": 8510,
      "igen": 8511,
      "Ġshorter": 8512,
      "Ġresemblance": 8513,
      "Ġsmell": 8514,
      "Ġexhausted": 8515,
      "otions": 8516,
      "Ġborrow": 8517,
      "Ġeverlasting": 8518,
      "Ġdeeds": 8519,
      "Ġcontend": 8520,
      "ĠAnne": 8521,
      "Ġcontrast": 8522,
      "Ġate": 8523,
      "Ġnurs": 8524,
      "Ġextends": 8525,
      "Ġ158": 8526,
      "irds": 8527,
      "iva": 8528,
      "Ġtib": 8529,
      "resses": 8530,
      "Ġmix": 8531,
      "ĠBL": 8532,
      "Ġstudent": 8533,
      "Ġsess": 8534,
      "Ġdismiss": 8535,
      "Ġindependence": 8536,
      "ĠNapoleon": 8537,
      "illary": 8538,
      "geons": 8539,
      "bted": 8540,
      "Ġcongregation": 8541,
      "mun": 8542,
      "Ġurg": 8543,
      "ĠWalk": 8544,
      "sea": 8545,
      "Ġpover": 8546,
      "Ġcontracted": 8547,
      "ĠMichael": 8548,
      "Ġdesirous": 8549,
      "Ġobser": 8550,
      "Ġdecide": 8551,
      "Ġknife": 8552,
      "six": 8553,
      "Ġscul": 8554,
      "asy": 8555,
      "ulf": 8556,
      "Ġlanded": 8557,
      "Ġhappens": 8558,
      "icans": 8559,
      "Ġpromote": 8560,
      "Ġbloom": 8561,
      "Ġsteady": 8562,
      "Ġjustified": 8563,
      "iry": 8564,
      "Ġranks": 8565,
      "Ġbottle": 8566,
      "Ġdecay": 8567,
      "chn": 8568,
      "Ġsincere": 8569,
      "ado": 8570,
      "BS": 8571,
      "ensed": 8572,
      "Ġexceeding": 8573,
      "Ġclaimed": 8574,
      "fts": 8575,
      "Ġpenal": 8576,
      "Ġcf": 8577,
      "CT": 8578,
      "Ġblock": 8579,
      "YS": 8580,
      "iations": 8581,
      "Ġedges": 8582,
      "ĠAlf": 8583,
      "Ġaffords": 8584,
      "ifully": 8585,
      "Ġheavens": 8586,
      "Ġtables": 8587,
      "Ġbrothers": 8588,
      "Ġestimate": 8589,
      "Ġnegot": 8590,
      "ĠMi": 8591,
      "ifferent": 8592,
      "Ġspeedily": 8593,
      "Ġfub": 8594,
      "Ġroads": 8595,
      "Ġrede": 8596,
      "Ġmud": 8597,
      "gia": 8598,
      "ĠPoly": 8599,
      "Ġwashed": 8600,
      "Ġaur": 8601,
      "ĠLordship": 8602,
      "ĠLeaves": 8603,
      "ĠTemple": 8604,
      "lig": 8605,
      "isons": 8606,
      "Ġextremities": 8607,
      "ght": 8608,
      "ĠStan": 8609,
      "DER": 8610,
      "cation": 8611,
      "vii": 8612,
      "atical": 8613,
      "Ġverte": 8614,
      "Ġdesigns": 8615,
      "ĠÑ": 8616,
      "anus": 8617,
      "Ġdogs": 8618,
      "rot": 8619,
      "Ġail": 8620,
      "Ġrepose": 8621,
      "ometer": 8622,
      "Ġdial": 8623,
      "ths": 8624,
      "Ġpunish": 8625,
      "ĠGhost": 8626,
      "Ġproves": 8627,
      "Ġmarg": 8628,
      "ĠAst": 8629,
      "Ġliquor": 8630,
      "Ġduly": 8631,
      "Ġlisten": 8632,
      "Ġepid": 8633,
      "Ġequival": 8634,
      "Ġsupreme": 8635,
      "Ġbab": 8636,
      "ĠOv": 8637,
      "Ġinvent": 8638,
      "Ġstreams": 8639,
      "'ve": 8640,
      "Ġdas": 8641,
      "Ġlecture": 8642,
      "Ġattachment": 8643,
      "IF": 8644,
      "illes": 8645,
      "oping": 8646,
      "cont": 8647,
      "iie": 8648,
      "Ġvous": 8649,
      "Ġeldest": 8650,
      "Ġrage": 8651,
      "Ġrenewed": 8652,
      "Ġacquire": 8653,
      "Ġprotest": 8654,
      "ĠThird": 8655,
      "ĠBoy": 8656,
      "ĠProp": 8657,
      "Ġoccasional": 8658,
      "ĠTho": 8659,
      "Ġlaying": 8660,
      "Ġconspicuous": 8661,
      "bac": 8662,
      "Ġpreparing": 8663,
      "ĠWel": 8664,
      "ĠFree": 8665,
      "ava": 8666,
      "Ġgifts": 8667,
      "Ġpist": 8668,
      "Ġundoubtedly": 8669,
      "Ġpreferred": 8670,
      "Ġnormal": 8671,
      "ouch": 8672,
      "Ġpoverty": 8673,
      "Ġunity": 8674,
      "angel": 8675,
      "rene": 8676,
      "shaped": 8677,
      "Ġfemales": 8678,
      "Ġnoon": 8679,
      "Ġconsecr": 8680,
      "sch": 8681,
      "Ġcough": 8682,
      "Ġcheap": 8683,
      "Ġsteel": 8684,
      "Ġpick": 8685,
      "quate": 8686,
      "riages": 8687,
      "fig": 8688,
      "ĠGil": 8689,
      "Ġexpressions": 8690,
      "ĠDepart": 8691,
      "ĠCommissioners": 8692,
      "ĠSun": 8693,
      "Ġaccurate": 8694,
      "diction": 8695,
      "Ġinvention": 8696,
      "Ġoffering": 8697,
      "Ġfeature": 8698,
      "Ġalteration": 8699,
      "Ġcalam": 8700,
      "Ġapostles": 8701,
      "Ġtranqu": 8702,
      "soever": 8703,
      "Ġvein": 8704,
      "Ġlively": 8705,
      "Ġlip": 8706,
      "Ġsphere": 8707,
      "Ġsignal": 8708,
      "Ġdisgrace": 8709,
      "Ġwherever": 8710,
      "ENS": 8711,
      "Ġinward": 8712,
      "ĠBru": 8713,
      "Ġexpend": 8714,
      "ĠEN": 8715,
      "Ġbands": 8716,
      "Ġbrig": 8717,
      "Ġflatter": 8718,
      "Ġaccus": 8719,
      "Ġattent": 8720,
      "lying": 8721,
      "ĠHope": 8722,
      "Ġridic": 8723,
      "Ġsimplicity": 8724,
      "Ġplayed": 8725,
      "Ġdescended": 8726,
      "Ġpossesses": 8727,
      "ortions": 8728,
      "ois": 8729,
      "Ġexertions": 8730,
      "Ġindebted": 8731,
      "Ġlent": 8732,
      "Ġrepresents": 8733,
      "ĠPE": 8734,
      "aver": 8735,
      "Ġcavalry": 8736,
      "Ġsecondary": 8737,
      "Ġtrying": 8738,
      "Ġ82": 8739,
      "Ġpond": 8740,
      "Ġaudience": 8741,
      "race": 8742,
      "Ġprey": 8743,
      "icious": 8744,
      "Ġ83": 8745,
      "ĠSouthern": 8746,
      "umen": 8747,
      "rants": 8748,
      "Ġinject": 8749,
      "Ġearnestly": 8750,
      "'re": 8751,
      "Ġ97": 8752,
      "Ġextension": 8753,
      "Ġdiscern": 8754,
      "Ġweap": 8755,
      "Ġstret": 8756,
      "Ġgrateful": 8757,
      "wt": 8758,
      "inch": 8759,
      "Ġsteep": 8760,
      "Ġmanifested": 8761,
      "Ġbef": 8762,
      "Ġbestowed": 8763,
      "dered": 8764,
      "tts": 8765,
      "Ġff": 8766,
      "ĠArm": 8767,
      "Ġscorn": 8768,
      "ka": 8769,
      "Ġthreatened": 8770,
      "Ġrh": 8771,
      "Ġoccupation": 8772,
      "Ġpursue": 8773,
      "uration": 8774,
      "ĠÎºÎ±á½¶": 8775,
      "ĠSU": 8776,
      "Ġredd": 8777,
      "Ġcorrespondence": 8778,
      "Ġanger": 8779,
      "Ġalleged": 8780,
      "ĠBurg": 8781,
      "Ġlun": 8782,
      "Ġyard": 8783,
      "Ġgrasp": 8784,
      "Ġperpetual": 8785,
      "Ġeducated": 8786,
      "Ġmechanical": 8787,
      "oups": 8788,
      "ERIC": 8789,
      "dles": 8790,
      "Ġarmies": 8791,
      "Ġmineral": 8792,
      "Ġsixteen": 8793,
      "Ġnig": 8794,
      "ipes": 8795,
      "Ġlac": 8796,
      "Ġpreparations": 8797,
      "Ġfarmer": 8798,
      "ĠJackson": 8799,
      "HES": 8800,
      "Ġconstitutional": 8801,
      "Ġangry": 8802,
      "Ġether": 8803,
      "Ġadmire": 8804,
      "Ġconvuls": 8805,
      "Ġglands": 8806,
      "Ġct": 8807,
      "eight": 8808,
      "mph": 8809,
      "Ġduration": 8810,
      "ĠExam": 8811,
      "Ġdeaths": 8812,
      "ĠTen": 8813,
      "leep": 8814,
      "Ġrenders": 8815,
      "ĠHan": 8816,
      "Ġtumour": 8817,
      "Ġvigorous": 8818,
      "Ġnegative": 8819,
      "Ġneighbor": 8820,
      "Ġ130": 8821,
      "liness": 8822,
      "Ġstrangers": 8823,
      "ĠLee": 8824,
      "Ġdors": 8825,
      "ĠWes": 8826,
      "Ġhorizont": 8827,
      "leton": 8828,
      "ĠBi": 8829,
      "Ġdrunk": 8830,
      "ĠSY": 8831,
      "ĠTime": 8832,
      "Ġovercome": 8833,
      "Ġcaution": 8834,
      "Ġrecovery": 8835,
      "Ġstraw": 8836,
      "Ġextrav": 8837,
      "Ġendure": 8838,
      "Ġfie": 8839,
      "Ġagreement": 8840,
      "eri": 8841,
      "Ġtimber": 8842,
      "Ġsprings": 8843,
      "irty": 8844,
      "racy": 8845,
      "ĠAnge": 8846,
      "iated": 8847,
      "apes": 8848,
      "Ġindicate": 8849,
      "Ġadjo": 8850,
      "Ġrat": 8851,
      "olas": 8852,
      "ĠInn": 8853,
      "ĠPrice": 8854,
      "ipped": 8855,
      "olics": 8856,
      "ĠJewish": 8857,
      "Ġplenty": 8858,
      "erity": 8859,
      "68": 8860,
      "AU": 8861,
      "Ġprimitive": 8862,
      "inating": 8863,
      "Ġrational": 8864,
      "ĠSenate": 8865,
      "Ġstatements": 8866,
      "Ġfollowers": 8867,
      "99": 8868,
      "Ġexchange": 8869,
      "uy": 8870,
      "Ġdeposited": 8871,
      "ĠFam": 8872,
      "Ġintimate": 8873,
      "Ġtranslated": 8874,
      "Ġ500": 8875,
      "ĠAcadem": 8876,
      "Ġpotass": 8877,
      "ĠMatt": 8878,
      "eman": 8879,
      "Ġnarrative": 8880,
      "Ġenterprise": 8881,
      "Ġconquer": 8882,
      "Ġapproached": 8883,
      "td": 8884,
      "empl": 8885,
      "Ġillustration": 8886,
      "ĠMexico": 8887,
      "Ġous": 8888,
      "gent": 8889,
      "ĠHal": 8890,
      "Ġcommunion": 8891,
      "Ġshield": 8892,
      "hill": 8893,
      "ĠDise": 8894,
      "Ġobserves": 8895,
      "Ġloving": 8896,
      "Ġgaz": 8897,
      "Ġregularly": 8898,
      "Ġresembling": 8899,
      "Ġhydrogen": 8900,
      "Ġsending": 8901,
      "sm": 8902,
      "Ġdescribes": 8903,
      "Ġthickness": 8904,
      "onic": 8905,
      "Ġses": 8906,
      "ĠHab": 8907,
      "Ġunnecessary": 8908,
      "Ġ140": 8909,
      "Ġshores": 8910,
      "ĠRussian": 8911,
      "ĠGrace": 8912,
      "bel": 8913,
      "Ġolder": 8914,
      "Ġfoul": 8915,
      "Î±Î½": 8916,
      "ĠLar": 8917,
      "idelity": 8918,
      "Ġhit": 8919,
      "ulum": 8920,
      "iil": 8921,
      "acent": 8922,
      "ĠLam": 8923,
      "Ġnoted": 8924,
      "ĠWol": 8925,
      "ĠBran": 8926,
      "Ġsecretary": 8927,
      "Ġdose": 8928,
      "Ġore": 8929,
      "ĠNay": 8930,
      "bri": 8931,
      "Ġascend": 8932,
      "arf": 8933,
      "Ġsam": 8934,
      "ĠDa": 8935,
      "ANCE": 8936,
      "Ġsermon": 8937,
      "Ġabandon": 8938,
      "ĠMethod": 8939,
      "Ġglob": 8940,
      "Ġwhereby": 8941,
      "ĠAG": 8942,
      "Ġsaving": 8943,
      "Ġperish": 8944,
      "Ġassign": 8945,
      "Ġsatisfy": 8946,
      "Ġenv": 8947,
      "Ġpeculiarly": 8948,
      "arts": 8949,
      "Ġgravity": 8950,
      "tl": 8951,
      "Ġunre": 8952,
      "Ġpractition": 8953,
      "Ġinterval": 8954,
      "ĠUpper": 8955,
      "ÎµÎ½": 8956,
      "cus": 8957,
      "Ġpersuaded": 8958,
      "Ġunusual": 8959,
      "Ġtyran": 8960,
      "Ġnod": 8961,
      "ĠColon": 8962,
      "natural": 8963,
      "],": 8964,
      "Ġaccomplish": 8965,
      "Ġrates": 8966,
      "Ġry": 8967,
      "Ġei": 8968,
      "Ġshoulders": 8969,
      "Ġrecur": 8970,
      "iasm": 8971,
      "unci": 8972,
      "eys": 8973,
      "Ġsavage": 8974,
      "Ġimagined": 8975,
      "ĠBrist": 8976,
      "dale": 8977,
      "Ġlords": 8978,
      "Ġadvert": 8979,
      "Ġig": 8980,
      "tn": 8981,
      "icli": 8982,
      "Ġdifferences": 8983,
      "Ġspare": 8984,
      "Ġnomin": 8985,
      "while": 8986,
      "ĠAuthor": 8987,
      "Ġearl": 8988,
      "Ġana": 8989,
      "occ": 8990,
      "Ġsets": 8991,
      "ĠRepublic": 8992,
      "ĠImper": 8993,
      "Ġcheek": 8994,
      "uli": 8995,
      "ĠMax": 8996,
      "Ġcoin": 8997,
      "ĠLetter": 8998,
      "ĠDom": 8999,
      "ĠSuff": 9000,
      "Ġpatent": 9001,
      "Ġimmortal": 9002,
      "ĠLast": 9003,
      "ĠBridge": 9004,
      "ĠWard": 9005,
      "Ġwool": 9006,
      "Ġslain": 9007,
      "Ġsinners": 9008,
      "unning": 9009,
      "Ġwre": 9010,
      "osity": 9011,
      "Ġpossibility": 9012,
      "eder": 9013,
      "ĠSin": 9014,
      "Ġclause": 9015,
      "Ġexclusively": 9016,
      "Ġdistributed": 9017,
      "omical": 9018,
      "Ġplane": 9019,
      "ĠMargaret": 9020,
      "wen": 9021,
      "Ġ91": 9022,
      "Ġtrunk": 9023,
      "Ġdeeper": 9024,
      "Ġresc": 9025,
      "rank": 9026,
      "hended": 9027,
      "Ġeee": 9028,
      "Ġbie": 9029,
      "Ġseas": 9030,
      "Ġfoolish": 9031,
      "version": 9032,
      "ĠUr": 9033,
      "Ġsummit": 9034,
      "ĠCab": 9035,
      "Ġelong": 9036,
      "Ġcuriosity": 9037,
      "Ġsunk": 9038,
      "Ġapex": 9039,
      "itto": 9040,
      "Ġconceal": 9041,
      "eches": 9042,
      "Ġreduction": 9043,
      "Ġpupil": 9044,
      "ĠAthen": 9045,
      "Ġroll": 9046,
      "Ġ108": 9047,
      "ĠLim": 9048,
      "Ġroute": 9049,
      "ĠNorthern": 9050,
      "vell": 9051,
      "Ġmerchants": 9052,
      "Ġreconcil": 9053,
      "Ġcriminal": 9054,
      "Ġjoints": 9055,
      "plex": 9056,
      "ART": 9057,
      "cre": 9058,
      "ĠFL": 9059,
      "Ġmour": 9060,
      "ĠBath": 9061,
      "ĠIndies": 9062,
      "Î®": 9063,
      "Ġneighbouring": 9064,
      "Ġsurf": 9065,
      "ĠHot": 9066,
      "orge": 9067,
      "edy": 9068,
      "Ġholiness": 9069,
      "Ġject": 9070,
      "Ġfeared": 9071,
      "Ġplacing": 9072,
      "Ġcommit": 9073,
      "ĠMis": 9074,
      "ĠFox": 9075,
      "Ġnnd": 9076,
      "Ġiod": 9077,
      "Ġinsert": 9078,
      "Ġcareless": 9079,
      "ĠDomin": 9080,
      "ĠAny": 9081,
      "ĠBRI": 9082,
      "Ġomitted": 9083,
      "Ġclerk": 9084,
      "ĠChance": 9085,
      "Ġprecept": 9086,
      "Ġexhibition": 9087,
      "Ġglor": 9088,
      "Ġbills": 9089,
      "Ġstout": 9090,
      "ICH": 9091,
      "Ġmourn": 9092,
      "ÃŁ": 9093,
      "uis": 9094,
      "Ġfeels": 9095,
      "ĠRoad": 9096,
      "Ġlights": 9097,
      "burn": 9098,
      "Ġnearest": 9099,
      "Ġstam": 9100,
      "eenth": 9101,
      "Tis": 9102,
      "Ġsinging": 9103,
      "ĠScottish": 9104,
      "Ġdecree": 9105,
      "arches": 9106,
      "Ġcolle": 9107,
      "ICE": 9108,
      "ĠaU": 9109,
      "ector": 9110,
      "apse": 9111,
      "imo": 9112,
      "\"'": 9113,
      "Ġsymb": 9114,
      "olera": 9115,
      "Ġafl": 9116,
      "Ġmistress": 9117,
      "ifh": 9118,
      "^^^": 9119,
      "Ġuncommon": 9120,
      "ĠMas": 9121,
      "Ġeighty": 9122,
      "Ġinjurious": 9123,
      "bu": 9124,
      "LIAM": 9125,
      "aU": 9126,
      "Ġenlarge": 9127,
      "anity": 9128,
      "hetic": 9129,
      "ĠStaff": 9130,
      "emption": 9131,
      "Ġestimated": 9132,
      "Ġpope": 9133,
      "inis": 9134,
      "ifted": 9135,
      "Ġconception": 9136,
      "Ġlege": 9137,
      "ĠNic": 9138,
      "ĠSpani": 9139,
      "Ġphilosoph": 9140,
      "Ġfp": 9141,
      "Ġdeposit": 9142,
      "alogue": 9143,
      "ĠStephen": 9144,
      "Ġdoses": 9145,
      "Ġirre": 9146,
      "Ġevap": 9147,
      "Ġanalysis": 9148,
      "Ġdestined": 9149,
      "ĠCow": 9150,
      "Ġbrick": 9151,
      "Ġsixth": 9152,
      "Ġovert": 9153,
      "ĠBern": 9154,
      "ĠTri": 9155,
      "Ġloyal": 9156,
      "Ġtooth": 9157,
      "Ġpleasures": 9158,
      "Ġtalent": 9159,
      "Ġdelightful": 9160,
      "Ġtemporal": 9161,
      "ĠWork": 9162,
      "Ġfoss": 9163,
      "Ġobjections": 9164,
      "Ġsalts": 9165,
      "Ġannum": 9166,
      "ĠSaint": 9167,
      "Ġunse": 9168,
      "Ġbusy": 9169,
      "Ġessent": 9170,
      "Ġpocket": 9171,
      "ĠSO": 9172,
      "âĸł": 9173,
      "ĠBal": 9174,
      "fy": 9175,
      "Ġalleg": 9176,
      "Ġrefuge": 9177,
      "Ġhole": 9178,
      "ione": 9179,
      "rc": 9180,
      "Ġflock": 9181,
      "Ġdisag": 9182,
      "ĠDoug": 9183,
      "Ġtriang": 9184,
      "bat": 9185,
      "Ġfeast": 9186,
      "ĠGaz": 9187,
      "Ġburden": 9188,
      "Ġpus": 9189,
      "rating": 9190,
      "master": 9191,
      "Ġmoments": 9192,
      "Ġpall": 9193,
      "Ġthofe": 9194,
      "Ġfaire": 9195,
      "Ġflav": 9196,
      "Ġimpat": 9197,
      "Ġentreat": 9198,
      "ĠIND": 9199,
      "ĠNote": 9200,
      "ĠKnight": 9201,
      "inqu": 9202,
      "Ġvex": 9203,
      "ĠDaniel": 9204,
      "erman": 9205,
      "atched": 9206,
      "Ġamidst": 9207,
      "ĠTro": 9208,
      "ĠRailway": 9209,
      "iderable": 9210,
      "Ġpretend": 9211,
      "ĠGarden": 9212,
      "Ġfulfil": 9213,
      "Ġwitnessed": 9214,
      "otism": 9215,
      "Ġvind": 9216,
      "Ġselfish": 9217,
      "ĠLect": 9218,
      "Ġexcellence": 9219,
      "Ġleis": 9220,
      "heart": 9221,
      "Ġwitli": 9222,
      "Ġmounted": 9223,
      "Ġglobe": 9224,
      "ffic": 9225,
      "Ġbeneficial": 9226,
      "Ġsiege": 9227,
      "isi": 9228,
      "Ġpermission": 9229,
      "neys": 9230,
      "Ġuttered": 9231,
      "stru": 9232,
      "Ġ105": 9233,
      "Ġpremises": 9234,
      "Ġdiscont": 9235,
      "castle": 9236,
      "Ġhate": 9237,
      "Ġsubjected": 9238,
      "ĠOnly": 9239,
      "amental": 9240,
      "ighed": 9241,
      "Ġdistribution": 9242,
      "Ġwax": 9243,
      "Ġva": 9244,
      "heum": 9245,
      "Ġbreakfast": 9246,
      "ĠCu": 9247,
      "Ġnice": 9248,
      "Ġproofs": 9249,
      "Ġrelates": 9250,
      "allic": 9251,
      "Ġassisted": 9252,
      "Ġlum": 9253,
      "Ġ94": 9254,
      "PT": 9255,
      "Ġvow": 9256,
      "Ġseasons": 9257,
      "Ġknee": 9258,
      "esar": 9259,
      "Ġ93": 9260,
      "Ġtf": 9261,
      "Ġblame": 9262,
      "ĠLewis": 9263,
      "Ġpaying": 9264,
      "Ġadministered": 9265,
      "Ġestates": 9266,
      "LD": 9267,
      "Ġlover": 9268,
      "inum": 9269,
      "Ġxiv": 9270,
      "Ġoxide": 9271,
      "Ġverses": 9272,
      "Ġresources": 9273,
      "ĠMerc": 9274,
      "arc": 9275,
      "Ġappetite": 9276,
      "ĠIbid": 9277,
      "Ġrecognised": 9278,
      "Ġadult": 9279,
      "Ġnotions": 9280,
      "Ġdependent": 9281,
      "Ġsuccessive": 9282,
      "Ġowe": 9283,
      "ĠNatural": 9284,
      "Ġaxis": 9285,
      "din": 9286,
      "Ġeru": 9287,
      "Ġstick": 9288,
      "Ġexcessive": 9289,
      "Ġoverlo": 9290,
      "ĠDick": 9291,
      "ĠArchbishop": 9292,
      "Ġsangu": 9293,
      "ĠGrant": 9294,
      "Ġwars": 9295,
      "Ġnd": 9296,
      "Ġclothed": 9297,
      "Ġquid": 9298,
      "ĠWy": 9299,
      "hr": 9300,
      "Ġwidely": 9301,
      "Ġbv": 9302,
      "Ġpau": 9303,
      "Ġkey": 9304,
      "Ġscales": 9305,
      "ĠWhit": 9306,
      "ĠClar": 9307,
      "umm": 9308,
      "Ġquietly": 9309,
      "Ġpreval": 9310,
      "Ġsevent": 9311,
      "Ġsuspect": 9312,
      "ĠCant": 9313,
      "usetts": 9314,
      "Ġantiquity": 9315,
      "Ġmodes": 9316,
      "ĠDistrict": 9317,
      "jt": 9318,
      "Ġsunt": 9319,
      "Ġfragments": 9320,
      "ĠBecause": 9321,
      "Ġasserted": 9322,
      "ALE": 9323,
      "arly": 9324,
      "gence": 9325,
      "ĠBOOK": 9326,
      "Ġknock": 9327,
      "Ġvenge": 9328,
      "Ġupright": 9329,
      "ifl": 9330,
      "ĠPel": 9331,
      "Ġrud": 9332,
[...]
